<unk>	0
<pad>	0
<s>	0
</s>	0
▁the	-3.07332
,	-3.29508
.	-3.42227
s	-3.60119
▁of	-3.72669
▁and	-3.83589
▁to	-3.88159
▁in	-4.1591
▁a	-4.24218
▁is	-4.53441
▁	-4.7673
▁that	-4.78869
▁for	-4.83827
-	-5.09925
▁on	-5.11831
▁be	-5.22764
▁with	-5.23575
▁The	-5.28767
▁are	-5.30033
▁I	-5.31653
ing	-5.34363
▁this	-5.44457
▁as	-5.49691
▁it	-5.53338
ed	-5.53942
▁we	-5.54921
▁by	-5.60728
▁not	-5.61175
▁have	-5.61402
▁you	-5.6863
d	-5.70885
▁will	-5.75616
▁which	-5.76133
'	-5.81173
▁from	-5.82481
▁at	-5.90621
▁or	-5.91019
▁has	-5.93212
▁an	-5.94151
▁(	-5.94885
▁can	-6.07193
ly	-6.08442
▁all	-6.12853
▁was	-6.13448
▁European	-6.14262
▁our	-6.14677
e	-6.18871
er	-6.23588
y	-6.2393
t	-6.24811
▁also	-6.26378
:	-6.31428
▁-	-6.32377
)	-6.34094
▁In	-6.38837
▁your	-6.40017
n	-6.41481
▁We	-6.42716
▁but	-6.46867
▁would	-6.50087
▁more	-6.52002
▁their	-6.52629
▁its	-6.5266
▁A	-6.55148
▁been	-6.5586
▁It	-6.58151
▁one	-6.58179
al	-6.59587
’	-6.59775
▁Mr	-6.60005
▁This	-6.61693
▁should	-6.63261
o	-6.71784
r	-6.72295
▁Commission	-6.72348
▁do	-6.73153
▁must	-6.7486
▁new	-6.77037
es	-6.7749
▁other	-6.7839
▁very	-6.80406
▁time	-6.81816
▁there	-6.81884
▁like	-6.82558
a	-6.83334
▁so	-6.83418
▁President	-6.84469
▁only	-6.85272
▁they	-6.86731
▁about	-6.87112
in	-6.88115
m	-6.91115
▁re	-6.91499
?	-6.94134
▁no	-6.9438
re	-6.94963
▁S	-6.95508
▁up	-6.95588
▁who	-6.95966
▁"	-6.97527
▁these	-6.97727
▁de	-6.99951
▁out	-7.00009
en	-7.01833
▁us	-7.02477
/	-7.02582
i	-7.02596
▁Union	-7.03395
▁if	-7.0372
▁any	-7.04405
▁people	-7.06198
or	-7.07776
▁Parliament	-7.08926
▁into	-7.09454
th	-7.09587
▁Europe	-7.09621
▁report	-7.12888
▁were	-7.14351
;	-7.14727
▁well	-7.15131
▁such	-7.15441
▁Member	-7.16228
▁what	-7.16514
▁States	-7.16983
▁need	-7.17463
▁countries	-7.18334
▁my	-7.19461
▁than	-7.1956
▁work	-7.20033
▁–	-7.20082
▁his	-7.21603
▁use	-7.2186
▁some	-7.21918
▁when	-7.22482
▁make	-7.24201
S	-7.2434
▁Council	-7.24652
▁most	-7.25044
▁first	-7.25156
▁he	-7.26106
▁important	-7.26919
▁over	-7.26933
▁now	-7.28357
l	-7.28574
▁EU	-7.29093
g	-7.29223
▁many	-7.29272
▁between	-7.3022
▁take	-7.31526
▁s	-7.32894
▁because	-7.33268
▁E	-7.33624
▁them	-7.34121
!	-7.34152
"	-7.3457
le	-7.3482
ar	-7.35383
▁C	-7.37453
▁support	-7.37721
p	-7.40293
▁hotel	-7.40875
▁information	-7.41254
▁two	-7.41978
▁just	-7.42666
▁way	-7.43355
▁made	-7.44098
st	-7.44165
▁world	-7.44687
▁years	-7.44934
▁those	-7.45849
on	-7.46268
ers	-7.46374
▁had	-7.46383
▁If	-7.4669
▁where	-7.46926
u	-7.48154
able	-7.48358
an	-7.48454
▁policy	-7.48718
f	-7.49268
B	-7.50332
▁order	-7.50506
k	-7.50676
▁am	-7.50915
D	-7.51428
C	-7.51438
ation	-7.5164
▁me	-7.52903
▁system	-7.53151
c	-7.53231
▁B	-7.53252
▁may	-7.53483
▁being	-7.53509
A	-7.54016
▁un	-7.54075
▁For	-7.55555
▁even	-7.55936
▁right	-7.56611
▁part	-7.57125
▁good	-7.59892
ity	-7.6011
▁under	-7.60589
P	-7.60841
▁.	-7.60976
▁year	-7.61402
▁area	-7.61781
▁market	-7.62482
la	-7.62488
▁You	-7.63639
▁As	-7.63907
▁here	-7.64218
▁place	-7.64238
▁G	-7.65291
▁own	-7.66041
▁after	-7.66104
h	-7.6666
▁through	-7.66987
▁e	-7.67419
▁economic	-7.68108
▁possible	-7.68228
▁same	-7.68404
ll	-7.68458
▁want	-7.68603
▁K	-7.68924
).	-7.68951
z	-7.69083
▁see	-7.69439
▁political	-7.6966
▁development	-7.69886
te	-7.69933
▁could	-7.70639
ra	-7.72002
ck	-7.7295
▁“	-7.73107
w	-7.73251
▁find	-7.7336
to	-7.73777
el	-7.73834
▁2	-7.7411
it	-7.74122
▁There	-7.74163
ch	-7.75003
▁against	-7.75145
▁within	-7.75237
▁3	-7.75239
▁both	-7.75363
▁public	-7.75548
il	-7.75942
▁F	-7.76222
▁fact	-7.76263
▁high	-7.76479
▁much	-7.76779
▁know	-7.77065
▁D	-7.7707
▁therefore	-7.77229
▁rights	-7.77251
us	-7.77506
na	-7.77774
▁how	-7.77884
▁,	-7.78013
b	-7.78286
▁international	-7.78364
▁point	-7.78777
E	-7.7899
▁used	-7.7906
▁P	-7.79134
▁country	-7.79288
▁view	-7.7969
▁does	-7.79897
▁19	-7.80208
▁social	-7.80751
”	-7.8082
▁number	-7.80986
▁believe	-7.81035
ic	-7.81331
▁free	-7.81551
▁end	-7.81735
▁1	-7.82097
de	-7.82682
ment	-7.82743
▁'	-7.83143
I	-7.83152
▁without	-7.83168
ne	-7.83289
▁long	-7.83545
▁different	-7.84224
▁last	-7.84695
▁Re	-7.84743
lo	-7.84817
▁Hotel	-7.84942
F	-7.85897
G	-7.86042
ur	-7.86059
▁say	-7.86224
▁set	-7.86522
▁process	-7.86876
▁still	-7.87047
at	-7.87513
▁great	-7.87526
ro	-7.88319
▁services	-7.8835
se	-7.88757
▁available	-7.89248
▁con	-7.89626
ion	-7.89702
▁To	-7.89837
▁human	-7.90684
▁future	-7.90817
T	-7.91488
▁already	-7.9171
▁before	-7.92038
▁then	-7.92088
▁course	-7.92385
▁national	-7.93002
ive	-7.93728
ia	-7.93746
▁get	-7.93972
▁today	-7.94458
▁That	-7.94805
▁example	-7.94896
▁debate	-7.9494
▁think	-7.95135
2	-7.95259
▁But	-7.96588
▁Commissioner	-7.96929
▁case	-7.97167
▁service	-7.97274
▁data	-7.97572
),	-7.97743
▁products	-7.97978
ter	-7.98023
▁help	-7.98027
▁cannot	-7.98056
▁able	-7.98317
M	-7.98666
▁question	-7.98696
▁T	-7.9907
ce	-7.99115
ge	-7.99275
me	-7.996
▁level	-8.00478
x	-8.00979
▁financial	-8.01
▁too	-8.01704
ent	-8.02379
li	-8.0242
▁issue	-8.02654
▁access	-8.02937
▁clear	-8.03636
▁M	-8.03668
▁room	-8.03802
▁proposal	-8.04099
co	-8.04698
▁back	-8.04742
▁small	-8.04794
▁since	-8.0483
▁during	-8.05156
▁O	-8.05183
com	-8.05423
▁offers	-8.05431
▁day	-8.05634
▁best	-8.0577
ist	-8.0597
▁said	-8.06173
is	-8.06179
ta	-8.06309
▁situation	-8.06648
et	-8.06833
▁means	-8.07223
...	-8.07974
▁ensure	-8.08329
▁All	-8.08341
▁city	-8.084
▁every	-8.08558
ma	-8.08916
▁He	-8.08969
▁special	-8.09038
▁quality	-8.09394
▁real	-8.10101
▁However	-8.10183
O	-8.10184
▁business	-8.10583
▁common	-8.11028
▁co	-8.11059
▁particular	-8.11338
▁few	-8.11557
▁per	-8.11568
▁offer	-8.11775
▁And	-8.12162
▁each	-8.12307
▁including	-8.12509
▁Our	-8.12761
▁far	-8.13022
ary	-8.13087
▁Committee	-8.13112
▁problem	-8.13308
▁hope	-8.13797
▁give	-8.13908
▁5	-8.13932
▁put	-8.1396
▁di	-8.14522
▁provide	-8.14648
▁go	-8.14773
▁4	-8.151
▁three	-8.15153
▁en	-8.15173
ate	-8.1531
▁agreement	-8.15562
ve	-8.1558
▁present	-8.15593
▁measures	-8.15885
▁la	-8.16096
▁No	-8.16163
est	-8.16955
▁next	-8.17019
▁her	-8.17047
▁energy	-8.17093
mo	-8.17142
▁stay	-8.1722
▁large	-8.17456
▁La	-8.17514
▁R	-8.1786
▁come	-8.18025
▁citizens	-8.18058
▁At	-8.18077
▁account	-8.18081
no	-8.18787
▁taken	-8.19038
▁H	-8.19288
V	-8.19461
▁So	-8.19705
▁On	-8.19729
H	-8.19825
▁rooms	-8.20171
▁change	-8.20728
▁areas	-8.21201
▁further	-8.21599
ness	-8.21728
ry	-8.21801
▁position	-8.21916
▁again	-8.21921
▁life	-8.22173
é	-8.22747
as	-8.23538
▁form	-8.23692
▁necessary	-8.24201
▁shall	-8.24295
um	-8.24369
▁law	-8.2476
▁company	-8.24969
▁security	-8.25007
L	-8.25018
ir	-8.25031
▁given	-8.25346
▁why	-8.25794
▁open	-8.26243
go	-8.26301
▁however	-8.26346
▁group	-8.26442
▁while	-8.26467
▁problems	-8.26482
▁W	-8.26484
▁second	-8.26562
▁cooperation	-8.2665
▁main	-8.27254
id	-8.27396
▁result	-8.27683
▁water	-8.2776
▁vote	-8.28204
ism	-8.28228
be	-8.28344
▁protection	-8.28577
▁look	-8.29189
K	-8.29467
▁L	-8.29653
▁down	-8.30055
up	-8.30212
▁With	-8.30268
▁always	-8.3045
▁centre	-8.30718
▁action	-8.30799
▁10	-8.30877
▁dis	-8.30992
3	-8.31082
ri	-8.31146
▁power	-8.31204
ies	-8.31281
▁trade	-8.31304
▁pre	-8.3137
▁De	-8.31762
▁United	-8.31911
ant	-8.32098
▁Group	-8.32108
ke	-8.32189
▁...	-8.32692
ance	-8.32786
▁better	-8.32966
▁located	-8.33102
▁respect	-8.33149
ine	-8.33401
ni	-8.33436
▁What	-8.33495
▁full	-8.33682
▁hand	-8.33746
▁p	-8.3395
▁car	-8.33969
▁become	-8.34131
am	-8.34255
▁production	-8.34429
ti	-8.34647
▁current	-8.35041
▁local	-8.35216
▁state	-8.35234
do	-8.35321
W	-8.35574
▁legal	-8.35613
▁They	-8.35936
▁based	-8.36436
▁create	-8.36905
▁Al	-8.36911
▁using	-8.36954
▁whether	-8.37545
▁short	-8.37678
▁million	-8.37735
▁around	-8.37747
ten	-8.37868
▁working	-8.37911
▁did	-8.37991
U	-8.38223
▁House	-8.38249
▁needs	-8.38251
▁control	-8.38346
▁role	-8.3843
▁terms	-8.38547
R	-8.38583
▁particularly	-8.38681
ating	-8.3879
▁When	-8.38803
ol	-8.39059
▁together	-8.39105
▁subject	-8.39247
▁Community	-8.39287
ci	-8.39358
▁budget	-8.39419
ian	-8.39543
▁another	-8.39767
▁research	-8.40587
▁rapporteur	-8.41097
▁children	-8.41171
▁global	-8.41506
▁These	-8.41539
nd	-8.41603
▁whole	-8.41784
ul	-8.41929
▁modern	-8.42018
▁resolution	-8.42061
▁U	-8.42344
▁government	-8.42523
▁sector	-8.42778
▁An	-8.42921
ting	-8.43011
pe	-8.43185
▁Ro	-8.43318
vo	-8.4341
▁start	-8.43631
▁directive	-8.43686
▁experience	-8.43731
▁conditions	-8.43942
▁certain	-8.43988
v	-8.43997
▁Le	-8.44437
▁health	-8.44925
▁companies	-8.45015
▁women	-8.45137
▁project	-8.45199
▁matter	-8.45245
▁less	-8.45496
▁various	-8.45497
▁issues	-8.45857
▁industry	-8.4618
mp	-8.46258
▁home	-8.4644
▁close	-8.46465
▁basis	-8.46552
▁third	-8.47093
ling	-8.47197
va	-8.47205
tic	-8.47224
ous	-8.47341
man	-8.47472
▁non	-8.47489
▁increase	-8.47645
▁wish	-8.47945
▁N	-8.48533
▁region	-8.48818
▁especially	-8.48982
▁enjoy	-8.49196
▁found	-8.49247
sh	-8.49525
▁V	-8.49628
N	-8.49737
▁done	-8.49867
▁programme	-8.5013
▁design	-8.50203
▁specific	-8.50207
▁play	-8.50478
00	-8.50489
▁US	-8.50664
ated	-8.5067
ted	-8.50842
▁personal	-8.51135
▁decision	-8.51155
1	-8.51293
▁period	-8.51294
age	-8.51312
▁German	-8.51333
▁welcome	-8.5134
ba	-8.51341
ca	-8.51467
▁transport	-8.51496
ga	-8.51656
▁systems	-8.5166
▁sea	-8.5184
the	-8.51859
▁location	-8.5191
▁really	-8.51982
▁major	-8.52693
▁continue	-8.52729
▁Ha	-8.5317
▁single	-8.53377
▁6	-8.53412
▁off	-8.53632
▁site	-8.53863
▁Mrs	-8.53929
▁list	-8.54059
▁itself	-8.54217
▁environment	-8.54243
▁thank	-8.54502
ence	-8.54572
▁Ma	-8.54681
▁20	-8.54912
▁regard	-8.54952
▁general	-8.55092
▁something	-8.55221
▁several	-8.55305
▁m	-8.55489
▁page	-8.5555
im	-8.5562
con	-8.55688
▁line	-8.55779
ner	-8.55838
▁Mo	-8.56252
ver	-8.5646
▁crisis	-8.56872
un	-8.5711
▁range	-8.57235
▁pro	-8.57537
▁Do	-8.57548
▁least	-8.57621
▁ask	-8.5763
▁making	-8.57634
▁gentlemen	-8.57671
▁name	-8.57676
▁Germany	-8.57763
▁agree	-8.57909
▁7	-8.57976
▁price	-8.5805
▁individual	-8.58243
▁text	-8.58296
▁following	-8.58503
▁18	-8.58614
ut	-8.58798
▁food	-8.58829
4	-8.58874
ha	-8.59018
ts	-8.59065
▁opinion	-8.59201
▁old	-8.59321
▁sub	-8.59376
▁forward	-8.59547
▁contact	-8.59599
lu	-8.59708
▁management	-8.60033
▁Con	-8.60187
▁going	-8.60197
▁rules	-8.60485
▁deal	-8.60609
▁approach	-8.60707
▁often	-8.60718
▁town	-8.60835
▁she	-8.60856
▁growth	-8.61031
▁product	-8.61588
che	-8.61868
▁air	-8.61952
▁family	-8.62001
▁key	-8.62074
▁towards	-8.62376
he	-8.62425
▁institutions	-8.6246
▁away	-8.62512
▁once	-8.6269
tion	-8.63203
▁St	-8.63257
▁Madam	-8.6339
▁money	-8.63432
▁reason	-8.63486
▁d	-8.63556
]]	-8.63827
sa	-8.64123
▁until	-8.64133
▁se	-8.64209
▁call	-8.64283
▁private	-8.64303
ard	-8.64399
▁excellent	-8.64489
▁software	-8.64529
▁war	-8.64531
di	-8.646
▁Be	-8.64602
▁light	-8.64796
ad	-8.64869
▁little	-8.6502
▁Treaty	-8.65031
▁things	-8.65262
▁b	-8.65431
▁him	-8.65487
less	-8.65535
▁allow	-8.65783
▁interest	-8.6593
▁&	-8.65951
▁opportunity	-8.66081
ho	-8.66097
▁aid	-8.66513
▁State	-8.66648
▁rather	-8.66671
▁o	-8.66674
tra	-8.66771
▁customers	-8.67251
▁8	-8.67323
▁staff	-8.67485
▁activities	-8.67577
▁12	-8.67702
ie	-8.67916
os	-8.67983
rs	-8.68174
▁value	-8.68269
▁resources	-8.68606
▁might	-8.68625
ful	-8.68671
5	-8.6873
▁include	-8.68738
▁15	-8.69007
ot	-8.69213
Y	-8.69243
and	-8.69702
▁behalf	-8.69726
▁progress	-8.69744
▁favour	-8.69789
▁framework	-8.69805
▁economy	-8.70156
der	-8.70187
au	-8.70373
▁quite	-8.70397
▁provided	-8.70621
▁China	-8.70654
▁field	-8.70658
ak	-8.70686
▁fully	-8.71322
▁solution	-8.71352
▁yet	-8.71362
▁days	-8.71375
▁Li	-8.71412
ex	-8.7186
▁[[	-8.71931
▁ladies	-8.72289
▁technology	-8.72355
▁show	-8.72391
▁among	-8.72438
▁having	-8.72559
▁mo	-8.72829
bi	-8.73112
▁After	-8.73157
▁visit	-8.73179
▁past	-8.73248
▁check	-8.73256
ty	-8.73477
ally	-8.73828
ig	-8.73887
▁Lo	-8.74081
▁left	-8.74392
▁content	-8.74452
▁safety	-8.7451
▁amendments	-8.74555
▁members	-8.74741
▁above	-8.74812
pro	-8.74894
▁2009	-8.74961
▁Co	-8.75097
▁adopted	-8.75143
▁taking	-8.75632
ka	-8.75667
que	-8.75745
▁add	-8.75865
land	-8.76187
▁heart	-8.76287
ise	-8.76592
▁application	-8.76651
▁costs	-8.76663
▁legislation	-8.76839
▁address	-8.77145
▁policies	-8.77417
▁addition	-8.77516
▁Sa	-8.78055
▁difficult	-8.78089
▁proposals	-8.7814
▁cost	-8.78159
▁website	-8.78193
min	-8.78224
▁post	-8.78262
▁complete	-8.7837
▁kind	-8.78495
▁beautiful	-8.78511
▁called	-8.787
▁Pa	-8.78794
▁c	-8.78843
▁central	-8.78847
ities	-8.78918
▁freedom	-8.78931
one	-8.79082
▁Z	-8.79112
▁bar	-8.79125
▁share	-8.79286
▁easy	-8.79308
▁success	-8.79459
pa	-8.79493
▁attention	-8.79512
▁building	-8.79868
▁responsibility	-8.80175
▁due	-8.80249
▁concerned	-8.80313
▁simply	-8.80349
0	-8.80364
vi	-8.80381
▁k	-8.80579
j	-8.80621
X	-8.80645
per	-8.80752
▁pay	-8.80829
▁night	-8.80978
fi	-8.81183
▁step	-8.81246
gen	-8.81258
▁art	-8.81321
▁principle	-8.81396
▁let	-8.81592
▁importance	-8.81618
▁effective	-8.8175
▁Ra	-8.81793
▁minutes	-8.81856
way	-8.81975
▁New	-8.82027
▁society	-8.8217
▁inter	-8.82326
ton	-8.8237
▁risk	-8.82445
▁Mar	-8.82472
ial	-8.82616
ap	-8.82732
▁One	-8.82749
▁strategy	-8.82803
op	-8.83025
▁technical	-8.83034
▁team	-8.83044
▁greater	-8.8305
▁projects	-8.83084
end	-8.83113
▁ma	-8.83171
▁environmental	-8.83323
▁feel	-8.83448
▁World	-8.8345
ac	-8.83458
▁results	-8.83589
ster	-8.83612
ization	-8.83771
▁live	-8.83846
▁version	-8.84004
▁fundamental	-8.84058
▁young	-8.84085
▁known	-8.84108
▁Members	-8.84244
▁capital	-8.84392
we	-8.84457
▁lot	-8.84544
▁i	-8.84645
sion	-8.84753
▁Bo	-8.8505
▁accept	-8.85058
▁J	-8.85089
▁provides	-8.85372
▁natural	-8.85417
▁achieve	-8.85419
▁training	-8.85609
▁internal	-8.85725
▁turn	-8.85863
▁serious	-8.85921
▁recent	-8.85956
om	-8.8598
▁meeting	-8.86112
ure	-8.86431
▁groups	-8.8646
▁professional	-8.86473
▁consider	-8.86524
▁date	-8.86919
▁Vi	-8.86922
▁Se	-8.87043
ow	-8.87052
▁along	-8.87138
▁road	-8.87153
▁side	-8.87174
isation	-8.87185
▁authorities	-8.872
▁answer	-8.87296
▁points	-8.87319
▁standards	-8.87413
▁required	-8.87424
▁network	-8.87508
▁keep	-8.87746
▁bring	-8.87798
▁words	-8.87987
▁Internet	-8.88047
▁clearly	-8.8807
▁four	-8.88185
▁meet	-8.88197
▁user	-8.88229
▁receive	-8.88431
▁questions	-8.88564
▁near	-8.887
▁essential	-8.88784
▁competition	-8.88916
▁9	-8.88999
▁Po	-8.89066
ized	-8.89329
da	-8.89608
▁Ca	-8.89655
▁person	-8.89676
▁lo	-8.89724
line	-8.89765
ised	-8.89766
▁prevent	-8.8987
▁makes	-8.89883
po	-8.89962
tro	-8.89989
▁event	-8.9005
▁according	-8.90317
▁peace	-8.90429
▁longer	-8.90491
ors	-8.90499
▁employment	-8.90644
ven	-8.90691
▁cultural	-8.90725
▁comp	-8.90786
▁Pro	-8.91158
qui	-8.91179
▁positive	-8.91464
▁proposed	-8.91479
▁responsible	-8.91603
▁standard	-8.91607
ा	-8.91711
▁directly	-8.91766
▁Me	-8.91873
▁connection	-8.91881
▁/	-8.91939
▁plan	-8.91996
▁understand	-8.92005
ber	-8.92191
▁nature	-8.92193
▁|	-8.92284
▁strong	-8.923
The	-8.92394
▁months	-8.92403
▁Ba	-8.92614
▁hard	-8.92657
▁history	-8.92854
▁focus	-8.93
▁enough	-8.93002
gu	-8.93019
▁guarantee	-8.9307
▁currently	-8.9318
▁EUR	-8.93196
▁moment	-8.93424
▁themselves	-8.93444
▁Russia	-8.93454
▁requirements	-8.93743
▁request	-8.93758
ish	-8.93841
▁foreign	-8.93853
▁force	-8.93862
▁reform	-8.93872
▁parties	-8.93949
wa	-8.93953
▁ideal	-8.94017
men	-8.94129
▁implementation	-8.94152
▁involved	-8.94235
▁committee	-8.94417
▁improve	-8.94459
mb	-8.94742
les	-8.9494
▁wide	-8.94978
▁interests	-8.95017
▁democracy	-8.95048
▁ex	-8.95297
▁solutions	-8.95413
▁regulation	-8.95419
▁sure	-8.95541
▁du	-8.95606
▁pages	-8.95943
▁voted	-8.96114
son	-8.96169
▁century	-8.96178
▁others	-8.96297
▁reach	-8.96355
▁never	-8.96363
▁le	-8.96452
▁efforts	-8.96482
▁democratic	-8.96707
ung	-8.96745
▁11	-8.96871
▁30	-8.9688
▁needed	-8.97058
▁effect	-8.97064
▁file	-8.97144
▁Please	-8.9722
▁events	-8.97314
▁ago	-8.9736
▁upon	-8.9739
ER	-8.97534
▁please	-8.97586
▁times	-8.97651
▁online	-8.97655
▁develop	-8.97661
▁regions	-8.97693
▁guests	-8.97716
▁American	-8.97726
▁euro	-8.97766
▁language	-8.97818
ries	-8.9784
▁extremely	-8.98063
▁house	-8.98098
▁developed	-8.98114
▁From	-8.98186
▁facilities	-8.98538
ler	-8.98557
▁appropriate	-8.98604
▁read	-8.98793
▁land	-8.98822
▁additional	-8.98823
▁week	-8.98838
▁negotiations	-8.98969
▁total	-8.98985
▁music	-8.99114
▁X	-8.99132
▁unique	-8.99348
▁soon	-8.99674
▁Ta	-8.99953
▁developing	-9.0006
▁return	-9.0007
▁travel	-9.00147
our	-9.00356
▁final	-9.00372
▁International	-9.00402
]	-9.00415
side	-9.00476
ding	-9.00513
▁2008	-9.00568
▁Sch	-9.00587
▁culture	-9.00614
▁run	-9.00764
▁education	-9.00792
▁book	-9.00841
▁bus	-9.00866
▁either	-9.0102
▁2010	-9.01383
▁though	-9.01469
bo	-9.01542
6	-9.01596
▁via	-9.01748
▁ca	-9.01889
▁climate	-9.01904
▁idea	-9.02118
▁Na	-9.02121
▁program	-9.02256
ite	-9.02332
▁created	-9.02508
▁population	-9.02523
000	-9.02537
▁regional	-9.02608
▁Presidency	-9.02619
á	-9.02629
val	-9.02709
▁Can	-9.02793
▁lead	-9.02829
▁etc	-9.0285
mon	-9.029
▁true	-9.0306
▁changes	-9.03105
▁thus	-9.03201
hi	-9.03232
▁France	-9.03251
▁act	-9.03267
▁Bar	-9.03377
▁promote	-9.03461
▁Mi	-9.03519
▁almost	-9.0353
▁care	-9.03567
▁rate	-9.03584
▁May	-9.03707
tor	-9.03709
▁breakfast	-9.03721
▁later	-9.03924
▁gra	-9.03979
▁web	-9.0401
▁sound	-9.04161
▁choice	-9.04304
tal	-9.04336
▁face	-9.04373
▁direct	-9.04568
▁situated	-9.04595
▁procedure	-9.04606
▁type	-9.04685
▁By	-9.0473
pi	-9.04851
▁everything	-9.04854
▁actually	-9.04899
▁French	-9.0493
▁term	-9.05033
▁top	-9.05088
▁prices	-9.05212
▁living	-9.05353
▁investment	-9.05483
▁office	-9.0551
▁traditional	-9.05794
▁walk	-9.05819
ning	-9.05935
ill	-9.05967
▁po	-9.06011
▁media	-9.06044
▁states	-9.06047
ative	-9.06049
led	-9.06049
▁knowledge	-9.06051
▁seen	-9.06073
▁demand	-9.06089
fa	-9.06093
_	-9.06134
▁treatment	-9.06191
▁beach	-9.06192
ring	-9.06287
▁pool	-9.06332
▁ra	-9.06438
▁context	-9.06468
▁comes	-9.06482
▁station	-9.06541
▁restaurant	-9.06544
▁computer	-9.06611
▁stage	-9.06622
▁pass	-9.06648
▁held	-9.06672
▁lack	-9.06697
▁move	-9.06865
▁thing	-9.06868
ical	-9.06869
▁cases	-9.06976
▁funds	-9.06985
▁[	-9.07
ze	-9.07086
▁My	-9.07091
▁Fa	-9.07128
▁included	-9.07175
▁rest	-9.07189
▁14	-9.07249
▁stop	-9.07313
▁head	-9.07366
tt	-9.07483
nt	-9.0752
▁workers	-9.07532
▁amount	-9.07572
▁communication	-9.07746
▁markets	-9.07761
▁impact	-9.07764
out	-9.07767
7	-9.07817
▁16	-9.07882
▁ha	-9.07969
tre	-9.08013
▁outside	-9.08019
ou	-9.08027
fe	-9.08059
▁express	-9.08107
sch	-9.08258
▁majority	-9.08299
▁concept	-9.0833
▁setting	-9.08393
▁f	-9.08398
ä	-9.08414
▁customer	-9.08548
▁send	-9.08583
▁tax	-9.08597
▁mind	-9.08741
▁man	-9.08791
(	-9.08944
▁remain	-9.08949
▁space	-9.0918
DE	-9.09184
▁potential	-9.09224
▁benefit	-9.09297
▁low	-9.09324
▁views	-9.09386
▁model	-9.09427
▁performance	-9.09787
ual	-9.09798
▁five	-9.0987
▁Da	-9.09939
term	-9.09978
▁throughout	-9.10202
▁17	-9.10455
ue	-9.10599
tain	-9.10719
▁famous	-9.10772
ability	-9.10854
▁‘	-9.10933
▁fair	-9.10933
▁designed	-9.10958
▁Government	-9.10979
▁early	-9.11249
▁damage	-9.11424
▁certainly	-9.11467
▁comfortable	-9.11496
tu	-9.1159
8	-9.11593
▁across	-9.11649
▁Wi	-9.11657
ably	-9.11725
▁da	-9.11804
▁draft	-9.11875
ction	-9.11943
▁Euro	-9.1207
mer	-9.12199
art	-9.12242
▁aim	-9.12253
cu	-9.12263
▁San	-9.1235
▁Turkey	-9.12413
▁und	-9.12647
▁features	-9.12649
▁ever	-9.12761
▁ti	-9.12779
▁center	-9.12883
▁guest	-9.12937
▁America	-9.12945
▁sign	-9.13006
▁Pi	-9.13065
ize	-9.13065
▁Car	-9.1309
30	-9.13122
▁fight	-9.13216
▁member	-9.13236
▁existing	-9.13253
▁perfect	-9.1326
▁practice	-9.13321
▁civil	-9.13372
▁exchange	-9.13378
▁enter	-9.13417
▁joint	-9.13457
▁significant	-9.13799
▁floor	-9.13801
▁writing	-9.13807
▁How	-9.13809
▁game	-9.13852
▁looking	-9.13877
▁table	-9.14079
▁simple	-9.14141
▁relations	-9.14313
▁protect	-9.14383
▁ho	-9.14407
▁download	-9.14535
ft	-9.14552
▁vi	-9.14576
▁train	-9.14584
▁hours	-9.1465
▁complex	-9.14839
▁cross	-9.14885
for	-9.1502
▁port	-9.15127
▁leave	-9.15138
▁military	-9.1519
ko	-9.15208
▁basic	-9.15226
nn	-9.15227
▁entire	-9.15256
▁big	-9.15318
▁apply	-9.1534
▁2007	-9.15358
▁took	-9.15373
▁concerns	-9.15418
ther	-9.15471
▁ten	-9.15526
▁concerning	-9.15534
र	-9.15577
▁Bu	-9.15653
▁mentioned	-9.15682
set	-9.15876
▁bi	-9.15926
ub	-9.16007
▁sense	-9.16032
▁doing	-9.16038
▁try	-9.16124
▁material	-9.16154
▁objective	-9.16339
▁movement	-9.16364
em	-9.16418
▁fall	-9.16563
▁leading	-9.16583
▁original	-9.16607
▁anti	-9.16722
▁km	-9.1678
▁search	-9.16784
20	-9.16799
tin	-9.16808
▁video	-9.16866
▁community	-9.16869
▁st	-9.16906
ny	-9.17027
▁Ar	-9.17072
▁completely	-9.17183
▁aware	-9.17216
▁although	-9.17234
▁package	-9.17296
gi	-9.173
▁nothing	-9.17385
od	-9.17432
▁holiday	-9.17556
▁built	-9.17647
▁related	-9.17661
▁users	-9.17703
▁avoid	-9.17887
▁Court	-9.18336
red	-9.18369
▁South	-9.18369
▁concern	-9.18375
io	-9.18431
ns	-9.18637
▁press	-9.18806
▁rule	-9.18987
▁half	-9.19166
▁Since	-9.19195
ations	-9.19253
▁programmes	-9.19365
▁Let	-9.19375
▁direction	-9.1944
▁image	-9.19553
▁mis	-9.19757
ud	-9.19762
▁tell	-9.19769
hr	-9.19778
▁reasons	-9.19931
ving	-9.20099
50	-9.20177
▁equipment	-9.20184
▁body	-9.20339
za	-9.20491
▁size	-9.20592
▁decisions	-9.20641
▁im	-9.20648
▁reduce	-9.20701
▁established	-9.20731
▁film	-9.20878
▁clean	-9.20954
▁men	-9.20968
OR	-9.21108
▁Ga	-9.21329
▁13	-9.21336
▁follow	-9.21408
▁received	-9.21487
lic	-9.21507
▁jobs	-9.21565
▁safe	-9.21609
▁response	-9.21819
▁objectives	-9.219
▁card	-9.22318
▁agricultural	-9.22342
▁credit	-9.22346
▁Lisbon	-9.22363
▁Some	-9.22399
▁document	-9.22485
ified	-9.22503
▁die	-9.22516
▁partners	-9.22707
▁Ri	-9.22826
tri	-9.2296
▁initiative	-9.22965
▁regarding	-9.23109
jo	-9.23134
▁quickly	-9.23178
▁mean	-9.23201
▁ski	-9.23254
▁function	-9.23277
▁Ka	-9.23406
ी	-9.23417
▁ri	-9.23519
▁produce	-9.23604
▁speak	-9.23678
▁broad	-9.23701
ü	-9.23702
▁beginning	-9.23762
lin	-9.23766
lt	-9.23779
▁Here	-9.23782
▁del	-9.23942
den	-9.23945
▁self	-9.2399
▁TV	-9.24097
ja	-9.24105
▁includes	-9.24134
▁values	-9.24143
▁dialogue	-9.2417
▁keyword	-9.24207
▁village	-9.24289
▁allows	-9.24346
ship	-9.24353
▁der	-9.24541
▁Affairs	-9.24618
fer	-9.24627
▁Ho	-9.24634
▁oil	-9.24641
▁job	-9.2473
▁Article	-9.24732
▁East	-9.24787
vers	-9.24887
▁begin	-9.24975
▁na	-9.25087
▁indeed	-9.25095
▁party	-9.25115
▁25	-9.2514
▁below	-9.25142
▁conference	-9.25249
▁agreements	-9.25344
▁ba	-9.25353
▁pa	-9.25356
▁note	-9.25367
▁achieved	-9.25393
▁huge	-9.25424
▁Of	-9.25494
ö	-9.25539
▁pressure	-9.2556
▁age	-9.25669
▁parts	-9.25825
▁double	-9.25841
▁English	-9.25877
▁Man	-9.25966
ification	-9.2599
▁test	-9.26134
▁recently	-9.26252
▁Go	-9.26478
▁seems	-9.26491
rd	-9.26554
J	-9.2663
iv	-9.26659
▁popular	-9.26693
▁En	-9.26743
▁hold	-9.2685
ious	-9.2691
▁Finally	-9.26923
▁industrial	-9.26935
▁six	-9.27004
res	-9.27107
▁choose	-9.27116
▁billion	-9.2712
▁successful	-9.27297
▁applications	-9.27338
▁2000	-9.27351
त	-9.27592
▁author	-9.27653
ple	-9.27771
▁style	-9.27795
▁0	-9.27859
▁sp	-9.2786
▁Amendment	-9.2788
▁contains	-9.27906
▁integration	-9.27924
▁Ne	-9.28037
▁attempt	-9.28045
▁commitment	-9.28081
▁Or	-9.28192
king	-9.2821
▁amendment	-9.28266
▁increased	-9.28616
▁internet	-9.28657
▁imp	-9.28661
▁Fi	-9.28672
▁section	-9.28673
ble	-9.28775
▁takes	-9.28806
▁highly	-9.28824
▁everyone	-9.28881
▁front	-9.29093
▁transfer	-9.29103
▁whose	-9.29123
▁ship	-9.29147
▁independent	-9.29165
▁series	-9.29191
▁accommodation	-9.29196
▁higher	-9.29219
▁carried	-9.29459
▁Fund	-9.29461
▁June	-9.29488
▁don	-9.29488
▁UN	-9.29498
▁expect	-9.2953
▁com	-9.297
▁airport	-9.29866
wi	-9.29892
▁Com	-9.29936
ach	-9.29945
▁50	-9.29978
▁nuclear	-9.30053
▁cut	-9.30126
▁creation	-9.30127
▁si	-9.30137
▁presented	-9.30151
▁em	-9.30153
▁governments	-9.30245
▁active	-9.30263
ising	-9.30321
▁sta	-9.30344
о	-9.30404
ide	-9.30439
▁enable	-9.30473
▁agreed	-9.30516
▁supply	-9.3056
▁Bank	-9.30625
ct	-9.30633
▁Di	-9.30666
ina	-9.30678
use	-9.30758
▁Berlin	-9.30791
▁click	-9.3083
▁warm	-9.30881
▁works	-9.30905
▁similar	-9.30932
10	-9.30942
▁equipped	-9.30978
mi	-9.31129
▁came	-9.31301
▁perhaps	-9.31382
▁consumers	-9.31598
▁compromise	-9.31635
▁code	-9.31675
let	-9.31767
न	-9.31782
▁balance	-9.31783
fo	-9.31856
▁external	-9.31881
▁el	-9.32011
ier	-9.32066
▁option	-9.32173
▁word	-9.32185
▁al	-9.32241
▁ro	-9.32368
▁garden	-9.32436
ions	-9.3248
▁files	-9.32499
▁Therefore	-9.32544
so	-9.32603
▁base	-9.32688
▁commercial	-9.32947
▁2006	-9.32973
▁shown	-9.33245
▁rates	-9.33256
▁structure	-9.33387
|	-9.33406
▁opportunities	-9.33407
time	-9.33421
mit	-9.33467
▁den	-9.33571
▁fa	-9.33639
ff	-9.33707
ium	-9.33718
▁asked	-9.33759
▁que	-9.33891
▁former	-9.33974
▁board	-9.33983
of	-9.34036
▁Ad	-9.34119
▁possibility	-9.34222
▁principles	-9.34231
▁review	-9.34273
ron	-9.34351
▁Central	-9.34379
rt	-9.34381
▁reviews	-9.34431
▁class	-9.34514
tan	-9.34565
▁nor	-9.34609
%	-9.34631
▁Now	-9.34669
▁stress	-9.34735
▁aspects	-9.34758
▁24	-9.3476
▁extra	-9.34765
▁behind	-9.34806
▁latest	-9.34837
▁g	-9.34888
ile	-9.34937
gue	-9.35034
▁friendly	-9.35101
ek	-9.35104
▁official	-9.35213
▁export	-9.35288
▁previous	-9.3531
▁summer	-9.35324
dy	-9.35376
sta	-9.35502
▁cause	-9.35507
▁death	-9.35562
▁speed	-9.35569
▁w	-9.3557
IT	-9.35587
▁sustainable	-9.35601
▁link	-9.35616
▁bo	-9.35652
®	-9.35736
▁reached	-9.35751
▁providing	-9.35816
fin	-9.35855
▁considered	-9.35882
▁Republic	-9.35888
ory	-9.36003
ible	-9.36134
▁added	-9.36212
▁doubt	-9.36234
ng	-9.36259
▁star	-9.36281
▁study	-9.36321
▁enlargement	-9.36378
▁Spain	-9.36404
ran	-9.36532
▁prepared	-9.36639
▁drive	-9.36662
▁capacity	-9.36716
▁talk	-9.36722
▁nice	-9.36725
▁reference	-9.36751
▁Ja	-9.36758
ki	-9.3685
▁increasing	-9.36942
▁consumer	-9.37101
▁ver	-9.37122
▁easily	-9.37161
▁levels	-9.37312
▁effects	-9.37373
▁goods	-9.37436
ang	-9.37437
mail	-9.37474
▁decided	-9.37489
▁shows	-9.37628
ture	-9.37637
▁ta	-9.37759
ps	-9.37872
port	-9.37934
ition	-9.37953
ag	-9.37966
sk	-9.37991
▁host	-9.3803
▁atmosphere	-9.38097
▁)	-9.38183
▁submitted	-9.38205
▁gas	-9.38219
▁construction	-9.38326
ES	-9.38345
▁t	-9.38399
▁pi	-9.38441
▁buy	-9.38471
▁Convention	-9.38471
▁:	-9.38581
▁charge	-9.3864
▁refer	-9.38643
▁multi	-9.38649
▁matters	-9.38659
ld	-9.38664
▁join	-9.38691
▁coming	-9.38711
▁El	-9.38855
▁draw	-9.39006
▁priority	-9.39143
▁Italy	-9.39188
▁fine	-9.39267
▁influence	-9.39274
▁purchase	-9.3934
▁materials	-9.3936
▁remains	-9.397
▁v	-9.39811
▁server	-9.39886
ef	-9.39917
▁practical	-9.39946
▁Jo	-9.40029
▁park	-9.40043
▁funding	-9.40053
▁Africa	-9.40071
▁100	-9.40073
▁ground	-9.40145
▁December	-9.40222
▁island	-9.40235
▁separate	-9.40264
▁thanks	-9.40381
".	-9.40455
▁purpose	-9.40469
her	-9.40568
▁September	-9.40615
▁Dr	-9.40632
▁property	-9.40728
▁assistance	-9.40766
ists	-9.40768
▁stand	-9.40892
▁contract	-9.40956
cre	-9.41403
▁limited	-9.41482
▁details	-9.41572
े	-9.4174
е	-9.41746
▁March	-9.4182
▁discussion	-9.41831
je	-9.41925
▁Minister	-9.41957
vis	-9.41976
▁closed	-9.42006
▁comfort	-9.42101
ि	-9.42135
ep	-9.42167
▁brought	-9.42299
▁character	-9.424
▁effort	-9.42412
▁su	-9.42431
▁poor	-9.42434
▁message	-9.42564
▁War	-9.42709
▁creating	-9.42745
▁rich	-9.42776
▁bathroom	-9.42825
nes	-9.42827
▁engine	-9.43017
act	-9.43068
▁Dur	-9.43101
▁thought	-9.4313
▁Italian	-9.43208
▁Bi	-9.43218
▁Even	-9.43239
▁sa	-9.43292
▁First	-9.433
ix	-9.4334
▁Ver	-9.43551
▁tool	-9.43885
▁secure	-9.43901
▁stability	-9.43948
▁relevant	-9.44037
▁reduction	-9.4405
ah	-9.44136
▁historical	-9.44318
▁track	-9.44386
▁became	-9.44403
ON	-9.44475
▁flow	-9.44484
▁largest	-9.44493
▁met	-9.44534
▁distance	-9.44603
▁item	-9.44645
▁school	-9.44666
mm	-9.4469
▁relationship	-9.44709
▁relation	-9.44731
▁pleased	-9.44835
▁Th	-9.44903
▁source	-9.4492
▁supported	-9.44989
▁produced	-9.45036
▁task	-9.45107
▁January	-9.45198
serv	-9.45203
▁instead	-9.45243
▁contribution	-9.45334
AR	-9.45342
▁alternative	-9.45471
9	-9.45488
▁North	-9.45545
▁Ko	-9.4561
▁mention	-9.45625
cul	-9.45666
▁variety	-9.45674
▁wine	-9.45698
over	-9.45751
▁actions	-9.4578
cc	-9.45812
▁trip	-9.45851
▁conflict	-9.45924
▁method	-9.45943
mor	-9.45947
pp	-9.45981
by	-9.45999
क	-9.46
í	-9.46081
▁partner	-9.46138
▁build	-9.46153
bre	-9.46262
EN	-9.46381
▁regulations	-9.46429
▁child	-9.46477
▁2005	-9.46493
gg	-9.46521
▁Lu	-9.4653
▁British	-9.46551
dic	-9.46558
▁correct	-9.46587
▁release	-9.46602
▁record	-9.46736
ell	-9.46853
uch	-9.4688
▁Tra	-9.46904
▁y	-9.47044
▁activity	-9.47145
▁Today	-9.4715
nic	-9.47173
▁innovation	-9.4732
▁National	-9.47491
▁spa	-9.47524
▁instrument	-9.47537
▁require	-9.47558
▁medium	-9.47644
cent	-9.47673
▁fishing	-9.47747
▁October	-9.47787
▁status	-9.47806
▁Y	-9.47818
▁allowed	-9.47839
▁statement	-9.47912
▁round	-9.47997
▁court	-9.48191
ph	-9.4821
▁ge	-9.48234
▁interesting	-9.48344
▁reports	-9.48374
▁started	-9.48435
▁distribution	-9.48593
▁pe	-9.48683
▁Gu	-9.48755
tter	-9.48762
▁labour	-9.48784
▁agenda	-9.48788
mark	-9.48891
▁gives	-9.48973
▁mountain	-9.49002
▁Park	-9.49041
▁equal	-9.49064
▁sites	-9.49109
▁affect	-9.49192
▁suggest	-9.49231
▁th	-9.49241
ana	-9.49281
▁violence	-9.49304
▁Service	-9.4933
▁maintain	-9.49537
▁apartment	-9.49556
nder	-9.49698
▁path	-9.49743
cal	-9.49782
▁criteria	-9.49799
▁chance	-9.49824
▁origin	-9.4986
▁love	-9.4988
▁fire	-9.49955
▁lower	-9.49964
▁learn	-9.50047
lf	-9.50066
pri	-9.50091
ick	-9.50094
▁ourselves	-9.50103
▁establish	-9.50103
▁trans	-9.50198
▁giving	-9.50223
▁Pre	-9.50269
cing	-9.50377
▁provisions	-9.50416
qu	-9.50469
net	-9.50486
par	-9.50488
IN	-9.50582
ec	-9.50752
▁fl	-9.50808
▁sh	-9.50894
▁written	-9.51002
▁seem	-9.51007
▁quiet	-9.51142
▁procedures	-9.51179
▁She	-9.51224
▁finally	-9.51304
Z	-9.51346
ev	-9.5144
▁bit	-9.51541
▁late	-9.51561
▁challenge	-9.51562
▁forms	-9.51586
ru	-9.51682
bar	-9.51779
▁instruments	-9.5186
row	-9.51871
▁2004	-9.51973
ctor	-9.51993
RE	-9.52084
ik	-9.5212
▁fast	-9.52231
▁Spanish	-9.52257
▁reading	-9.52272
poli	-9.52287
▁import	-9.52344
▁regime	-9.52351
▁app	-9.52379
▁sun	-9.52427
▁Cor	-9.5253
▁des	-9.52676
ator	-9.52681
▁useful	-9.52692
▁encourage	-9.52694
▁benefits	-9.52796
▁offering	-9.52837
▁efficient	-9.52856
▁rise	-9.52857
ral	-9.52875
▁transparency	-9.52938
ments	-9.52955
▁Many	-9.52972
▁steps	-9.52982
▁Rights	-9.52995
▁seek	-9.53024
▁regards	-9.53078
tern	-9.53218
▁operation	-9.53246
▁represent	-9.53247
▁tradition	-9.53283
tle	-9.53286
▁sur	-9.53303
▁break	-9.53363
▁July	-9.5338
▁month	-9.5338
▁immediately	-9.53403
▁color	-9.53487
▁congratulate	-9.537
▁highest	-9.53708
ip	-9.53733
▁payment	-9.53748
▁poverty	-9.53834
▁21	-9.5388
▁operate	-9.53951
▁block	-9.5416
▁annual	-9.54201
▁employees	-9.54209
▁Although	-9.54217
▁integrated	-9.54274
press	-9.54276
▁reality	-9.54305
si	-9.54355
▁exist	-9.544
▁consequences	-9.54526
▁Per	-9.54566
▁numerous	-9.54593
▁stock	-9.5461
स	-9.54614
▁lives	-9.54622
▁Party	-9.54678
▁applied	-9.54709
▁Furthermore	-9.54738
▁propose	-9.54895
ever	-9.54904
▁waste	-9.54906
▁li	-9.54963
▁phone	-9.55018
▁documents	-9.55114
▁crucial	-9.55115
▁digital	-9.55173
▁challenges	-9.55251
ward	-9.55317
▁beyond	-9.55407
IS	-9.55414
▁solidarity	-9.55484
▁elements	-9.55513
▁elections	-9.55584
▁Qu	-9.5559
ves	-9.55629
ans	-9.5571
ration	-9.55714
▁Directive	-9.55773
▁processes	-9.55878
▁ne	-9.55949
▁advantage	-9.55963
▁restaurants	-9.55994
▁legislative	-9.5606
▁select	-9.56067
▁November	-9.5609
▁electronic	-9.56347
▁deliver	-9.56481
▁analysis	-9.56492
star	-9.56499
ica	-9.56501
▁Development	-9.56502
istic	-9.56558
▁cur	-9.56561
▁Cha	-9.56677
▁comprehensive	-9.56709
tel	-9.56725
▁respond	-9.56768
▁led	-9.56783
board	-9.56812
▁daily	-9.56823
▁ob	-9.56881
▁menu	-9.56956
▁carry	-9.57172
▁feature	-9.5722
▁deep	-9.57274
▁finance	-9.57342
▁installation	-9.57487
▁types	-9.57499
▁saying	-9.57512
AN	-9.57592
▁nu	-9.57644
ight	-9.57647
▁Russian	-9.57676
ants	-9.57831
rn	-9.57858
▁places	-9.57867
▁infrastructure	-9.57868
▁Ni	-9.57922
▁mode	-9.58237
▁contribute	-9.58239
&	-9.58295
▁paid	-9.58382
▁relate	-9.58446
▁Mediterranean	-9.58528
▁colleagues	-9.58575
▁fun	-9.5859
▁Paris	-9.58682
▁fi	-9.58695
▁goes	-9.58696
▁mobile	-9.58741
▁Green	-9.58797
▁Su	-9.58819
а	-9.58876
▁implement	-9.58953
▁extend	-9.58964
Office	-9.58974
▁vital	-9.59094
▁scientific	-9.59152
int	-9.59158
cor	-9.59168
rit	-9.59169
▁threat	-9.59195
mar	-9.59341
▁Web	-9.59416
ria	-9.59474
based	-9.59492
▁machine	-9.59512
iz	-9.59607
▁tomorrow	-9.59608
▁bank	-9.59648
▁measure	-9.59649
ger	-9.59702
▁camera	-9.59704
▁tools	-9.5972
▁growing	-9.5978
▁illegal	-9.59811
▁Sea	-9.59842
▁friends	-9.59862
▁terrace	-9.59882
▁implemented	-9.59902
▁sent	-9.59904
▁Your	-9.60059
▁requires	-9.60063
▁colour	-9.60127
zi	-9.6015
▁partnership	-9.60189
▁drink	-9.60225
ich	-9.60238
▁happy	-9.60269
und	-9.60291
▁Windows	-9.60341
▁target	-9.60348
▁minimum	-9.60361
▁display	-9.60388
▁debt	-9.60417
like	-9.6047
▁Te	-9.60548
▁Ge	-9.60668
▁relating	-9.60771
▁offered	-9.60789
▁campaign	-9.60812
▁format	-9.60837
▁border	-9.60843
▁April	-9.60905
▁adopt	-9.61072
▁inform	-9.61117
▁historic	-9.61138
▁ban	-9.61161
▁email	-9.61171
▁collection	-9.61259
▁caused	-9.6131
▁strategic	-9.61327
▁efficiency	-9.61347
▁Guest	-9.61402
▁While	-9.61461
▁limit	-9.61487
▁foot	-9.61498
▁hotels	-9.61528
▁bad	-9.61631
▁Ti	-9.61667
▁West	-9.61679
pl	-9.61699
cur	-9.61721
▁monitoring	-9.61724
▁000	-9.61861
▁organisations	-9.61917
▁Israel	-9.61919
▁brand	-9.6192
▁apartments	-9.61945
▁operating	-9.61963
▁published	-9.62002
▁23	-9.62053
ign	-9.6207
▁count	-9.621
▁forces	-9.62233
tur	-9.62322
▁accordance	-9.6242
▁tra	-9.62422
▁extent	-9.62448
▁door	-9.62526
▁season	-9.62535
▁profit	-9.62577
▁green	-9.62579
▁decide	-9.62599
ens	-9.62614
▁reflect	-9.62643
pre	-9.62684
▁Western	-9.62735
▁forest	-9.62739
▁delay	-9.62771
▁photo	-9.62781
ugh	-9.62836
▁fish	-9.62836
▁starting	-9.62867
▁screen	-9.62979
▁bu	-9.63019
▁l	-9.63071
▁che	-9.6315
if	-9.63155
▁ideas	-9.63188
▁technologies	-9.63191
▁motion	-9.63215
▁terrorism	-9.63238
▁generation	-9.63274
▁got	-9.63334
▁plant	-9.63417
ai	-9.63427
▁invest	-9.63464
▁persons	-9.63479
",	-9.63549
▁sometimes	-9.63552
▁consideration	-9.63575
▁maximum	-9.63576
wer	-9.63628
▁remind	-9.63711
▁worldwide	-9.63778
▁farmers	-9.63942
▁sales	-9.6396
▁morning	-9.64015
▁selection	-9.64156
EL	-9.64229
rk	-9.6423
▁anything	-9.64243
cl	-9.64283
▁probably	-9.64322
ya	-9.64323
▁ready	-9.64398
ug	-9.64472
▁degree	-9.64483
nk	-9.64504
▁paper	-9.64505
ping	-9.64546
▁bath	-9.64562
▁leaders	-9.64657
▁voting	-9.64675
chi	-9.64733
▁links	-9.64806
izing	-9.64863
▁ad	-9.64934
▁fund	-9.65007
▁2003	-9.6503
''	-9.6504
bit	-9.65112
light	-9.6514
▁map	-9.65207
▁administration	-9.6522
▁appear	-9.65279
▁Thank	-9.65299
▁assessment	-9.65306
▁weeks	-9.65385
▁fear	-9.65454
▁clients	-9.65462
▁gu	-9.65535
▁innovative	-9.65553
fu	-9.65724
▁Si	-9.65733
▁claim	-9.65738
las	-9.65802
▁reservation	-9.65876
▁cha	-9.65877
all	-9.65897
▁Chinese	-9.65941
▁despite	-9.65941
▁gain	-9.65952
▁typical	-9.66101
▁evening	-9.66151
▁Moreover	-9.66219
mis	-9.66228
ology	-9.66284
▁businesses	-9.66303
ux	-9.66325
▁1.	-9.66327
▁south	-9.66387
▁parking	-9.66429
ency	-9.66464
▁Pe	-9.66532
ee	-9.6655
▁tourist	-9.66563
и	-9.66707
ient	-9.66737
gar	-9.66752
ging	-9.66794
▁Ex	-9.66804
▁interested	-9.66934
ular	-9.6699
▁sport	-9.67055
▁Du	-9.67093
sur	-9.67108
▁update	-9.6713
▁discover	-9.67218
vent	-9.67221
oo	-9.67238
AL	-9.67293
mber	-9.67301
▁sports	-9.67467
▁Art	-9.67471
▁street	-9.67473
▁mark	-9.67531
ker	-9.67584
ino	-9.67593
pos	-9.67633
EC	-9.67648
▁players	-9.67671
ल	-9.67826
▁raised	-9.67871
▁€	-9.67916
▁gl	-9.67948
▁fr	-9.67949
▁accepted	-9.67988
▁options	-9.68013
▁lost	-9.68031
▁methods	-9.68331
bb	-9.68395
▁attack	-9.68406
air	-9.68409
▁shopping	-9.68418
▁Austria	-9.68443
▁traffic	-9.68637
▁%	-9.6866
cy	-9.68725
▁remember	-9.68747
▁fail	-9.68763
▁Not	-9.68797
In	-9.68809
▁40	-9.68818
▁General	-9.68828
▁swimming	-9.68837
▁ways	-9.6889
▁Un	-9.68949
bu	-9.68974
ero	-9.69011
eg	-9.69015
▁High	-9.69031
▁Ireland	-9.69037
gre	-9.6905
▁Conference	-9.69103
oc	-9.69141
▁visitors	-9.69157
▁criminal	-9.6917
ric	-9.6919
▁banks	-9.6924
▁trying	-9.69256
▁voice	-9.69271
▁lines	-9.69338
▁defend	-9.69473
▁absolutely	-9.69611
wing	-9.69737
▁highlight	-9.69808
01	-9.69969
ab	-9.69996
▁valid	-9.70011
▁His	-9.70053
▁Secondly	-9.70067
▁extensive	-9.70078
▁overall	-9.70125
ese	-9.7017
▁Wa	-9.7018
str	-9.70208
▁namely	-9.70234
▁accession	-9.70611
du	-9.70621
▁goal	-9.70698
▁City	-9.7077
ren	-9.70833
▁kitchen	-9.70849
▁cover	-9.70891
▁fresh	-9.70949
har	-9.71001
▁wrong	-9.71074
▁borders	-9.7108
▁More	-9.71224
▁relax	-9.71227
lar	-9.71234
▁wanted	-9.71304
▁income	-9.7135
rupt	-9.71353
duc	-9.71464
▁mini	-9.71474
ped	-9.71492
ice	-9.71615
lan	-9.71693
▁exhibition	-9.71717
▁languages	-9.71761
5%	-9.71803
▁structural	-9.71816
▁sort	-9.71932
▁candidate	-9.71942
▁topic	-9.7198
▁currency	-9.72103
▁trust	-9.72127
can	-9.72176
▁intended	-9.7218
▁committed	-9.72181
्	-9.72202
▁increasingly	-9.7223
▁22	-9.72297
▁representatives	-9.724
av	-9.72458
▁Indeed	-9.72465
▁expressed	-9.72629
▁cities	-9.72667
▁conclusion	-9.72668
rate	-9.72731
ges	-9.72736
▁changed	-9.72791
▁camp	-9.72984
▁yourself	-9.7305
▁proper	-9.73082
tz	-9.73139
ath	-9.73198
bel	-9.73241
▁alone	-9.73247
▁advance	-9.73418
sive	-9.73422
▁listen	-9.73439
OS	-9.73444
▁heard	-9.73451
▁cu	-9.73482
▁demands	-9.73489
▁Centre	-9.73539
▁sectors	-9.73545
▁strengthen	-9.73588
car	-9.73637
▁Public	-9.73655
▁resort	-9.73656
▁provision	-9.73724
▁opening	-9.73774
tru	-9.73797
▁Room	-9.73851
▁discuss	-9.73888
▁player	-9.73912
▁participate	-9.74006
▁ability	-9.74176
▁Ve	-9.74218
▁signal	-9.74247
▁worth	-9.74248
▁Air	-9.7439
▁red	-9.74392
▁cohesion	-9.74393
gan	-9.74404
▁club	-9.74509
▁mar	-9.74568
▁condition	-9.74712
▁coast	-9.74737
▁People	-9.74818
▁talking	-9.74888
ast	-9.74891
▁images	-9.74909
▁System	-9.74936
room	-9.74945
▁unemployment	-9.74999
▁district	-9.75007
▁initiatives	-9.75031
▁prior	-9.75074
▁justice	-9.75084
▁families	-9.75149
▁Ste	-9.75242
▁mainly	-9.75313
▁circumstances	-9.75386
▁Only	-9.75404
▁running	-9.75412
gent	-9.75434
▁processing	-9.7546
▁Val	-9.75488
▁cell	-9.75494
▁approved	-9.75505
▁Iraq	-9.7554
▁planning	-9.75581
▁helpful	-9.75654
▁games	-9.75683
▁Agreement	-9.75684
+	-9.75735
▁improved	-9.75829
▁obtain	-9.75854
lit	-9.75858
yn	-9.75912
▁London	-9.75946
▁fellow	-9.7595
▁cor	-9.75953
▁command	-9.75982
▁University	-9.76018
▁Fe	-9.76046
▁fo	-9.76047
▁affected	-9.76075
▁raise	-9.76081
▁60	-9.76112
▁install	-9.76162
▁confidence	-9.76221
vel	-9.76226
▁bed	-9.76227
▁whom	-9.76314
called	-9.76335
▁powers	-9.76441
▁translation	-9.76454
▁reforms	-9.76458
▁critical	-9.76494
▁Security	-9.76521
▁police	-9.76521
▁save	-9.76538
▁crime	-9.76548
▁began	-9.76562
▁Nations	-9.76577
▁priorities	-9.76584
▁explain	-9.76634
▁reduced	-9.76652
ming	-9.76677
▁client	-9.76689
▁Japan	-9.76736
▁powerful	-9.76772
form	-9.76795
è	-9.76833
▁Free	-9.76854
AT	-9.76906
ey	-9.77046
tes	-9.77077
▁Col	-9.77124
▁monitor	-9.77207
▁ensuring	-9.77233
▁assist	-9.77281
▁Ju	-9.77309
AS	-9.77313
▁spirit	-9.77354
▁Sta	-9.77374
▁AG	-9.77392
▁scope	-9.77401
ert	-9.77465
▁manner	-9.77468
▁automatically	-9.77472
▁GmbH	-9.77511
▁hot	-9.7752
▁ja	-9.77522
▁worked	-9.77566
▁database	-9.77612
▁emissions	-9.77616
▁walking	-9.77625
▁perform	-9.77707
▁exercise	-9.77778
▁participation	-9.77815
▁II	-9.77867
▁suitable	-9.7788
▁unit	-9.77918
▁fields	-9.77981
minate	-9.7799
▁sitting	-9.78005
matic	-9.78034
▁delivery	-9.78054
▁placed	-9.78097
▁August	-9.78254
▁union	-9.78469
ms	-9.78501
reg	-9.78515
sis	-9.78576
▁photograph	-9.78576
▁Ru	-9.78588
ulation	-9.78681
▁slow	-9.78701
van	-9.78723
▁plans	-9.7873
▁comment	-9.78742
▁perspective	-9.78781
▁serve	-9.78805
are	-9.78902
▁organisation	-9.78977
▁UK	-9.78978
day	-9.79061
▁India	-9.79095
▁ve	-9.79099
▁victims	-9.79152
▁Economic	-9.79162
▁calls	-9.79193
▁store	-9.79222
▁competitive	-9.79246
▁white	-9.79265
▁students	-9.79321
▁watch	-9.79323
▁specifically	-9.79334
ette	-9.79376
▁Greece	-9.79397
▁association	-9.79409
▁notice	-9.79409
▁comments	-9.79466
▁$	-9.79595
▁establishment	-9.79703
▁Pu	-9.79705
▁agriculture	-9.79706
▁north	-9.79812
zo	-9.79819
▁else	-9.79951
▁fruit	-9.80059
▁spend	-9.80063
▁Gra	-9.80132
▁Fo	-9.80171
▁intention	-9.80292
ó	-9.80378
▁effectively	-9.80412
▁guide	-9.80451
▁introduced	-9.80457
▁Palestinian	-9.80478
nce	-9.8048
▁tabled	-9.80511
▁farm	-9.8053
▁failure	-9.80557
▁belong	-9.806
RO	-9.80621
▁larger	-9.80623
▁summit	-9.80649
ari	-9.8076
▁aimed	-9.80789
▁God	-9.80798
pt	-9.80914
▁played	-9.80932
▁platform	-9.80942
hu	-9.80948
▁Ch	-9.81037
▁par	-9.81182
▁disaster	-9.81231
▁box	-9.8125
▁2002	-9.81263
Q	-9.81326
▁cl	-9.81341
▁para	-9.81444
▁referred	-9.8145
cial	-9.81451
▁log	-9.81456
▁trend	-9.81496
▁According	-9.81508
▁usually	-9.81528
▁becoming	-9.81536
▁wonderful	-9.81551
▁precisely	-9.81558
▁detailed	-9.81596
chen	-9.8161
▁mu	-9.81719
▁river	-9.81765
प	-9.81779
▁te	-9.81791
▁Just	-9.81946
ok	-9.82031
15	-9.82042
▁Each	-9.82087
ded	-9.82095
▁black	-9.82104
▁session	-9.82135
▁es	-9.82148
▁seat	-9.82191
▁permanent	-9.82193
ano	-9.82217
ada	-9.82304
▁rural	-9.82365
▁ju	-9.82461
iti	-9.82531
▁dimension	-9.8258
▁error	-9.82654
▁instance	-9.82685
▁grant	-9.82695
▁Her	-9.82696
▁happen	-9.82833
▁likely	-9.82837
▁exactly	-9.82882
▁combat	-9.82897
▁mission	-9.82909
▁attend	-9.83015
▁budgetary	-9.83031
IC	-9.83037
▁Asia	-9.83114
▁telephone	-9.83177
▁served	-9.83191
▁regular	-9.83207
ह	-9.8322
▁wi	-9.83283
▁2001	-9.83338
ym	-9.8337
▁wood	-9.83439
▁Czech	-9.83459
▁getting	-9.83464
▁pr	-9.83469
▁Middle	-9.83527
▁discussed	-9.83595
▁otherwise	-9.83614
ken	-9.83614
▁protected	-9.83636
stra	-9.83753
▁won	-9.83804
▁institutional	-9.83876
▁touch	-9.83877
▁forget	-9.8391
▁bio	-9.83945
▁bear	-9.8396
▁recommend	-9.83972
▁loss	-9.8398
19	-9.8401
▁animals	-9.84054
▁hi	-9.84056
vol	-9.84173
▁promotion	-9.84209
▁exp	-9.84275
▁firm	-9.84307
▁Also	-9.84331
US	-9.84333
berg	-9.84355
ham	-9.8436
categories	-9.84371
▁mid	-9.84395
:00	-9.84406
म	-9.84444
▁Port	-9.84475
▁stated	-9.84512
▁expand	-9.84552
▁introduction	-9.84599
ore	-9.84603
▁introduce	-9.84608
▁dealing	-9.84662
des	-9.84687
▁hear	-9.84701
▁administrative	-9.84703
▁managed	-9.84705
▁sources	-9.8473
▁purposes	-9.84735
work	-9.84737
▁Iran	-9.84752
▁museum	-9.84755
lia	-9.84824
▁Bas	-9.84834
▁earlier	-9.84886
ney	-9.84905
▁lies	-9.84934
▁solve	-9.84983
▁thousands	-9.85008
▁medical	-9.85032
▁CD	-9.85054
ware	-9.85081
▁landscape	-9.85085
lor	-9.85123
▁letter	-9.8515
▁fuel	-9.85176
▁lake	-9.85198
▁spread	-9.85244
▁conduct	-9.85288
▁manage	-9.85292
▁Any	-9.8533
▁guidelines	-9.85371
▁Human	-9.85432
▁patent	-9.85476
▁followed	-9.85561
uf	-9.85739
▁railway	-9.85763
▁inside	-9.85841
▁February	-9.85844
▁born	-9.85853
sid	-9.85864
▁risks	-9.8591
LE	-9.8594
▁peaceful	-9.85949
▁closely	-9.85951
▁represents	-9.85975
▁entry	-9.86115
▁intend	-9.86116
nch	-9.86131
▁covered	-9.86143
ea	-9.86241
house	-9.86246
▁wind	-9.86347
▁Inter	-9.86416
▁improving	-9.86519
▁expected	-9.86575
▁Policy	-9.866
▁winter	-9.86701
▁immigration	-9.86718
nc	-9.86738
▁ga	-9.86807
▁combination	-9.86811
▁taste	-9.86857
▁surface	-9.86867
▁enterprises	-9.86867
ju	-9.86923
▁selected	-9.86959
spir	-9.86959
12	-9.87027
▁स	-9.87102
▁tend	-9.8711
▁speech	-9.87145
▁mix	-9.87195
▁considerable	-9.87365
▁27	-9.87376
▁actual	-9.87453
▁shape	-9.87476
▁Why	-9.87503
▁substantial	-9.87506
ties	-9.87521
▁PC	-9.87543
▁ru	-9.8756
TM	-9.87573
▁Villa	-9.87585
▁1999	-9.87622
gra	-9.87631
▁Mon	-9.87713
▁functions	-9.8772
mann	-9.87735
ged	-9.87797
▁discussions	-9.87854
▁metres	-9.87909
▁sal	-9.87936
▁understanding	-9.87947
▁*	-9.87985
▁linked	-9.87992
▁domestic	-9.88057
▁sufficient	-9.88087
hor	-9.88115
see	-9.88199
▁Chi	-9.88215
▁tri	-9.88247
▁listed	-9.88251
▁Er	-9.88252
▁fe	-9.88256
▁gr	-9.88325
▁average	-9.88382
▁desire	-9.88386
burg	-9.88417
▁Dis	-9.88467
▁animal	-9.88558
▁normal	-9.88584
q	-9.88608
▁Social	-9.88627
▁fee	-9.8863
ax	-9.88633
▁sum	-9.88668
ED	-9.88727
▁pleasant	-9.88747
▁Are	-9.88769
▁connect	-9.88779
▁CO	-9.88785
place	-9.88798
▁Most	-9.888
part	-9.88865
▁picture	-9.88918
log	-9.88941
▁presence	-9.89008
▁laws	-9.89051
▁element	-9.89147
▁exclusive	-9.8916
40	-9.89205
▁meaning	-9.89296
ological	-9.89331
▁occur	-9.8939
▁tourism	-9.89429
▁intervention	-9.89436
unt	-9.89655
cess	-9.89763
og	-9.89797
han	-9.89849
▁weak	-9.8993
▁shower	-9.89972
▁seven	-9.89979
qua	-9.90025
▁competitiveness	-9.90062
▁Hu	-9.90135
▁zone	-9.90145
▁button	-9.90194
▁fisheries	-9.90252
▁Note	-9.90265
mic	-9.90276
lle	-9.90279
▁pension	-9.90324
▁coordination	-9.90362
▁authority	-9.90455
▁argument	-9.90458
RI	-9.90496
making	-9.90505
▁''	-9.90542
▁reception	-9.90584
▁et	-9.90598
▁programs	-9.90631
▁ye	-9.90661
▁entirely	-9.90663
▁cheap	-9.90786
▁properly	-9.90826
▁race	-9.90842
▁presidency	-9.90846
▁opened	-9.90853
▁title	-9.90891
▁Ph	-9.90897
▁200	-9.90973
▁operations	-9.90976
ates	-9.91006
▁gave	-9.91125
nu	-9.91172
cho	-9.91271
▁symbol	-9.91291
▁Switzerland	-9.9136
▁duty	-9.91362
▁interface	-9.91422
▁Barcelona	-9.91444
▁components	-9.91459
▁mass	-9.91514
11	-9.91515
▁difficulties	-9.91565
▁h	-9.91598
▁Q	-9.91603
▁destination	-9.91625
▁Fu	-9.91687
▁match	-9.91739
▁Nor	-9.91808
▁fan	-9.91838
▁depend	-9.91852
▁experts	-9.91969
▁detail	-9.91975
dis	-9.92101
▁Poland	-9.92152
tical	-9.92223
▁cook	-9.92277
▁founded	-9.92404
▁Trans	-9.92405
temp	-9.9241
▁boat	-9.92526
▁booking	-9.92545
▁generally	-9.92601
▁went	-9.92637
hn	-9.92649
▁Unfortunately	-9.92679
▁Click	-9.92693
▁consistent	-9.9274
▁facing	-9.92806
द	-9.92834
▁supporting	-9.92852
▁Because	-9.92876
▁definition	-9.92891
tech	-9.92901
zz	-9.93009
▁custom	-9.93029
af	-9.93053
▁Swiss	-9.93131
▁lu	-9.93226
▁cap	-9.93303
▁hu	-9.93328
▁paragraph	-9.93334
▁Comp	-9.93355
bal	-9.93464
▁competence	-9.93475
▁networks	-9.93552
cher	-9.93671
▁Arab	-9.93682
▁appeal	-9.93715
▁playing	-9.93756
▁estate	-9.93791
▁minister	-9.9382
▁phase	-9.93918
▁applies	-9.93961
▁pen	-9.94024
▁defence	-9.94043
▁organ	-9.94044
▁Brussels	-9.94058
▁Every	-9.941
▁appreciate	-9.94143
len	-9.94176
▁York	-9.94187
▁monetary	-9.9423
▁evidence	-9.94344
mal	-9.94381
mun	-9.94407
▁dynamic	-9.94459
▁politics	-9.94517
sign	-9.94563
▁aspect	-9.94567
Ma	-9.94596
▁+	-9.946
▁elegant	-9.94617
▁flexibility	-9.94661
▁spacious	-9.94697
▁load	-9.94715
▁advanced	-9.94781
▁architecture	-9.9481
▁financing	-9.9492
▁modified	-9.9492
▁Har	-9.94968
top	-9.94978
DA	-9.94985
▁consult	-9.94989
point	-9.94998
▁attractive	-9.95008
▁Tri	-9.95078
▁negative	-9.9518
▁vehicles	-9.95237
▁bodies	-9.95297
pon	-9.95306
▁enormous	-9.95325
▁science	-9.95383
▁fixed	-9.95426
wards	-9.95441
▁Ki	-9.95463
▁Airport	-9.95496
▁factor	-9.95498
TA	-9.955
▁Cre	-9.95507
▁square	-9.95516
▁tour	-9.95539
▁counter	-9.95572
▁plants	-9.95611
old	-9.95683
chan	-9.9572
▁va	-9.95731
▁economies	-9.9579
sized	-9.95824
▁Open	-9.95831
▁buildings	-9.95857
lea	-9.95874
▁conclude	-9.95899
ST	-9.95949
▁himself	-9.95951
▁flexible	-9.95965
▁difference	-9.95981
▁hour	-9.95997
cri	-9.96029
▁Act	-9.96071
▁marketing	-9.96076
▁promoting	-9.9617
▁dangerous	-9.96234
▁́	-9.96259
▁super	-9.96272
▁opposition	-9.96304
tto	-9.96322
▁Regulation	-9.96331
▁outcome	-9.96336
▁90	-9.96346
▁prefer	-9.96395
▁speaking	-9.96417
▁thinking	-9.96444
bin	-9.96484
▁Kingdom	-9.96507
▁Vo	-9.96582
▁easier	-9.96609
▁items	-9.96638
▁parliamentary	-9.96658
▁adoption	-9.96659
lk	-9.96688
▁Hi	-9.96695
how	-9.96707
▁defined	-9.96715
▁tu	-9.96778
▁expression	-9.96888
duct	-9.96911
т	-9.97077
SE	-9.97117
▁Over	-9.97177
▁middle	-9.972
▁contain	-9.97248
▁cuisine	-9.97302
fully	-9.97309
▁Once	-9.97437
struct	-9.97443
▁myself	-9.97465
н	-9.97479
ME	-9.97481
▁fill	-9.97517
LA	-9.97563
▁Market	-9.97572
▁assume	-9.97621
mu	-9.97628
60	-9.97637
▁license	-9.97658
MO	-9.97698
▁continent	-9.97702
▁respective	-9.97722
▁convert	-9.97742
▁leader	-9.97763
▁seriously	-9.97786
▁Amsterdam	-9.97806
▁adequate	-9.9791
amp	-9.97914
▁machines	-9.97921
▁concrete	-9.97955
ien	-9.97963
▁Great	-9.97976
▁Roman	-9.98029
cept	-9.98059
ade	-9.98067
year	-9.9807
▁mail	-9.98088
▁urge	-9.98096
▁Rooms	-9.98145
▁accident	-9.98163
▁signed	-9.98172
cht	-9.98179
▁associated	-9.98247
▁publish	-9.98309
▁humanitarian	-9.98313
▁informed	-9.98322
ez	-9.98334
low	-9.98399
▁Br	-9.98429
▁sand	-9.98433
▁unto	-9.98449
▁Greek	-9.98511
▁Christian	-9.98522
▁couple	-9.98538
ov	-9.98546
▁rock	-9.98568
▁ancient	-9.98661
▁reducing	-9.98762
free	-9.98802
▁constitute	-9.98837
▁motor	-9.98881
▁safeguard	-9.98912
hy	-9.98927
▁organization	-9.9894
▁says	-9.98951
▁teach	-9.98951
▁ill	-9.98961
▁preparation	-9.99002
▁radio	-9.99009
cious	-9.99013
▁lift	-9.99036
ado	-9.99072
▁Romania	-9.99091
▁television	-9.99395
▁implementing	-9.99413
▁experienced	-9.9944
▁secret	-9.9944
▁emphasise	-9.99451
CE	-9.99565
▁temperature	-9.9959
▁African	-9.99592
ray	-9.99611
▁happened	-9.99614
▁article	-9.99619
▁condemn	-9.99636
ं	-9.99649
▁initial	-9.99687
▁je	-9.9969
▁agencies	-9.99712
hen	-9.99775
wn	-9.99831
▁anyone	-9.99842
▁connected	-9.99909
▁studies	-9.99909
▁scale	-9.9992
▁z	-9.99935
▁improvement	-9.99937
▁emphasis	-9.99942
▁length	-9.99969
▁Sal	-9.99998
▁spot	-10
ris	-10.0004
▁Ukraine	-10.0008
▁immediate	-10.0009
▁carefully	-10.0011
tive	-10.0016
▁Gi	-10.0021
cle	-10.0022
▁impossible	-10.0023
ley	-10.0034
▁Budget	-10.004
▁consumption	-10.004
▁arrival	-10.0043
▁stable	-10.0043
▁genuine	-10.0052
▁recognition	-10.0058
▁Firstly	-10.006
▁differences	-10.006
▁Board	-10.0067
long	-10.0072
▁shops	-10.0073
CH	-10.0076
▁adapt	-10.0079
PL	-10.008
▁spent	-10.0083
▁Environment	-10.0085
▁producers	-10.0088
del	-10.0095
▁convenient	-10.0096
▁Mu	-10.0096
▁n	-10.0099
“	-10.01
cia	-10.0103
▁Je	-10.0118
▁truly	-10.0119
SS	-10.0119
▁Island	-10.0121
▁module	-10.0122
▁beds	-10.0133
▁Then	-10.0134
▁territory	-10.0141
▁discrimination	-10.015
▁announced	-10.015
▁launch	-10.0156
ins	-10.0158
ग	-10.0161
ound	-10.0163
▁described	-10.0164
▁Debian	-10.0165
▁practices	-10.0165
▁Ke	-10.0166
▁feeling	-10.0169
▁presentation	-10.0172
▁told	-10.0174
▁Museum	-10.0176
▁scheme	-10.0184
off	-10.0186
▁membership	-10.0186
▁Justice	-10.0192
▁danger	-10.0202
▁aims	-10.0202
▁appears	-10.0206
▁object	-10.0206
▁coffee	-10.0207
▁Research	-10.0209
▁ahead	-10.0209
▁Office	-10.0222
▁Pri	-10.0227
▁consultation	-10.0228
▁Due	-10.0232
▁occasion	-10.0238
▁physical	-10.0244
▁beaches	-10.0245
ult	-10.0248
▁USA	-10.0253
▁sell	-10.0255
▁meetings	-10.0255
AC	-10.0258
▁emerge	-10.0264
European	-10.0268
▁song	-10.0272
▁foundation	-10.0279
▁vision	-10.0286
▁possibilities	-10.0293
▁stone	-10.0295
▁calling	-10.0296
mat	-10.0298
org	-10.0304
▁shared	-10.0312
▁mon	-10.0314
▁background	-10.0317
▁continued	-10.0324
▁eight	-10.0326
▁finding	-10.033
▁micro	-10.0333
▁structures	-10.0335
▁unacceptable	-10.0337
ita	-10.0337
rac	-10.0343
sha	-10.0346
▁wishes	-10.0351
▁IT	-10.0352
▁availability	-10.0354
hel	-10.0361
SP	-10.0362
▁label	-10.0362
▁cat	-10.0365
▁surrounding	-10.0372
▁released	-10.0375
▁Trade	-10.0376
▁min	-10.0381
▁reasonable	-10.0385
▁leg	-10.0385
▁route	-10.0387
▁Grand	-10.0395
▁burden	-10.0403
sol	-10.0411
▁greatest	-10.0414
▁Democrats	-10.0416
▁trading	-10.0419
kan	-10.042
▁religious	-10.0433
▁500	-10.0435
tar	-10.0442
▁statements	-10.0444
▁confirm	-10.0445
▁insurance	-10.0446
▁combined	-10.0447
=	-10.0449
▁skills	-10.0451
▁Prime	-10.0453
▁weight	-10.0454
med	-10.0459
▁fiscal	-10.0467
▁win	-10.0467
▁prospect	-10.0483
fect	-10.0488
▁write	-10.0488
bs	-10.0499
▁Booking	-10.0501
▁ab	-10.0503
hold	-10.0508
▁unfortunately	-10.051
▁strongly	-10.0512
▁asylum	-10.0527
▁entitled	-10.0529
▁Bro	-10.0529
▁attitude	-10.0537
▁spending	-10.0539
▁mutual	-10.054
▁regret	-10.0546
ella	-10.0546
▁Other	-10.0548
▁hands	-10.0551
▁Red	-10.0556
▁examine	-10.0559
emp	-10.0562
▁charged	-10.0564
▁unless	-10.0565
▁allowing	-10.0574
▁models	-10.0574
tom	-10.0575
▁figures	-10.0582
uff	-10.0584
▁register	-10.0584
ute	-10.0586
▁glass	-10.0595
▁recognise	-10.0602
▁transparent	-10.0608
▁Health	-10.0614
▁Irish	-10.0616
▁disease	-10.0618
▁Services	-10.0625
▁closer	-10.0626
▁Turkish	-10.0627
▁demonstrate	-10.063
▁metal	-10.063
▁sale	-10.063
ski	-10.0632
dding	-10.0635
▁=	-10.0641
▁expenditure	-10.0654
bor	-10.0655
▁Such	-10.0655
▁Sol	-10.0666
MS	-10.0666
▁completed	-10.0669
▁Mer	-10.0672
▁acknowledge	-10.0674
в	-10.068
bra	-10.0682
quality	-10.0689
▁के	-10.069
ong	-10.0703
AM	-10.0712
grad	-10.0712
RA	-10.0724
pen	-10.0729
ridge	-10.0735
▁delegation	-10.0736
▁becomes	-10.0737
▁beauty	-10.0741
▁shop	-10.0744
▁failed	-10.0745
▁feed	-10.0745
ery	-10.0752
ibility	-10.0757
▁print	-10.0778
▁election	-10.078
▁forced	-10.078
18	-10.0781
▁developments	-10.0782
cer	-10.0787
gli	-10.0789
▁friend	-10.0789
fra	-10.0793
pho	-10.0794
▁Spa	-10.0795
▁dedicated	-10.0797
▁nearby	-10.0801
▁qua	-10.0803
▁devices	-10.0807
pic	-10.0811
▁houses	-10.0811
▁sc	-10.0814
▁urgent	-10.0815
▁device	-10.0817
▁Tur	-10.082
▁70	-10.0824
▁registered	-10.084
▁institution	-10.0843
▁sight	-10.0844
▁suit	-10.0848
▁reliable	-10.0848
▁wants	-10.0849
▁establishing	-10.0849
▁van	-10.085
▁convinced	-10.0858
▁meters	-10.0859
cket	-10.0872
▁Plan	-10.0872
▁Kosovo	-10.0874
▁grow	-10.0874
nz	-10.0881
▁Another	-10.0881
▁Star	-10.0886
▁guarantees	-10.089
night	-10.0892
▁corporate	-10.0896
▁Fer	-10.0897
▁combine	-10.09
▁Nevertheless	-10.0901
spect	-10.0901
▁advertising	-10.0904
▁pictures	-10.0905
▁core	-10.091
▁Business	-10.0911
▁copy	-10.0912
▁Korea	-10.0912
▁prove	-10.0913
▁Under	-10.0914
vin	-10.0915
▁tasks	-10.092
▁compared	-10.0924
▁specialist	-10.0925
▁graphic	-10.0928
ons	-10.0929
▁contrary	-10.0929
▁storage	-10.0929
▁advice	-10.0931
ire	-10.0935
ura	-10.0938
PA	-10.0944
▁mistake	-10.0948
ctic	-10.0948
▁WTO	-10.0951
mination	-10.0951
▁hill	-10.0957
▁stands	-10.0959
▁granted	-10.0962
▁rail	-10.0976
▁biggest	-10.0976
▁window	-10.0978
▁kept	-10.0988
new	-10.0995
▁relaxing	-10.0997
▁totally	-10.0997
▁declaration	-10.1001
▁installed	-10.1002
▁pursue	-10.1003
▁Yet	-10.101
▁weapons	-10.1011
▁earn	-10.1015
eu	-10.1019
▁push	-10.1038
▁terrorist	-10.1041
sp	-10.1043
▁root	-10.1049
▁collect	-10.1051
▁unable	-10.1053
ID	-10.1055
▁band	-10.1057
▁story	-10.1059
▁satellite	-10.106
ste	-10.1061
▁extended	-10.1063
pet	-10.1063
▁300	-10.1064
▁corner	-10.1065
▁manager	-10.1075
az	-10.1079
▁strength	-10.1084
▁moving	-10.1088
80	-10.1088
▁Foreign	-10.1092
rc	-10.1097
▁enables	-10.11
vert	-10.1101
zen	-10.1101
▁learning	-10.1102
iff	-10.1102
▁assure	-10.1103
▁claims	-10.1105
▁flat	-10.1113
▁deficit	-10.1114
▁master	-10.1115
▁saw	-10.1115
▁Netherlands	-10.1116
▁THE	-10.1116
PS	-10.1117
▁passed	-10.1118
▁zu	-10.1124
ses	-10.1125
▁handle	-10.1128
▁colleague	-10.1128
▁Lake	-10.1129
dri	-10.113
▁concert	-10.1131
rea	-10.1132
▁memory	-10.1133
mes	-10.1134
▁dream	-10.1136
▁attract	-10.1138
▁drawn	-10.1139
▁chemical	-10.1148
▁complain	-10.1152
▁exceptional	-10.1155
▁net	-10.1157
▁attractions	-10.1158
▁blue	-10.1165
ically	-10.1166
▁church	-10.1168
▁neither	-10.1169
▁heat	-10.1172
▁80	-10.1175
▁lose	-10.1177
ved	-10.1178
▁Auto	-10.1179
5-0	-10.1182
▁www	-10.1187
▁28	-10.1187
▁cards	-10.1191
▁!	-10.1196
▁hit	-10.1196
▁lay	-10.1205
SA	-10.1213
ose	-10.1214
▁rent	-10.1215
▁drop	-10.1215
▁achieving	-10.1215
arch	-10.1215
▁Tour	-10.122
▁Win	-10.1221
▁roll	-10.1221
▁Bulgaria	-10.1227
▁ambitious	-10.1227
▁laid	-10.1229
▁vehicle	-10.123
▁Eastern	-10.1232
75	-10.1233
▁wealth	-10.1233
▁volume	-10.1234
TE	-10.1235
▁factors	-10.1235
▁honourable	-10.1246
gene	-10.1247
▁Thus	-10.1249
FR	-10.1252
▁maintenance	-10.1253
▁quick	-10.1257
▁chosen	-10.1257
▁Constitution	-10.1257
▁Portugal	-10.1258
▁tried	-10.1258
AP	-10.1258
▁hall	-10.1261
eb	-10.1271
▁Bre	-10.1273
▁von	-10.1285
uc	-10.1288
▁supports	-10.1297
ati	-10.1298
▁packages	-10.1304
tting	-10.1312
▁Mont	-10.1312
▁Ab	-10.1318
▁sensitive	-10.132
ident	-10.1322
▁mi	-10.1324
▁Austrian	-10.1324
gy	-10.1324
pu	-10.1325
▁ci	-10.1327
▁Vienna	-10.1327
▁assess	-10.1328
▁elected	-10.1329
▁remove	-10.1338
▁1998	-10.1338
▁continuing	-10.1344
▁abuse	-10.1346
▁judge	-10.1348
▁pleasure	-10.135
▁Well	-10.1356
▁conclusions	-10.1356
▁Association	-10.1362
▁liberal	-10.1364
▁Information	-10.137
pper	-10.1371
xi	-10.1372
▁26	-10.1377
▁Work	-10.138
▁Gar	-10.1381
▁agency	-10.1381
▁perfectly	-10.1382
▁violation	-10.1383
phe	-10.1385
▁golf	-10.1386
▁evaluation	-10.1398
▁rapid	-10.1398
uk	-10.1399
▁cra	-10.1399
▁spring	-10.1399
itor	-10.1403
▁obviously	-10.1405
card	-10.1406
▁sold	-10.1406
▁department	-10.1409
▁identify	-10.1414
▁Exp	-10.1417
▁constantly	-10.1418
▁extension	-10.1419
▁flight	-10.1421
igh	-10.1426
▁wait	-10.1427
cro	-10.1436
▁mechanism	-10.1439
▁equality	-10.1439
▁buffet	-10.1444
▁proportion	-10.1446
▁Where	-10.1448
▁Croatia	-10.1454
mmer	-10.1456
▁independence	-10.1458
▁Del	-10.146
ect	-10.1462
▁obligations	-10.1464
▁spec	-10.1465
▁Center	-10.1467
▁threaten	-10.147
▁u	-10.1472
▁rightly	-10.1472
nom	-10.1476
▁Restaurant	-10.1479
▁reject	-10.1489
▁luxury	-10.149
▁yesterday	-10.1491
▁facilitate	-10.1495
▁positions	-10.1495
व	-10.15
ici	-10.15
▁outstanding	-10.1502
▁aircraft	-10.1504
▁organised	-10.1507
▁promise	-10.1508
▁artists	-10.151
Fi	-10.1512
ini	-10.1521
ox	-10.1532
▁repeat	-10.1534
▁bra	-10.1535
▁Management	-10.1537
▁merely	-10.1538
▁holidays	-10.1545
▁news	-10.1547
site	-10.1549
л	-10.1551
with	-10.1553
▁criticism	-10.1558
▁blood	-10.1566
DI	-10.1568
▁App	-10.1568
▁continues	-10.1569
▁chain	-10.1571
▁endorse	-10.1571
р	-10.1574
▁successfully	-10.1583
▁obvious	-10.1588
cru	-10.1588
▁restrict	-10.1596
▁Rome	-10.1598
ban	-10.1601
▁determine	-10.1604
rum	-10.1605
▁wonder	-10.1611
▁insist	-10.1614
▁registration	-10.1614
▁prepare	-10.1615
▁Am	-10.1625
▁visa	-10.163
▁Mac	-10.1631
direct	-10.1637
▁technological	-10.1639
▁comply	-10.1643
ु	-10.1648
▁invite	-10.1655
▁exception	-10.1659
gin	-10.1659
▁communities	-10.166
▁gold	-10.1661
▁urban	-10.1668
▁Time	-10.1668
98	-10.1668
14	-10.1669
▁names	-10.1671
▁balanced	-10.1673
▁surrounded	-10.1675
lig	-10.1679
▁Latin	-10.168
▁Pat	-10.1682
▁commitments	-10.1688
▁species	-10.1692
phi	-10.1694
atory	-10.1694
ash	-10.1697
▁fit	-10.1697
▁changing	-10.17
▁decades	-10.1706
▁fer	-10.1706
▁sides	-10.171
▁Club	-10.1711
▁someone	-10.1718
▁disposal	-10.1731
▁Home	-10.1737
illa	-10.1748
▁era	-10.1755
▁disc	-10.1758
mission	-10.1765
▁finish	-10.1767
▁Summit	-10.177
▁Federal	-10.1772
▁prevention	-10.1773
lock	-10.1775
▁31	-10.1776
▁boot	-10.1783
▁worse	-10.1785
▁limits	-10.1791
▁wall	-10.1791
▁putting	-10.1797
ku	-10.1804
▁chair	-10.1807
▁contained	-10.1808
▁category	-10.1808
▁recovery	-10.1809
▁Cu	-10.1809
▁accessible	-10.1812
▁payments	-10.1812
▁define	-10.1812
▁Those	-10.1815
mini	-10.1816
▁mountains	-10.1816
▁switch	-10.182
MA	-10.1822
▁recommendations	-10.1823
teen	-10.1829
IL	-10.1832
▁strict	-10.1834
▁reveal	-10.1834
▁proceed	-10.1835
▁representative	-10.1835
▁Ter	-10.1836
responsibilities	-10.1838
▁participants	-10.1838
▁approximately	-10.1839
▁skin	-10.184
▁targets	-10.1841
▁Both	-10.1842
▁Day	-10.1843
▁award	-10.1848
▁browser	-10.185
▁minute	-10.1851
We	-10.1853
▁Uni	-10.1858
▁submit	-10.1858
▁fraud	-10.1865
dress	-10.1867
▁director	-10.1869
▁journey	-10.1871
bla	-10.1876
▁planned	-10.1887
▁steel	-10.1887
▁goals	-10.1888
▁glad	-10.1888
▁asking	-10.1899
▁capable	-10.19
ators	-10.1901
▁EC	-10.1903
▁strengthening	-10.1904
round	-10.1905
▁arise	-10.1905
▁battle	-10.1907
IA	-10.1908
bus	-10.1909
▁manufacturing	-10.1916
▁quarter	-10.192
ida	-10.1921
..."	-10.1921
back	-10.1925
▁Agency	-10.1928
ato	-10.1928
▁Che	-10.193
▁bringing	-10.1937
▁profile	-10.1945
ili	-10.1946
▁individuals	-10.1947
▁collective	-10.1948
▁retain	-10.195
▁waiting	-10.1954
▁nearly	-10.1963
▁IN	-10.1964
▁Cla	-10.197
07	-10.1973
▁Bel	-10.1976
▁Bal	-10.1978
mas	-10.1978
▁seeking	-10.1978
▁guaranteed	-10.1983
▁numbers	-10.1983
▁thereby	-10.1994
book	-10.1996
▁consists	-10.1997
uring	-10.2002
▁preserve	-10.2002
▁formal	-10.2002
▁deposit	-10.2004
▁medicine	-10.2005
▁smaller	-10.2005
▁ni	-10.2009
▁acceptable	-10.2012
▁consensus	-10.2014
▁identity	-10.2022
down	-10.2022
▁multiple	-10.2026
▁governance	-10.2028
25	-10.2032
ify	-10.2033
put	-10.2033
▁exc	-10.2037
▁enhance	-10.2041
▁Director	-10.2047
▁contemporary	-10.2048
▁treat	-10.205
era	-10.2051
lip	-10.2059
▁detect	-10.206
▁trial	-10.2061
▁indicate	-10.2062
▁primary	-10.2068
ola	-10.207
▁drawing	-10.2074
▁ter	-10.2074
▁resulting	-10.2075
▁Za	-10.2078
▁concentrate	-10.2083
▁Au	-10.2096
shop	-10.2105
▁fashion	-10.2106
▁industries	-10.2106
▁Sweden	-10.2108
▁Socialist	-10.2115
▁truth	-10.2115
tract	-10.2117
pul	-10.212
▁Ku	-10.2124
▁southern	-10.2136
▁Bra	-10.2151
▁Linux	-10.2159
▁cars	-10.2163
ific	-10.2164
▁publication	-10.2169
▁meal	-10.217
▁furnished	-10.2174
lation	-10.2174
▁"...	-10.2174
pha	-10.2179
ase	-10.218
▁1997	-10.2185
▁quota	-10.2198
loc	-10.2199
▁driving	-10.2204
▁Rules	-10.2206
▁adjust	-10.2218
▁nation	-10.222
▁liability	-10.2221
din	-10.2225
border	-10.2226
ned	-10.2229
mod	-10.2233
hood	-10.224
▁tackle	-10.224
▁pointed	-10.2242
▁DVD	-10.2242
OL	-10.2243
▁eye	-10.2244
war	-10.2245
▁dispute	-10.2246
itive	-10.2248
dict	-10.2248
▁Wal	-10.2252
ो	-10.2257
▁votes	-10.2259
▁John	-10.226
zy	-10.2263
rus	-10.2264
▁settlement	-10.2265
ING	-10.227
ule	-10.227
▁cre	-10.2272
▁primarily	-10.2276
rie	-10.2279
ona	-10.2281
▁Located	-10.2282
▁pick	-10.2288
▁mother	-10.2289
▁Enjoy	-10.229
▁deserve	-10.229
▁Part	-10.2293
lay	-10.2296
▁x	-10.2297
▁discussing	-10.23
▁Im	-10.2302
ji	-10.2309
wo	-10.2313
ave	-10.2317
▁addressed	-10.232
▁Gen	-10.2322
▁snow	-10.2333
▁wa	-10.2336
▁previously	-10.234
▁movie	-10.2346
▁default	-10.2347
ben	-10.2351
▁por	-10.2352
с	-10.2354
ara	-10.2356
lli	-10.2358
▁explore	-10.2366
*	-10.2367
graph	-10.2369
ement	-10.2372
▁plus	-10.2382
▁determined	-10.2388
ics	-10.2389
win	-10.239
▁leadership	-10.2396
▁patients	-10.2397
smoking	-10.2401
▁mandate	-10.241
▁impression	-10.2416
▁renewable	-10.2416
▁wage	-10.2417
asse	-10.2418
▁Control	-10.242
▁harm	-10.2422
ima	-10.2423
48	-10.2426
▁cool	-10.2427
▁password	-10.2434
▁photos	-10.2435
17	-10.2442
▁vari	-10.2443
▁causes	-10.2443
▁attacks	-10.2445
▁Chamber	-10.2456
▁president	-10.2463
▁opposite	-10.2465
NA	-10.2472
▁son	-10.2474
▁pla	-10.2476
200	-10.2478
not	-10.2486
▁nations	-10.2487
▁universal	-10.2488
pan	-10.2495
gel	-10.2512
▁Use	-10.2513
▁piece	-10.2515
▁grounds	-10.252
▁Despite	-10.2521
▁diversity	-10.2521
▁sanctions	-10.2521
▁resolve	-10.253
▁controls	-10.253
▁acts	-10.2532
▁—	-10.254
08	-10.2544
▁Op	-10.2544
my	-10.2549
▁father	-10.2558
▁dealt	-10.2562
▁valley	-10.2563
▁reply	-10.2565
aries	-10.2567
▁requested	-10.2567
▁turned	-10.2578
aging	-10.2582
▁Brazil	-10.2584
▁Mc	-10.2584
ei	-10.2591
▁delivered	-10.2592
▁testing	-10.2593
▁discharge	-10.2595
▁refugees	-10.2598
▁amongst	-10.2599
▁ce	-10.26
▁obligation	-10.2614
▁horse	-10.2618
ssen	-10.262
▁29	-10.2623
▁binding	-10.2624
▁Design	-10.2625
▁qualified	-10.2631
▁exceed	-10.2632
▁division	-10.2636
▁expense	-10.2638
▁outdoor	-10.2643
▁courses	-10.2645
ET	-10.265
cker	-10.2653
▁Sha	-10.2653
▁scene	-10.2653
ished	-10.2654
name	-10.2663
gate	-10.2664
▁dinner	-10.2673
cha	-10.2675
▁Dutch	-10.2681
▁1,	-10.2686
▁leads	-10.269
09	-10.2707
▁existence	-10.2709
nel	-10.2715
col	-10.2716
▁album	-10.2717
64	-10.2718
▁approval	-10.2721
activ	-10.2721
à	-10.2724
▁Minutes	-10.2725
▁Programme	-10.2725
ily	-10.2741
▁constructive	-10.2744
▁significantly	-10.2745
▁constant	-10.275
▁named	-10.2754
▁Microsoft	-10.2755
EM	-10.2756
▁mechanisms	-10.276
▁contents	-10.2763
▁Roma	-10.2766
▁audio	-10.277
▁Hol	-10.2771
Re	-10.2778
▁Take	-10.2779
▁Shi	-10.2788
▁shift	-10.2793
▁castle	-10.2794
▁Question	-10.2795
02	-10.2796
▁Real	-10.2796
▁cable	-10.2801
▁Bur	-10.2803
▁Product	-10.2807
▁launched	-10.2808
▁una	-10.2809
inter	-10.2809
▁holding	-10.2816
▁soft	-10.2817
▁Two	-10.2819
▁Fin	-10.2825
▁Israeli	-10.2829
▁manufacturers	-10.283
position	-10.2831
▁compensation	-10.2833
bil	-10.2836
▁achievement	-10.2838
▁marked	-10.2838
▁heavy	-10.2839
▁compliance	-10.2841
▁contrast	-10.2845
▁Card	-10.2851
▁output	-10.2861
▁Egypt	-10.2863
ening	-10.2864
▁gather	-10.2869
▁GDP	-10.2872
▁residence	-10.2876
▁Don	-10.2876
▁rejected	-10.2876
▁expectations	-10.2881
rant	-10.2889
▁Company	-10.289
▁est	-10.2899
▁permit	-10.29
▁expertise	-10.2905
▁noise	-10.2907
▁Tor	-10.2914
UR	-10.2916
▁Before	-10.2916
▁Book	-10.2918
▁dry	-10.2919
▁schools	-10.2924
▁talks	-10.2924
even	-10.2925
▁dr	-10.2926
run	-10.2933
rio	-10.2934
▁Bor	-10.2937
▁moved	-10.294
▁Costa	-10.2945
view	-10.2946
▁expensive	-10.2947
▁Software	-10.2955
▁relatively	-10.2956
ene	-10.296
▁Head	-10.2961
▁figure	-10.2963
▁Breakfast	-10.2967
▁Tu	-10.2976
▁pain	-10.2979
▁valuable	-10.2979
tim	-10.2981
▁treated	-10.2992
▁politicians	-10.2994
els	-10.2997
▁suffering	-10.3001
▁Thanks	-10.3009
▁taxes	-10.3009
rent	-10.3011
▁Sp	-10.3018
13	-10.3027
>	-10.3035
▁advise	-10.3035
▁brings	-10.3035
▁Lord	-10.305
▁dollar	-10.3051
cip	-10.3053
▁forum	-10.3055
49	-10.3057
▁drugs	-10.306
▁Gold	-10.3061
▁investigation	-10.3066
bl	-10.3071
▁Ben	-10.3073
▁books	-10.3076
▁hair	-10.3082
▁vast	-10.3088
▁airline	-10.3088
▁Data	-10.3094
▁cycle	-10.3095
03	-10.3098
▁moral	-10.3099
ré	-10.3102
▁improvements	-10.3103
▁represented	-10.3107
99	-10.3108
COM	-10.311
▁massive	-10.3117
▁rare	-10.3122
▁interior	-10.3123
▁ball	-10.3125
▁dishes	-10.3126
▁latter	-10.313
CO	-10.3135
util	-10.3136
▁reaction	-10.3137
▁See	-10.3143
hand	-10.3146
pli	-10.315
pel	-10.315
.”	-10.3151
PT	-10.3155
▁Mor	-10.3155
65	-10.3155
▁apart	-10.3158
▁applicable	-10.3169
IP	-10.3171
mid	-10.3171
▁privacy	-10.3172
gri	-10.3183
▁intellectual	-10.3184
▁leisure	-10.3194
til	-10.3199
▁speakers	-10.3201
▁helping	-10.3204
▁investments	-10.3205
▁string	-10.3208
LO	-10.3208
▁affairs	-10.3211
▁filter	-10.3211
▁ride	-10.3212
▁creative	-10.3213
96	-10.3221
▁proud	-10.3226
▁furniture	-10.3228
▁blog	-10.3229
▁charming	-10.323
lon	-10.323
▁Get	-10.3234
16	-10.3237
▁tea	-10.3239
▁protest	-10.324
▁fulfil	-10.3241
hol	-10.3241
▁recommended	-10.3243
▁whatever	-10.3252
▁Paper	-10.3256
▁convention	-10.326
▁wild	-10.3261
▁involving	-10.3276
▁flu	-10.3283
▁fu	-10.3286
▁spaces	-10.3289
▁Energy	-10.3289
ón	-10.3292
▁career	-10.3293
▁Special	-10.3294
▁1990	-10.3295
▁cast	-10.3302
IM	-10.3304
▁entered	-10.3313
▁arms	-10.3316
▁Die	-10.3318
phrase	-10.3319
▁Very	-10.3319
▁revolution	-10.3327
▁older	-10.3329
▁felt	-10.3331
▁substances	-10.3336
▁entertainment	-10.3338
rry	-10.334
▁suite	-10.334
▁sexual	-10.3341
▁Britain	-10.3346
▁impressive	-10.3353
▁suffer	-10.3353
▁engineering	-10.3355
97	-10.3358
▁Camp	-10.3359
FI	-10.3362
▁Front	-10.3363
▁vacation	-10.3365
▁operators	-10.337
▁Global	-10.3376
ians	-10.3389
▁auto	-10.3392
▁whilst	-10.3397
arian	-10.3399
▁opposed	-10.3403
▁alter	-10.3409
bri	-10.3413
य	-10.3414
70	-10.3415
▁arrangements	-10.3418
▁keeping	-10.342
PE	-10.3422
▁interpret	-10.3422
▁onto	-10.3426
▁copyright	-10.3428
▁exclusively	-10.3433
▁rental	-10.3436
▁Afghanistan	-10.3442
▁arrive	-10.3449
▁Cal	-10.3451
elect	-10.3451
hl	-10.3452
▁Fre	-10.3453
▁eat	-10.3456
▁naturally	-10.3461
▁kinds	-10.3461
NG	-10.3467
▁mobility	-10.347
▁thorough	-10.3474
▁1996	-10.3476
acy	-10.3477
▁reserve	-10.3489
▁trees	-10.3493
▁frame	-10.3494
▁recognised	-10.3499
24	-10.3504
ature	-10.3506
▁largely	-10.3507
cut	-10.3509
▁personally	-10.3509
tribu	-10.3513
▁pack	-10.3516
▁Instead	-10.3517
LI	-10.3518
▁bars	-10.3524
45	-10.3527
▁op	-10.3527
get	-10.3531
▁react	-10.3531
▁units	-10.3532
▁Institute	-10.3533
▁(1	-10.3534
▁cold	-10.3535
▁Cuba	-10.3537
▁wo	-10.3541
▁involvement	-10.3545
▁happening	-10.3548
known	-10.3554
clo	-10.3555
ों	-10.356
▁planet	-10.356
▁Charter	-10.3561
▁extreme	-10.3562
▁classic	-10.3562
class	-10.3577
▁sit	-10.3581
▁fly	-10.3581
titu	-10.3583
36	-10.3583
▁streets	-10.3588
▁sleep	-10.3593
▁meat	-10.3595
bon	-10.3597
▁Munich	-10.3598
elle	-10.3598
pping	-10.3599
eration	-10.3599
▁description	-10.3599
ison	-10.36
▁confirmed	-10.3606
▁versions	-10.3612
▁Medi	-10.3612
mil	-10.3613
nia	-10.3614
▁bridge	-10.3615
▁treaty	-10.3616
▁diseases	-10.3617
▁chi	-10.3623
▁festival	-10.3626
▁Game	-10.3629
▁faced	-10.3634
▁White	-10.3637
▁fulfill	-10.3643
▁sauna	-10.3644
HO	-10.3649
▁combating	-10.3653
▁Google	-10.3654
▁describe	-10.3657
▁ignore	-10.3659
ama	-10.3662
▁requirement	-10.3663
▁opt	-10.3668
▁Count	-10.3671
▁Fran	-10.3679
▁weather	-10.3686
EA	-10.3686
▁grand	-10.3688
▁objects	-10.3689
▁temporary	-10.3694
▁obtained	-10.3702
33	-10.3703
68	-10.3704
▁Hel	-10.3705
var	-10.3706
▁excessive	-10.3711
▁panel	-10.3714
▁Swedish	-10.3714
▁Black	-10.3714
▁realise	-10.3714
pol	-10.3715
▁strategies	-10.3716
▁complement	-10.3724
under	-10.3725
▁helped	-10.3725
▁exists	-10.3728
try	-10.3729
▁Private	-10.3731
hof	-10.3733
late	-10.3737
dro	-10.3738
▁familiar	-10.3738
De	-10.3739
▁Kar	-10.3745
▁leaving	-10.3747
eng	-10.3748
▁happens	-10.3749
▁equally	-10.3751
▁Belarus	-10.3758
gna	-10.3759
▁remote	-10.3762
▁discovered	-10.3764
▁fat	-10.3765
▁Frankfurt	-10.3769
▁Last	-10.3769
▁Sub	-10.3772
▁advantages	-10.3778
bert	-10.3781
▁incentive	-10.3782
23	-10.3785
▁Em	-10.3787
▁protecting	-10.3791
▁Will	-10.3792
▁automatic	-10.3792
▁articles	-10.3801
ib	-10.3802
▁apparent	-10.3804
▁Strategy	-10.3813
▁manual	-10.3814
▁script	-10.3816
▁Foundation	-10.382
▁fantastic	-10.382
▁liberalisation	-10.3822
38	-10.3822
state	-10.3822
▁trail	-10.3823
▁River	-10.3825
")	-10.3831
▁restrictions	-10.3837
wide	-10.3838
▁weekend	-10.3839
wel	-10.3843
ional	-10.3846
▁hostels	-10.3846
▁removed	-10.3851
▁passengers	-10.3853
br	-10.3856
▁rank	-10.3858
lich	-10.3858
▁lounge	-10.3859
▁involve	-10.3865
▁Good	-10.3866
▁runs	-10.387
▁revenue	-10.3871
▁bedrooms	-10.3874
▁Safety	-10.3876
▁Pan	-10.3889
▁parliament	-10.3895
▁recommendation	-10.3896
meter	-10.3896
▁privilege	-10.3903
04	-10.3907
▁Japanese	-10.3908
▁Procedure	-10.3909
▁except	-10.3912
mate	-10.3915
▁bound	-10.3916
▁pan	-10.3916
▁situations	-10.3926
itation	-10.3929
▁reinforce	-10.393
▁firstly	-10.3932
▁awareness	-10.3935
▁negotiate	-10.3939
▁kill	-10.394
▁Saint	-10.3941
▁configuration	-10.395
▁Financial	-10.3952
37	-10.3954
▁sail	-10.3959
▁transform	-10.396
▁Monetary	-10.3961
DS	-10.3964
▁fighting	-10.3965
▁bike	-10.3967
▁quote	-10.3971
▁uses	-10.3972
SI	-10.3974
▁replace	-10.3975
body	-10.3977
ने	-10.3977
▁arrest	-10.3979
▁girl	-10.3979
▁handling	-10.398
▁bedroom	-10.398
▁Pakistan	-10.3982
▁abroad	-10.3982
▁faith	-10.3988
▁argue	-10.3996
34	-10.4001
St	-10.4003
▁Welcome	-10.4004
right	-10.4005
▁clause	-10.4014
ique	-10.4015
tig	-10.4017
39	-10.4019
▁covers	-10.4024
▁remaining	-10.4024
▁domain	-10.4025
▁tro	-10.4043
▁requests	-10.4046
TH	-10.4046
▁Alliance	-10.4047
▁commission	-10.4049
rist	-10.4049
▁decisive	-10.405
ulated	-10.405
dem	-10.405
▁prohibit	-10.4057
▁healthy	-10.4068
▁NATO	-10.407
▁villa	-10.4074
ances	-10.4078
▁layer	-10.4081
▁Street	-10.4084
▁withdraw	-10.4085
▁Bay	-10.4094
▁tests	-10.4099
▁pattern	-10.41
▁precise	-10.4102
▁Pla	-10.4106
▁earth	-10.4107
▁wave	-10.4117
▁gap	-10.4131
load	-10.4132
▁eyes	-10.4136
made	-10.4136
▁organizations	-10.4142
train	-10.4145
▁solid	-10.4153
dal	-10.4154
▁officials	-10.4154
▁Mal	-10.4161
▁characteristics	-10.4162
ancy	-10.4162
▁explanation	-10.4176
▁transition	-10.4181
▁ethnic	-10.4185
udi	-10.4185
rid	-10.4189
▁nine	-10.4192
▁experiment	-10.4192
▁abandon	-10.4192
▁Serbia	-10.4192
▁operational	-10.4193
ira	-10.4193
▁brief	-10.4195
▁Pen	-10.4196
▁Church	-10.4197
▁govern	-10.4198
▁Old	-10.4198
05	-10.4201
▁inflation	-10.4201
▁Best	-10.4203
▁Report	-10.4205
lie	-10.4207
▁serves	-10.4208
▁edge	-10.421
life	-10.4211
▁35	-10.4213
related	-10.4219
▁representation	-10.4222
▁migration	-10.4224
rating	-10.4233
▁gender	-10.4236
▁VI	-10.4236
▁spoke	-10.4241
▁generate	-10.4242
▁severe	-10.4244
ential	-10.4245
FA	-10.4249
▁witness	-10.425
ika	-10.4255
▁issued	-10.4255
▁investors	-10.4256
▁Mari	-10.4257
▁regulatory	-10.4261
▁MEPs	-10.4268
▁religion	-10.4268
▁supposed	-10.4273
▁returned	-10.4278
▁tours	-10.4288
▁sheet	-10.429
▁Ladies	-10.4304
▁maintained	-10.4305
▁accurate	-10.4315
▁Nice	-10.4321
▁MA	-10.4323
▁radical	-10.4323
▁ticket	-10.4328
▁Law	-10.4328
▁ultimately	-10.4329
ancing	-10.4329
4-0	-10.4331
fort	-10.4332
▁reserves	-10.4344
▁transportation	-10.4346
bed	-10.4349
▁gone	-10.435
▁expansion	-10.4353
▁branch	-10.4356
86	-10.4358
▁repair	-10.4362
▁User	-10.4366
85	-10.4369
▁construct	-10.4372
cel	-10.4376
▁Through	-10.4378
▁boost	-10.4379
▁Power	-10.4382
▁fleet	-10.4383
ENT	-10.4385
▁mit	-10.4386
▁eliminate	-10.439
▁regularly	-10.4392
vor	-10.4395
▁upgrade	-10.4397
▁interpretation	-10.4398
▁conducted	-10.4399
ball	-10.4409
▁exit	-10.4411
▁stations	-10.4415
95	-10.4415
▁Peter	-10.4417
▁Ministers	-10.442
▁depends	-10.442
▁Polish	-10.4423
▁northern	-10.4423
▁websites	-10.4426
▁OF	-10.443
▁Hall	-10.4431
://	-10.4431
▁150	-10.4432
▁doesn	-10.4433
cat	-10.4437
▁east	-10.4439
▁Cyprus	-10.444
ua	-10.4441
pass	-10.4445
▁Their	-10.4448
▁contributions	-10.4451
scale	-10.4452
▁stream	-10.4454
▁studio	-10.4454
▁decline	-10.4454
ava	-10.4457
▁minority	-10.4458
▁collaboration	-10.4461
▁scan	-10.4463
commun	-10.4463
▁Luxembourg	-10.4464
55	-10.4466
▁properties	-10.4467
-1	-10.4468
▁expert	-10.4471
▁faster	-10.4475
▁Mag	-10.4479
active	-10.4493
▁Sil	-10.4497
▁dog	-10.4497
▁electricity	-10.4503
06	-10.4505
▁Non	-10.4506
▁Martin	-10.4506
▁hundreds	-10.4506
▁somewhat	-10.4509
▁smooth	-10.4509
▁performed	-10.4509
vid	-10.4511
tiva	-10.4511
une	-10.4513
rri	-10.4519
▁entrance	-10.4521
CC	-10.4521
▁pal	-10.4524
▁dead	-10.4525
▁ought	-10.453
▁Ser	-10.4532
▁afternoon	-10.4535
▁succeed	-10.4541
hotel	-10.4543
pot	-10.4544
▁visual	-10.4545
▁colon	-10.4547
▁hardware	-10.4547
▁worry	-10.4547
▁Cap	-10.4548
▁frequently	-10.4551
▁dining	-10.4551
▁Garden	-10.4554
gal	-10.4557
▁absolute	-10.4558
▁Vice	-10.4563
▁parents	-10.4563
▁Tre	-10.4568
▁impose	-10.4568
▁catch	-10.4569
▁margin	-10.4574
▁Play	-10.4575
▁grateful	-10.4576
uit	-10.4577
ffi	-10.4578
▁emergency	-10.4578
▁dark	-10.4584
88	-10.4586
▁flag	-10.4587
▁Bon	-10.4589
bro	-10.4592
▁roof	-10.4593
atic	-10.4593
▁Up	-10.4596
▁pillar	-10.4597
ject	-10.46
▁joined	-10.4601
▁Ze	-10.4609
▁Desk	-10.4614
▁contracts	-10.4617
▁driver	-10.4619
▁constitution	-10.4619
▁parliaments	-10.4619
cap	-10.462
▁displayed	-10.462
gram	-10.463
▁artist	-10.4635
list	-10.4635
▁(19	-10.4635
ifies	-10.4636
▁exploit	-10.4638
hal	-10.4643
▁coll	-10.4646
▁amounts	-10.4652
Co	-10.4657
▁bilateral	-10.4658
▁experiences	-10.4664
▁divided	-10.4665
▁pollution	-10.4667
▁subsidies	-10.4667
▁celebrate	-10.467
▁welfare	-10.467
▁Australia	-10.4672
▁paint	-10.4673
▁doctor	-10.4675
▁balcony	-10.468
ground	-10.4682
▁renovated	-10.4684
▁lobby	-10.4687
▁Opera	-10.4693
▁bill	-10.47
▁Ya	-10.4701
lib	-10.4709
water	-10.471
▁courage	-10.4714
▁organized	-10.4722
▁Square	-10.4723
▁discount	-10.473
▁emerging	-10.4733
▁demanding	-10.4735
▁producing	-10.4735
▁Paul	-10.4736
▁Min	-10.4736
▁customs	-10.4741
▁sample	-10.4743
▁Apartment	-10.4746
shi	-10.4748
▁cutting	-10.4749
▁offices	-10.475
▁statistics	-10.4753
▁cash	-10.4758
▁Read	-10.4758
▁widely	-10.4759
▁heritage	-10.4767
▁Friday	-10.4768
ense	-10.4774
▁painting	-10.4775
▁bottom	-10.4777
well	-10.4785
▁channel	-10.4787
power	-10.4798
tti	-10.4798
AD	-10.48
▁meant	-10.48
▁drug	-10.4803
▁Inc	-10.4804
abil	-10.4814
▁surroundings	-10.4816
▁delighted	-10.4819
plan	-10.4822
▁mal	-10.4822
▁charges	-10.4823
tag	-10.4824
▁Enterprise	-10.4827
▁Tro	-10.4827
ata	-10.4827
▁consist	-10.483
▁employ	-10.4838
▁conflicts	-10.4838
▁Para	-10.4838
▁owner	-10.484
mobil	-10.4842
▁Whether	-10.4843
▁referendum	-10.4843
▁walls	-10.4845
▁cooperate	-10.4846
▁proof	-10.4846
▁visible	-10.4848
encies	-10.4854
yl	-10.4865
kin	-10.4866
▁updated	-10.4866
ulator	-10.4867
▁protocol	-10.4868
▁Check	-10.4869
):	-10.4869
▁prison	-10.487
SL	-10.4871
▁murder	-10.4878
▁careful	-10.4882
▁2020	-10.4883
▁warrant	-10.4883
▁inhabitants	-10.489
cade	-10.4897
▁Soviet	-10.4903
▁Set	-10.4908
▁Station	-10.4909
▁Canada	-10.491
tta	-10.4918
▁communications	-10.492
▁Given	-10.492
▁cent	-10.492
▁poll	-10.4928
▁maintaining	-10.493
▁demonstrated	-10.4931
▁techniques	-10.4931
▁magazine	-10.4933
▁understood	-10.4933
▁relaxation	-10.4937
cin	-10.4938
agne	-10.4947
▁assets	-10.495
▁carbon	-10.495
▁Van	-10.4952
▁Nu	-10.4952
▁straight	-10.4957
▁Sc	-10.4959
▁newly	-10.4963
▁percent	-10.4964
▁disappear	-10.4965
▁proved	-10.4971
nov	-10.4974
▁Sunday	-10.4975
▁resistance	-10.4979
▁है	-10.4982
rated	-10.4983
▁Va	-10.4984
▁pop	-10.4996
▁honour	-10.4997
22	-10.4998
▁overcome	-10.4998
cil	-10.5
▁decorated	-10.5004
rom	-10.5004
eller	-10.5007
▁citizen	-10.5007
▁accompanied	-10.5012
▁analyse	-10.5015
▁Portuguese	-10.502
▁focused	-10.502
▁provider	-10.5022
▁Str	-10.5024
▁indicated	-10.5024
test	-10.5025
ography	-10.5031
▁Muslim	-10.5035
▁confront	-10.5036
▁competent	-10.5036
ür	-10.5038
▁corresponding	-10.504
▁Year	-10.5043
▁legitimate	-10.505
ough	-10.5051
pped	-10.5053
▁Site	-10.5055
▁ongoing	-10.5055
▁library	-10.506
▁hostel	-10.5064
play	-10.5064
▁delete	-10.5065
date	-10.5067
▁Transport	-10.5069
▁messages	-10.5075
turn	-10.5076
ook	-10.5077
▁ब	-10.5077
44	-10.5078
▁involves	-10.5079
▁Pact	-10.5079
▁solar	-10.5082
▁Second	-10.5083
CA	-10.5085
lly	-10.5089
▁corruption	-10.5093
▁exciting	-10.5093
ivity	-10.5094
▁passenger	-10.5094
▁Ber	-10.5095
ille	-10.5096
arm	-10.5098
▁effectiveness	-10.51
▁comparison	-10.5103
▁Sur	-10.5106
▁Palace	-10.5111
oriented	-10.5111
▁concluded	-10.5115
▁stored	-10.5116
box	-10.5117
▁Baltic	-10.5119
▁wheel	-10.5121
▁में	-10.5123
90	-10.5123
▁await	-10.5126
▁).	-10.5127
▁sugar	-10.5131
▁newspaper	-10.5139
rot	-10.5142
▁rapidly	-10.5146
EX	-10.5147
▁behaviour	-10.5149
▁plastic	-10.5149
nger	-10.5151
▁strike	-10.5151
▁depending	-10.5153
▁appearance	-10.5154
▁sentence	-10.5156
▁»	-10.5156
▁destroy	-10.5158
21	-10.516
▁audit	-10.5162
ament	-10.5165
▁showing	-10.5169
▁tight	-10.5177
▁monument	-10.5179
national	-10.5183
▁Perhaps	-10.5187
▁SMEs	-10.5187
▁Mat	-10.5191
▁1995	-10.5191
▁immigrants	-10.5192
▁prize	-10.5193
▁documentation	-10.5194
where	-10.5195
▁4-	-10.5195
ij	-10.5196
quar	-10.52
▁minorities	-10.5204
▁disk	-10.5209
▁stylish	-10.5213
read	-10.5214
▁Ce	-10.5216
▁distinguish	-10.5218
▁observation	-10.522
▁differ	-10.5221
▁à	-10.5221
▁Protection	-10.5225
▁arm	-10.5231
▁struggle	-10.5233
tric	-10.5234
▁speaker	-10.5235
▁spoken	-10.5238
▁bright	-10.524
▁massage	-10.5242
▁constitutional	-10.5252
▁imposed	-10.5255
▁workshop	-10.5256
▁controlled	-10.5256
avi	-10.526
zer	-10.5261
▁youth	-10.5265
print	-10.5271
ane	-10.5272
haus	-10.5276
▁trafficking	-10.5276
▁sto	-10.5279
▁manufacturer	-10.528
▁consent	-10.5283
▁raw	-10.5284
▁Copenhagen	-10.5287
▁pot	-10.5291
▁input	-10.5291
▁visited	-10.5301
▁finished	-10.5304
▁relative	-10.5311
▁Sim	-10.5311
bur	-10.5313
▁Schengen	-10.5315
▁Georgia	-10.5326
▁hearing	-10.5328
▁metro	-10.5329
▁educational	-10.5333
▁categories	-10.5333
angle	-10.5333
▁channels	-10.5336
▁formula	-10.5338
▁printing	-10.5344
▁replaced	-10.5348
्य	-10.535
▁credibility	-10.5354
▁iron	-10.5355
▁dramatic	-10.537
▁Action	-10.5372
▁imagine	-10.5372
▁Hungarian	-10.538
met	-10.5382
▁firms	-10.5386
media	-10.5386
▁Far	-10.5387
▁possess	-10.5388
▁destruction	-10.5393
stitution	-10.5395
stein	-10.5396
▁spectacular	-10.5396
▁drivers	-10.54
app	-10.54
ob	-10.5401
▁Par	-10.5405
▁incident	-10.5406
now	-10.5408
▁lovely	-10.5421
Applause	-10.5425
SC	-10.5428
Pa	-10.5431
▁follows	-10.5433
▁stronger	-10.5435
▁islands	-10.5443
▁recording	-10.5449
▁sex	-10.5453
▁Apart	-10.5456
▁adopting	-10.5457
▁fitness	-10.5457
▁throw	-10.5458
▁ISO	-10.546
▁facility	-10.5464
▁settle	-10.5465
▁flights	-10.5466
▁centuries	-10.5474
▁awarded	-10.5478
▁Prague	-10.5481
vision	-10.5481
▁reported	-10.5482
▁Santa	-10.5483
fr	-10.5489
▁seeing	-10.549
▁Gran	-10.549
▁Bush	-10.5492
assi	-10.5494
▁fix	-10.5495
▁plate	-10.5496
▁recorded	-10.5498
vit	-10.5502
TS	-10.5502
▁journalist	-10.5505
fold	-10.5506
▁Photo	-10.5509
▁judicial	-10.5511
Mo	-10.5512
▁Suite	-10.5512
▁possibly	-10.5514
▁subsidiarity	-10.5519
▁cosy	-10.5523
▁hundred	-10.554
▁compatible	-10.554
▁lunch	-10.5541
▁TO	-10.5542
▁dan	-10.5542
▁declared	-10.5543
▁milk	-10.5546
▁desired	-10.5549
rian	-10.5553
▁province	-10.5561
▁woman	-10.5564
Po	-10.5571
▁edit	-10.558
▁mount	-10.5584
▁School	-10.5588
▁Who	-10.559
▁visiting	-10.5596
▁Congress	-10.5596
▁plenty	-10.5596
▁heating	-10.5598
▁departure	-10.5599
▁Media	-10.5599
bat	-10.5614
▁prompt	-10.5615
▁Description	-10.5616
▁personnel	-10.5617
▁encouraging	-10.5617
▁eastern	-10.5617
▁MP	-10.5619
▁bomb	-10.563
▁Following	-10.5634
▁Hungary	-10.5636
▁Structural	-10.5636
▁tourists	-10.5636
▁mostly	-10.5639
▁taxation	-10.5641
▁Pra	-10.5642
▁pose	-10.5643
▁Men	-10.5645
▁revision	-10.5649
▁Pack	-10.5651
minute	-10.5656
▁correctly	-10.5656
▁wines	-10.5657
▁transactions	-10.5657
▁communicate	-10.5657
▁containing	-10.5658
▁neighbour	-10.566
▁inclusion	-10.5665
▁usual	-10.5666
▁owners	-10.5669
▁belief	-10.5671
▁magnificent	-10.5673
▁functioning	-10.5675
ranging	-10.5678
▁satisfy	-10.5684
▁identified	-10.5687
cco	-10.5689
▁ice	-10.5699
▁thousand	-10.5705
▁narrow	-10.5706
▁substance	-10.5707
▁realistic	-10.5709
▁Belgium	-10.5711
▁alarm	-10.5712
▁commit	-10.5713
▁boast	-10.5713
▁bug	-10.5714
▁broadcast	-10.5717
▁ein	-10.5721
▁satisfied	-10.5724
quest	-10.5725
▁elsewhere	-10.5725
67	-10.5727
▁component	-10.5732
lement	-10.5732
▁32	-10.5735
▁edition	-10.5739
▁flood	-10.5743
▁winner	-10.5744
▁undertaking	-10.5746
▁uniform	-10.5757
▁tip	-10.5757
▁sending	-10.5764
▁preparing	-10.5765
▁ambition	-10.5768
▁Yes	-10.5769
▁Customer	-10.577
tage	-10.5771
ör	-10.5771
stone	-10.5778
▁respected	-10.578
uv	-10.5782
don	-10.5786
▁adjustment	-10.5786
range	-10.5786
ude	-10.5792
▁eventually	-10.5795
▁lie	-10.5796
tail	-10.5796
Ch	-10.5798
bli	-10.5799
▁Common	-10.5802
nda	-10.5804
▁ste	-10.5804
▁dance	-10.5809
NS	-10.5809
▁partly	-10.5813
▁army	-10.5816
▁occasions	-10.5816
▁appointed	-10.5819
▁artistic	-10.5822
▁textile	-10.5829
▁addresses	-10.5832
▁globalisation	-10.5834
▁plenary	-10.5841
MI	-10.5843
▁housing	-10.5846
▁vulnerable	-10.5849
▁absence	-10.5849
▁sustain	-10.5851
▁bri	-10.5852
▁extraordinary	-10.5852
▁civilian	-10.5858
47	-10.5858
▁Spi	-10.5861
▁suites	-10.5865
CI	-10.5868
▁Cast	-10.5869
▁http	-10.5871
▁bond	-10.5872
▁Within	-10.5872
▁tobacco	-10.5874
▁crimes	-10.5876
cli	-10.5877
▁rising	-10.588
▁predict	-10.5881
▁slightly	-10.5882
▁resolved	-10.5884
▁Mexico	-10.5885
35	-10.5886
▁Town	-10.5889
▁manufacture	-10.5891
▁rain	-10.5891
ía	-10.5895
▁burn	-10.5896
▁Post	-10.5901
vention	-10.5903
▁deadline	-10.5908
▁occupation	-10.5909
▁Super	-10.591
▁undermine	-10.5916
▁Madrid	-10.5917
▁mm	-10.592
▁tickets	-10.5923
▁definitely	-10.5924
level	-10.5924
MP	-10.5933
▁punish	-10.5942
▁sphere	-10.5942
front	-10.595
lim	-10.5953
▁survey	-10.5953
phy	-10.5955
या	-10.5958
▁Thirdly	-10.5959
▁encounter	-10.5961
▁trouble	-10.5961
▁duties	-10.5964
▁trace	-10.5967
▁distributed	-10.5969
Ro	-10.5972
▁virtual	-10.598
▁für	-10.5982
▁certificate	-10.5984
▁Award	-10.5985
vig	-10.599
fil	-10.5995
makers	-10.6
▁diverse	-10.6003
▁adventure	-10.6006
▁proven	-10.6013
▁actively	-10.602
▁inspection	-10.6025
▁routes	-10.6026
▁proposing	-10.6028
▁Without	-10.6028
dra	-10.603
▁suppliers	-10.6033
▁windows	-10.6033
▁functional	-10.6034
▁miles	-10.6036
▁shock	-10.6042
▁Hor	-10.6043
▁Thursday	-10.6045
▁solely	-10.6045
just	-10.6045
▁Among	-10.6048
▁Northern	-10.605
▁Music	-10.6055
▁Indian	-10.6057
but	-10.6058
▁Anti	-10.6058
▁pilot	-10.6059
▁honest	-10.6061
crat	-10.6065
▁authentic	-10.6067
▁liquid	-10.6067
▁Syria	-10.6067
▁observe	-10.6072
Al	-10.6072
▁geo	-10.6082
42	-10.6083
▁maritime	-10.6084
▁warning	-10.6084
▁King	-10.6084
▁habit	-10.6089
rov	-10.609
▁appeared	-10.609
fall	-10.6091
roll	-10.6093
▁gift	-10.6095
▁Sie	-10.6101
▁minor	-10.6102
▁Rule	-10.6103
▁supplies	-10.6106
▁organise	-10.6107
▁Pass	-10.6108
▁calm	-10.6111
▁realize	-10.6115
▁radi	-10.6117
therapy	-10.6118
uck	-10.6118
▁considering	-10.6121
▁fourth	-10.6125
▁nevertheless	-10.6125
िक	-10.6128
▁400	-10.6131
▁Consumer	-10.6131
▁pieces	-10.6131
▁stick	-10.6132
▁Sun	-10.6133
▁Cam	-10.6133
claim	-10.6139
▁chapter	-10.614
▁vary	-10.6142
▁Code	-10.6142
▁defect	-10.6142
▁Ci	-10.6144
▁executive	-10.6145
▁surprise	-10.6146
▁partial	-10.615
▁everyday	-10.6152
▁Spe	-10.6153
VI	-10.6157
▁Ac	-10.6157
▁western	-10.616
some	-10.6161
▁organize	-10.6161
▁Legal	-10.6165
▁decent	-10.6165
▁Page	-10.6166
▁birth	-10.6167
lum	-10.6169
▁supplier	-10.6174
▁packaging	-10.6177
▁Assembly	-10.6179
▁England	-10.6179
▁advocate	-10.6182
sim	-10.6182
mir	-10.6184
▁providers	-10.6185
▁recognize	-10.6185
▁measurement	-10.6193
▁prime	-10.6197
▁labor	-10.6198
space	-10.6198
ambi	-10.6199
mag	-10.6201
▁voluntary	-10.6201
flow	-10.6203
▁correspond	-10.6205
▁suspend	-10.6213
66	-10.6221
▁Festival	-10.6224
duction	-10.6227
▁musical	-10.6227
▁shadow	-10.623
▁VAT	-10.6235
▁hat	-10.6235
▁resource	-10.6236
▁exhibit	-10.6237
▁adults	-10.6237
▁deploy	-10.6238
▁45	-10.6243
▁ज	-10.625
▁variable	-10.6252
itz	-10.6252
▁wrote	-10.6252
▁carrying	-10.6256
▁university	-10.6258
▁luxurious	-10.6264
▁lessons	-10.6266
▁Technology	-10.6269
La	-10.6275
▁capture	-10.6277
lov	-10.6278
▁Monday	-10.6279
—	-10.6282
▁Framework	-10.6284
▁applying	-10.6287
▁crew	-10.6288
▁evaluate	-10.6289
▁attach	-10.6294
▁banking	-10.6298
▁gained	-10.6299
▁tab	-10.6301
▁died	-10.6303
▁height	-10.6307
▁editor	-10.6321
mul	-10.6321
Con	-10.6323
fla	-10.6328
▁generated	-10.633
ulate	-10.6334
Com	-10.6335
▁24-	-10.634
▁shipping	-10.6341
▁Like	-10.6348
▁conditioning	-10.6356
▁Tourism	-10.6357
▁arrived	-10.636
▁Arm	-10.6363
▁philosophy	-10.6364
▁prosperity	-10.6364
▁insert	-10.6365
▁hum	-10.6366
▁satisfaction	-10.6375
▁Tip	-10.6378
▁2011	-10.6379
▁countryside	-10.638
▁Besides	-10.6381
style	-10.6381
▁receiving	-10.6387
▁Beach	-10.6387
east	-10.6387
▁breach	-10.6389
▁federal	-10.639
▁savings	-10.639
NE	-10.639
▁sole	-10.639
▁mine	-10.6396
▁upper	-10.6397
▁tele	-10.6406
cient	-10.6406
▁prop	-10.6408
ante	-10.6422
▁enabling	-10.643
▁seminar	-10.6436
lies	-10.6442
▁formed	-10.6446
▁EADS	-10.6447
▁Royal	-10.6448
▁Women	-10.6449
▁Cri	-10.6451
▁Agriculture	-10.6453
▁suggested	-10.6461
▁Liberal	-10.6465
▁guard	-10.6467
▁transmission	-10.6472
▁sought	-10.6474
▁Hamburg	-10.6476
pat	-10.6477
▁म	-10.6479
▁afford	-10.6479
78	-10.648
▁suggestions	-10.6481
ius	-10.6482
blo	-10.6482
▁patient	-10.6483
ending	-10.6489
▁societies	-10.6491
ami	-10.6499
tec	-10.6502
▁passion	-10.6503
mouth	-10.6504
head	-10.6508
▁invited	-10.651
▁Char	-10.6513
▁difficulty	-10.6514
▁retail	-10.6516
▁cho	-10.6517
▁Ban	-10.6521
▁dependent	-10.6528
32	-10.6545
▁initiate	-10.6545
IR	-10.655
TO	-10.6552
▁permitted	-10.6552
▁confirmation	-10.6558
41	-10.656
1/	-10.6563
▁Having	-10.6564
▁execution	-10.6564
▁female	-10.6564
▁cancer	-10.6566
▁destroyed	-10.6571
▁Main	-10.6571
▁specified	-10.6571
▁casino	-10.6573
▁productivity	-10.6578
▁twenty	-10.6578
▁archive	-10.6582
NO	-10.6586
56	-10.6587
▁Saturday	-10.6593
▁regarded	-10.6595
▁Natural	-10.6596
▁Earth	-10.6599
▁Tru	-10.6606
▁cla	-10.6607
▁PHP	-10.6608
eur	-10.6608
▁ACP	-10.6614
▁greatly	-10.6617
▁obliged	-10.662
ographic	-10.663
▁teaching	-10.6631
▁disabled	-10.6632
cultural	-10.6633
▁killed	-10.6635
▁gear	-10.6636
{	-10.6637
);	-10.664
▁significance	-10.664
500	-10.6642
eva	-10.6649
▁stake	-10.6653
▁comprise	-10.6656
▁Mark	-10.6658
sky	-10.6659
▁Wo	-10.6673
▁Trek	-10.6674
र्	-10.6675
▁standing	-10.6675
▁underline	-10.6676
▁decade	-10.6677
▁resident	-10.6678
▁Islamic	-10.6679
▁Out	-10.668
▁exclusion	-10.6682
▁acting	-10.6689
46	-10.6692
▁Sport	-10.6692
▁negotiating	-10.6694
▁execute	-10.6699
▁Via	-10.6711
▁portfolio	-10.6714
43	-10.672
▁electric	-10.6727
51	-10.6739
NC	-10.6742
–	-10.6743
▁collapse	-10.6747
▁overview	-10.6751
▁Bern	-10.6751
▁supplement	-10.6753
▁approve	-10.6759
▁harmonisation	-10.6759
▁segment	-10.6762
2000	-10.6764
www	-10.6768
▁justified	-10.6769
▁enterprise	-10.6773
▁farming	-10.6782
71	-10.6784
▁principal	-10.6786
▁Secretary	-10.6798
▁delicious	-10.6798
▁recall	-10.6803
▁composition	-10.6805
TER	-10.6807
uous	-10.6808
▁Asian	-10.6811
▁suffered	-10.6814
▁slope	-10.6816
agon	-10.682
▁bonus	-10.6822
via	-10.6825
▁intensive	-10.6828
▁continuous	-10.6829
ace	-10.6832
▁Food	-10.6843
rich	-10.6844
▁theatre	-10.6851
commerce	-10.6852
▁football	-10.6853
▁cal	-10.6858
▁trademark	-10.6861
ün	-10.6861
▁score	-10.6861
▁proceedings	-10.6863
▁Finland	-10.6866
72	-10.6867
▁pure	-10.6868
▁olive	-10.6873
cycl	-10.6874
▁unforgettable	-10.6876
▁renowned	-10.6876
▁Auditors	-10.6882
▁supervision	-10.6883
▁poly	-10.6887
▁remained	-10.6888
▁climb	-10.6898
▁ecological	-10.69
▁complicated	-10.6903
76	-10.6905
phone	-10.6906
DR	-10.6906
▁integrate	-10.6907
Pro	-10.6913
▁parallel	-10.6916
▁contributed	-10.6924
PO	-10.6933
▁romantic	-10.6943
organ	-10.6949
▁magic	-10.6951
▁allocated	-10.6952
gro	-10.6954
▁politically	-10.6956
▁clarify	-10.6961
▁Cat	-10.6965
▁Visit	-10.6966
▁desk	-10.6967
▁icon	-10.6973
▁enjoyed	-10.6974
▁tree	-10.6979
▁eine	-10.6981
▁Barroso	-10.6982
▁geographical	-10.6982
▁Var	-10.6984
anda	-10.6989
▁ka	-10.6991
▁forthcoming	-10.6992
▁disadvantage	-10.6998
▁heading	-10.6999
km	-10.7007
▁surely	-10.7008
▁Strasbourg	-10.7013
▁directory	-10.7013
▁sharp	-10.7013
▁hospital	-10.7014
▁hardly	-10.7018
▁municipal	-10.7019
▁wider	-10.7019
▁Vol	-10.7021
▁legally	-10.7022
scribe	-10.7022
▁Multi	-10.7023
▁recover	-10.7028
cover	-10.7029
▁everybody	-10.703
▁restore	-10.7031
▁barriers	-10.7031
ön	-10.7038
▁Education	-10.7047
▁CA	-10.7047
▁bag	-10.7048
▁logo	-10.7052
▁preventing	-10.7053
friendly	-10.7053
▁SE	-10.7053
▁enabled	-10.7054
▁firmly	-10.7054
▁ordinary	-10.7056
[	-10.7057
▁instructions	-10.7058
terior	-10.706
▁recognized	-10.7061
▁1994	-10.7062
▁appointment	-10.7066
▁Golf	-10.7069
▁index	-10.707
▁covering	-10.7072
87	-10.7076
▁Stability	-10.7077
▁introducing	-10.7081
▁tennis	-10.7081
▁skiing	-10.7092
Facilities	-10.7093
▁Obama	-10.7103
án	-10.7106
▁fur	-10.7108
▁sad	-10.7112
▁lock	-10.7113
▁missing	-10.7114
▁paying	-10.7115
▁restructuring	-10.7118
▁designer	-10.7119
▁sustainability	-10.7128
▁excursion	-10.7136
▁welcomed	-10.7138
park	-10.7138
▁crop	-10.7147
▁Jan	-10.7148
▁tailor	-10.7152
MB	-10.7155
▁Ob	-10.7163
}}	-10.7164
▁Situate	-10.7168
▁directed	-10.7171
69	-10.7177
▁whereas	-10.7181
▁qualification	-10.7186
▁Should	-10.7189
▁Express	-10.7191
mbo	-10.7192
2001	-10.7195
▁escape	-10.7198
▁programming	-10.7199
▁virus	-10.7201
▁didn	-10.7201
▁Albania	-10.7202
▁ceiling	-10.7205
stream	-10.7206
▁Dia	-10.7209
▁obstacles	-10.7217
▁sharing	-10.7221
▁Michael	-10.7227
cycle	-10.723
▁Organisation	-10.7233
▁considerably	-10.724
▁universities	-10.7242
▁Additional	-10.7246
▁ECB	-10.7252
▁reflected	-10.7253
NT	-10.7257
▁ECU	-10.7263
▁interview	-10.7264
▁Atlantic	-10.7264
unk	-10.7265
▁parameters	-10.7265
▁explained	-10.7276
77	-10.7276
▁Federation	-10.728
President	-10.7284
ologi	-10.7284
▁vessels	-10.7289
▁arch	-10.7292
▁originally	-10.7293
wood	-10.7296
▁indicator	-10.7296
▁#	-10.7299
▁Tibet	-10.7306
vy	-10.7309
▁fabric	-10.7312
▁dignity	-10.7318
▁equivalent	-10.7318
▁undoubtedly	-10.7321
▁compact	-10.7326
▁collected	-10.7334
ffe	-10.7338
▁alcohol	-10.7343
▁{{	-10.7346
▁Gro	-10.7348
▁hospitality	-10.7348
▁की	-10.735
▁audience	-10.7353
vice	-10.7356
▁gallery	-10.7362
▁saved	-10.7368
▁tension	-10.7369
▁regardless	-10.7372
▁cleaning	-10.7372
cie	-10.7372
▁welcoming	-10.7381
▁preference	-10.7385
▁Arch	-10.7391
▁organic	-10.7391
▁enhanced	-10.7393
▁wellness	-10.7394
▁sovereignty	-10.7399
▁functionality	-10.7406
code	-10.7413
▁distinct	-10.7415
▁Fra	-10.7433
▁acceptance	-10.7436
rage	-10.7438
▁superior	-10.7439
▁Regional	-10.7444
▁penalty	-10.7451
▁folder	-10.7455
▁Land	-10.7457
▁sensor	-10.7458
▁turning	-10.7461
▁exploitation	-10.7462
▁losses	-10.7462
▁amazing	-10.7464
▁lend	-10.7469
nik	-10.747
▁Deutsche	-10.7471
▁classes	-10.7471
▁none	-10.7476
▁Does	-10.7483
▁subsequent	-10.749
▁showed	-10.749
▁Valley	-10.7491
▁wir	-10.7492
▁multilateral	-10.7493
▁labelling	-10.7494
54	-10.75
▁Geneva	-10.7503
27	-10.7504
standing	-10.7505
▁exact	-10.7514
HA	-10.7516
▁excluded	-10.7517
halt	-10.752
▁Personal	-10.7522
▁managing	-10.7524
▁Eco	-10.753
▁Hy	-10.753
ello	-10.753
▁charm	-10.753
ault	-10.7532
▁novel	-10.7537
▁reward	-10.7541
▁कर	-10.755
▁Culture	-10.7551
▁taxi	-10.7552
▁pu	-10.7553
▁demonstration	-10.7554
▁worst	-10.7558
▁Water	-10.756
▁united	-10.7562
▁adapted	-10.7563
79	-10.7564
▁indication	-10.7568
▁Casino	-10.758
▁Network	-10.7581
ente	-10.7583
▁reconstruction	-10.7585
▁transferred	-10.7588
▁Balkans	-10.759
▁applicant	-10.7593
ception	-10.7595
▁Online	-10.7595
▁50%	-10.7597
▁saving	-10.7597
NL	-10.7597
▁permission	-10.7602
▁wireless	-10.7603
holder	-10.7604
▁craft	-10.7611
▁carrier	-10.7613
ée	-10.7622
zza	-10.7623
gging	-10.7623
ज	-10.7626
vil	-10.7629
▁reaching	-10.763
▁Shop	-10.7634
▁prevail	-10.7636
73	-10.7639
LAN	-10.7641
OM	-10.7646
▁delight	-10.7647
▁soul	-10.7652
▁Project	-10.766
AV	-10.7672
▁Palm	-10.7681
▁talent	-10.7686
BO	-10.7687
▁100%	-10.7691
▁licence	-10.7691
▁timetable	-10.7695
▁undertaken	-10.7703
ार	-10.7709
▁refuse	-10.7721
▁Add	-10.7727
▁USB	-10.7727
▁travelling	-10.773
▁mental	-10.773
▁filled	-10.7732
lio	-10.7733
▁PPE	-10.7734
▁Bru	-10.7734
▁20%	-10.7735
▁restored	-10.7736
▁NI	-10.774
▁1980	-10.7742
▁concentration	-10.7754
▁semi	-10.7754
▁Player	-10.7756
▁strengthened	-10.7762
ville	-10.7763
59	-10.7764
▁reputation	-10.7767
▁coordinated	-10.7774
▁peak	-10.7777
▁creature	-10.7777
▁Islam	-10.778
▁Venice	-10.7783
vie	-10.7784
▁fishermen	-10.7787
▁Slovenia	-10.779
▁Resort	-10.779
▁reliability	-10.7793
course	-10.7794
▁amenities	-10.7797
field	-10.7798
tile	-10.7801
▁signature	-10.7805
▁vegetable	-10.7806
kov	-10.781
▁selling	-10.7812
▁portal	-10.7821
▁thermal	-10.7821
्र	-10.7822
▁engage	-10.7823
▁Agenda	-10.7823
▁supplied	-10.7826
road	-10.7827
▁compete	-10.7828
▁tested	-10.783
▁deeply	-10.7833
▁soil	-10.7841
▁Castle	-10.7842
▁learned	-10.7848
etch	-10.785
bot	-10.7851
▁estimate	-10.7853
▁percentage	-10.7856
▁Tele	-10.7856
▁consulting	-10.7856
▁neighbor	-10.786
▁Next	-10.786
▁Wall	-10.7862
▁Mountain	-10.7866
▁column	-10.7866
▁Christmas	-10.7877
▁Java	-10.788
▁Robert	-10.788
ता	-10.7881
▁necessarily	-10.7883
74	-10.7884
▁persist	-10.7886
▁tank	-10.7891
▁hydro	-10.7893
▁critic	-10.79
▁Access	-10.79
▁Start	-10.7904
UT	-10.7905
▁stretch	-10.791
▁pur	-10.791
Tech	-10.7912
▁Life	-10.7913
28	-10.7913
▁grave	-10.7913
▁pull	-10.7913
RC	-10.7914
metric	-10.7916
▁anywhere	-10.7918
▁Civil	-10.7927
No	-10.7932
link	-10.7933
Le	-10.7935
▁Standard	-10.7937
▁judgment	-10.7947
▁sponsor	-10.7947
▁unfair	-10.7947
▁diplomatic	-10.7949
▁sky	-10.7967
▁disagree	-10.7967
▁determination	-10.7968
▁activate	-10.7972
▁briefly	-10.798
PC	-10.7982
IG	-10.7983
▁Belgian	-10.7984
▁Support	-10.7984
82	-10.7986
▁bearing	-10.7986
▁lit	-10.7987
▁student	-10.7994
▁pet	-10.7996
▁Executive	-10.8001
▁limitation	-10.8002
▁Mus	-10.8004
▁king	-10.8005
▁Angel	-10.8007
cio	-10.8008
▁everywhere	-10.8012
▁neighbouring	-10.8013
lung	-10.8034
▁assembly	-10.8035
country	-10.8037
▁picturesque	-10.8045
▁PDF	-10.8045
▁View	-10.8045
▁anniversary	-10.8052
29	-10.8061
▁sensible	-10.8062
▁convey	-10.8069
▁CAP	-10.8069
26	-10.8069
▁panoramic	-10.8072
▁Denmark	-10.8072
▁hiking	-10.8074
cion	-10.8077
▁mill	-10.8081
▁mirror	-10.8086
▁targeted	-10.809
▁toilet	-10.809
57	-10.809
▁consequence	-10.8096
▁listings	-10.8101
▁cabin	-10.8103
▁engaged	-10.8113
Lo	-10.8113
▁Have	-10.8113
▁rational	-10.8118
▁AND	-10.812
▁appropriations	-10.8123
▁phenomenon	-10.8137
▁gro	-10.8138
▁scar	-10.8142
▁10%	-10.8143
cast	-10.8145
▁arising	-10.815
▁Consequently	-10.8151
▁plain	-10.8153
▁varied	-10.8158
▁Team	-10.8158
▁Select	-10.8161
hard	-10.8162
▁Bad	-10.8163
▁weaken	-10.8179
▁pretty	-10.8182
▁rating	-10.8186
▁lived	-10.8186
58	-10.8186
▁household	-10.8189
▁Christ	-10.8194
▁jurisdiction	-10.8195
▁render	-10.8208
▁Protocol	-10.8209
84	-10.8211
▁occurred	-10.8212
TI	-10.8221
▁enforce	-10.8222
▁Monte	-10.8233
▁Exc	-10.8235
()	-10.8235
▁Maria	-10.8235
▁kernel	-10.8247
▁NGOs	-10.8247
▁referring	-10.8256
▁native	-10.8257
Image	-10.8258
▁promised	-10.826
leg	-10.8269
▁catalogue	-10.8272
▁motorway	-10.8278
▁Science	-10.8285
▁George	-10.8292
born	-10.8296
▁examination	-10.8299
▁optimal	-10.8299
81	-10.8304
▁indoor	-10.8305
▁urgently	-10.8309
▁factory	-10.8312
connect	-10.8312
▁calculate	-10.8324
▁diploma	-10.8325
rink	-10.8326
▁eurozone	-10.8331
▁Sam	-10.8331
General	-10.8334
key	-10.8334
▁tranquil	-10.8334
▁partition	-10.8335
▁usage	-10.8351
▁III	-10.8356
▁Master	-10.8357
▁consolidate	-10.8359
▁territorial	-10.8359
▁twice	-10.8359
char	-10.836
▁discipline	-10.8373
3%	-10.8373
▁stuff	-10.8382
2010	-10.8383
▁individually	-10.8384
ifying	-10.8386
52	-10.8389
TC	-10.839
▁Ombudsman	-10.8394
▁widespread	-10.8394
▁fairly	-10.8395
▁scientists	-10.8397
which	-10.8401
▁liable	-10.8404
▁cancellation	-10.8405
▁normally	-10.8407
▁investigate	-10.8408
▁underground	-10.8408
▁Mess	-10.8412
▁kit	-10.8413
▁taxpayer	-10.8415
▁gradually	-10.8424
▁causing	-10.8429
▁Family	-10.8436
▁spell	-10.8437
▁succeeded	-10.8437
telli	-10.8437
▁Exchange	-10.844
▁till	-10.8444
viv	-10.8452
▁efficiently	-10.8453
▁coherent	-10.8454
ब	-10.8461
▁Lastly	-10.8462
▁operator	-10.8468
pra	-10.8471
west	-10.8471
▁bottle	-10.8471
path	-10.8474
▁stunning	-10.8475
▁Manager	-10.8479
Star	-10.8481
▁terminal	-10.8486
▁essentially	-10.849
▁Would	-10.8493
▁troops	-10.8493
▁strictly	-10.8494
▁intelligent	-10.8496
▁Bosnia	-10.8496
▁boy	-10.8502
gger	-10.8503
$	-10.8505
case	-10.8506
▁sudden	-10.8511
▁IMF	-10.8514
▁undertake	-10.8519
▁adult	-10.8521
▁Luc	-10.8522
▁conventional	-10.8525
▁Four	-10.8531
▁producer	-10.8533
▁incorporated	-10.8537
▁kilometres	-10.8539
▁newsletter	-10.8539
aire	-10.8541
EU	-10.8543
▁highlighted	-10.8546
▁acquired	-10.8548
▁overlooking	-10.8549
▁>	-10.855
▁depth	-10.8553
▁Look	-10.8555
▁coin	-10.8558
UN	-10.8559
▁hole	-10.856
▁consequent	-10.8568
▁sophisticated	-10.8568
▁Putin	-10.8574
▁1992	-10.8575
▁admit	-10.8581
▁virtually	-10.8583
▁Milan	-10.8583
▁winning	-10.8585
stand	-10.8592
▁extract	-10.8597
▁reserved	-10.8597
▁Ram	-10.8598
bul	-10.8599
▁evident	-10.86
▁printed	-10.8603
▁schedule	-10.8606
▁Travel	-10.8614
dorf	-10.8619
▁oldest	-10.8621
▁declare	-10.8624
83	-10.8633
▁layout	-10.8635
▁pin	-10.8636
▁blind	-10.8639
PR	-10.864
▁prisoners	-10.8649
▁cease	-10.8649
▁coordinate	-10.8651
▁feet	-10.8652
▁bay	-10.8654
heim	-10.8658
▁clinic	-10.8659
▁brother	-10.8661
▁Representative	-10.8665
▁circle	-10.8672
▁Rotary	-10.8672
▁ease	-10.8673
word	-10.8675
▁survive	-10.8676
pit	-10.8679
▁Industry	-10.8683
face	-10.8687
▁Make	-10.8687
▁Fundamental	-10.869
▁Holiday	-10.869
▁hence	-10.8697
▁mouse	-10.8698
▁Poker	-10.8698
Find	-10.87
▁agents	-10.8703
▁fault	-10.8708
▁convenience	-10.8712
▁Forum	-10.8713
▁participating	-10.8715
▁Further	-10.8715
▁champion	-10.8715
session	-10.872
plication	-10.8726
▁Studio	-10.873
▁Full	-10.8732
▁Meeting	-10.8734
▁को	-10.8734
▁Gre	-10.8734
▁Treaties	-10.8737
▁chairman	-10.8738
▁armed	-10.8739
market	-10.874
▁David	-10.8743
▁cancel	-10.8743
▁modify	-10.8745
▁shuttle	-10.8745
▁endeavour	-10.8748
▁divide	-10.8749
▁Cooperation	-10.8749
text	-10.8755
▁alongside	-10.8758
▁raising	-10.8758
▁encouraged	-10.8758
▁Stra	-10.8763
▁aviation	-10.8763
62	-10.8774
▁convergence	-10.8777
▁harmful	-10.8781
▁Constitutional	-10.8788
▁Pol	-10.8792
OP	-10.8793
▁Olympic	-10.8796
▁confidential	-10.8797
lent	-10.8798
▁Find	-10.8799
▁crises	-10.8799
▁Using	-10.88
▁defeat	-10.88
▁environmentally	-10.8819
}	-10.8821
TV	-10.8823
▁Test	-10.8832
▁calendar	-10.8832
▁pour	-10.8835
▁observed	-10.8835
▁shot	-10.8836
»	-10.8836
▁announce	-10.884
▁donor	-10.8841
enburg	-10.8842
▁grown	-10.8847
▁से	-10.8849
▁superb	-10.8853
▁utmost	-10.8862
izer	-10.8862
▁restricted	-10.8865
▁contextual	-10.8868
▁victory	-10.8869
system	-10.8869
▁JavaScript	-10.8873
▁assurance	-10.8873
▁purely	-10.8875
▁attached	-10.8876
▁fax	-10.8888
▁Danish	-10.8895
▁Jean	-10.8898
▁estimated	-10.8898
▁capabilities	-10.8899
▁premium	-10.8899
flex	-10.8906
▁abolish	-10.8906
▁stem	-10.8915
▁spite	-10.8916
vic	-10.8919
▁plug	-10.8921
▁Lithuania	-10.8925
▁serving	-10.8927
▁simplify	-10.8928
▁Net	-10.8936
▁inadequate	-10.8936
German	-10.8937
TR	-10.8939
break	-10.8948
▁surprised	-10.8949
▁implications	-10.8954
▁pump	-10.8964
▁Dublin	-10.898
▁250	-10.8997
▁subscribe	-10.8998
atur	-10.8998
cogn	-10.8999
▁oppose	-10.9
▁hidden	-10.901
▁specialized	-10.9014
▁Server	-10.9021
▁Live	-10.9027
▁negotiation	-10.9029
▁smart	-10.9033
63	-10.9036
▁approx	-10.9037
▁breath	-10.9037
▁merge	-10.9038
31	-10.9054
▁accommodate	-10.9055
▁Prodi	-10.9058
▁hunt	-10.9058
▁Slovakia	-10.9058
▁modification	-10.9059
1%	-10.906
▁Fri	-10.9066
▁wooden	-10.9073
trans	-10.9074
▁stories	-10.908
▁thumbnail	-10.9082
▁configure	-10.91
▁Kong	-10.9101
▁ultra	-10.9101
▁ruling	-10.911
▁inspired	-10.9113
53	-10.9118
▁electrical	-10.912
▁finger	-10.913
61	-10.9135
▁compliment	-10.9142
▁scenario	-10.9142
mount	-10.9143
count	-10.9146
▁initially	-10.9146
▁attribute	-10.9147
▁Again	-10.915
▁democrat	-10.9154
astic	-10.9159
▁behavior	-10.9161
▁Video	-10.9162
▁Max	-10.9169
▁PRO	-10.9175
▁emphasize	-10.9176
2%	-10.9182
ische	-10.9197
▁tragic	-10.92
gno	-10.9206
▁Bio	-10.9207
Smoking	-10.9207
▁sufficiently	-10.921
▁ratification	-10.921
▁lawyer	-10.9211
▁Ten	-10.9212
iger	-10.9231
▁refuge	-10.9233
▁chat	-10.9236
▁dialog	-10.9236
▁refine	-10.924
▁blame	-10.9246
100	-10.9249
▁medieval	-10.9249
▁infringement	-10.9249
ibly	-10.9256
▁assigned	-10.9257
वा	-10.9261
▁Place	-10.9263
▁exhaust	-10.9264
▁Ski	-10.9265
▁sweet	-10.9268
▁shore	-10.9268
▁Terms	-10.927
▁episode	-10.9276
▁Flor	-10.9279
▁Subject	-10.928
bach	-10.9286
▁approaches	-10.9286
▁Based	-10.9287
0.00	-10.9289
▁refund	-10.9299
▁Cup	-10.9299
▁Tyrol	-10.931
▁neo	-10.9311
▁poorest	-10.9312
▁characteristic	-10.9314
▁academic	-10.9314
economic	-10.9314
▁Poli	-10.9318
▁decor	-10.9319
▁classical	-10.9323
▁developers	-10.9327
▁1993	-10.9329
▁studied	-10.9329
▁informal	-10.9331
▁decrease	-10.9333
▁postpone	-10.9347
▁accompany	-10.9349
▁split	-10.9353
▁incorporate	-10.9355
▁intervene	-10.9362
▁writer	-10.9363
▁Region	-10.9365
▁reflection	-10.9368
▁crystal	-10.9368
▁amended	-10.9368
▁whereby	-10.9374
▁empty	-10.938
▁sovereign	-10.9382
▁meaningfully	-10.9385
post	-10.9387
▁Hong	-10.9388
▁assert	-10.9391
▁governing	-10.9397
▁navigation	-10.9399
▁abstain	-10.9399
▁Ltd	-10.94
▁unusual	-10.9403
proof	-10.9404
▁specify	-10.9406
▁Program	-10.9408
▁surprising	-10.9411
▁acquisition	-10.9411
jan	-10.9413
▁logic	-10.9414
▁trigger	-10.9415
▁enforcement	-10.9419
▁Fisheries	-10.9423
▁splendid	-10.9423
▁legitimacy	-10.9426
▁remarkable	-10.9434
▁Download	-10.9438
▁Internal	-10.9439
▁Employment	-10.9442
▁ingredients	-10.9442
▁repeated	-10.9443
▁dé	-10.9457
▁Mass	-10.9458
▁guided	-10.9459
ROM	-10.9461
▁chief	-10.9463
▁प्र	-10.9466
▁gross	-10.9474
▁resume	-10.9488
grammatically	-10.9489
▁architect	-10.9495
▁thick	-10.9497
▁satisfactory	-10.9505
▁illustrate	-10.9513
▁technique	-10.9514
▁steam	-10.9518
▁Show	-10.9519
▁edited	-10.952
▁progressive	-10.9523
▁yield	-10.9524
▁logical	-10.9531
▁urgency	-10.9532
ना	-10.9539
▁favor	-10.9545
▁scheduled	-10.9553
ounce	-10.9554
control	-10.9556
▁ratio	-10.9557
▁Children	-10.9564
▁bought	-10.9564
▁spare	-10.9567
▁ultimate	-10.9569
▁Authority	-10.957
▁generous	-10.9572
▁harmonise	-10.9576
▁tournament	-10.9584
▁Three	-10.9584
▁employed	-10.9586
▁rubber	-10.9588
▁contextually	-10.9592
▁distinction	-10.9593
▁actors	-10.96
▁compulsory	-10.9604
▁Indonesia	-10.9607
▁Box	-10.961
including	-10.9614
▁formation	-10.9621
▁accomplish	-10.9627
▁reader	-10.9628
▁Mit	-10.9633
▁begun	-10.9636
▁underlying	-10.9646
▁opponent	-10.9655
▁certification	-10.9659
än	-10.9662
FT	-10.9664
▁repeatedly	-10.9667
▁conciliation	-10.9667
▁Shar	-10.968
▁desktop	-10.9684
▁reiterate	-10.9691
▁Blue	-10.9692
▁moreover	-10.9695
▁calculation	-10.9703
▁array	-10.9708
▁strange	-10.9714
▁completion	-10.9715
▁Wednesday	-10.9719
effective	-10.9723
▁envisage	-10.9723
▁institute	-10.9723
क्	-10.9724
▁refresh	-10.9727
▁Jewish	-10.9743
▁transaction	-10.9748
▁marine	-10.9749
▁Guide	-10.9749
▁preferred	-10.9751
▁exposed	-10.9756
▁debating	-10.9756
▁codecision	-10.976
wind	-10.9761
▁pace	-10.9764
▁productive	-10.9765
▁translated	-10.9771
▁foremost	-10.9772
hour	-10.9774
DF	-10.9778
▁genuinely	-10.9783
▁Kyoto	-10.9788
▁threshold	-10.9788
▁profession	-10.9793
rou	-10.9793
▁broken	-10.9795
▁overlook	-10.9797
▁Department	-10.9804
▁ethical	-10.9804
▁reverse	-10.9806
▁allocation	-10.9808
▁fascinating	-10.9812
▁Area	-10.9814
▁foster	-10.9817
everal	-10.9826
▁willingness	-10.9827
▁unnecessary	-10.9836
▁Quality	-10.9841
▁Florence	-10.9847
▁Hostel	-10.9855
▁Neu	-10.9856
▁Qua	-10.986
▁Dra	-10.986
▁forecast	-10.9861
▁economically	-10.9861
▁favourable	-10.9863
▁twin	-10.9867
(2)	-10.9868
▁venue	-10.9873
▁coastal	-10.9876
▁suspect	-10.9883
▁blow	-10.9884
function	-10.9886
▁adhere	-10.9889
▁Skype	-10.9893
▁freight	-10.9893
▁refused	-10.9898
▁subsequently	-10.9898
▁cinema	-10.9898
▁Section	-10.9903
▁Fair	-10.9904
tergovernmental	-10.9909
aya	-10.991
▁autumn	-10.9914
▁baby	-10.9918
▁secondary	-10.9922
▁conversion	-10.9922
▁luck	-10.9924
▁clock	-10.9934
▁chip	-10.9938
▁120	-10.9951
▁shoe	-10.9951
▁frequent	-10.9953
▁maybe	-10.9953
▁Casa	-10.9954
▁irre	-10.9958
▁speeches	-10.9963
GO	-10.9966
▁Academy	-10.9967
▁$1	-10.997
schaft	-10.9984
89	-10.9987
RT	-10.9987
▁External	-10.9988
▁Left	-10.9994
enberg	-10.9996
▁fell	-11.0002
OW	-11.0007
▁Together	-11.0009
▁wife	-11.0017
▁openness	-11.0018
pack	-11.0021
▁insufficient	-11.0021
▁neighbourhood	-11.003
▁residential	-11.004
▁optimize	-11.0042
2009	-11.0047
▁whi	-11.0049
▁Ministry	-11.005
▁torture	-11.006
▁2.0	-11.0064
▁stipulat	-11.0067
▁drag	-11.0078
▁vocational	-11.0087
source	-11.009
public	-11.0095
▁favourite	-11.0104
▁removal	-11.0108
▁instantly	-11.0111
▁mechanical	-11.0112
lecommunications	-11.0114
▁violate	-11.0117
▁sorry	-11.0118
▁strip	-11.012
isse	-11.0127
▁simultaneously	-11.0137
▁tragedy	-11.0137
92	-11.0141
▁Investment	-11.0142
▁arrange	-11.0142
vir	-11.0145
UL	-11.0147
▁कि	-11.0151
▁ownership	-11.0152
▁Plaza	-11.0156
▁Road	-11.0158
▁devoted	-11.0163
▁amending	-11.0167
▁alliance	-11.0168
▁clarity	-11.0171
▁Modern	-11.0171
person	-11.0172
▁1970	-11.0175
▁disturb	-11.0179
terinstitutional	-11.0184
▁circuit	-11.0188
▁Taiwan	-11.0192
▁bigger	-11.0194
▁ruin	-11.02
▁justify	-11.02
▁hire	-11.0208
▁Word	-11.0211
▁Moscow	-11.0213
}})	-11.0214
▁transformation	-11.0215
▁scandal	-11.0218
▁Chairman	-11.0222
▁Morocco	-11.0226
graduate	-11.0229
stell	-11.0231
▁terrible	-11.0234
▁travellers	-11.0235
▁Space	-11.0241
2008	-11.0244
▁driven	-11.0256
▁Mur	-11.026
▁({{	-11.0264
▁bread	-11.0271
▁contest	-11.0279
▁Salzburg	-11.0281
▁tram	-11.0282
▁arrangement	-11.0283
▁Vietnam	-11.0285
▁Single	-11.0287
▁featuring	-11.0289
▁Small	-11.0294
▁Process	-11.0298
type	-11.0299
▁coach	-11.0302
▁spectrum	-11.0311
▁Partner	-11.0314
▁revised	-11.0315
▁hang	-11.0327
▁arranged	-11.0331
▁sake	-11.0335
▁artificial	-11.0336
▁snack	-11.0336
▁Partnership	-11.0337
▁fifth	-11.0345
suite	-11.0348
speed	-11.035
OK	-11.0354
▁false	-11.0362
building	-11.0362
▁Michel	-11.0363
PM	-11.0368
▁Gaza	-11.0368
▁electoral	-11.037
▁Tuscan	-11.037
▁profound	-11.0372
▁intense	-11.0376
UM	-11.0377
▁recession	-11.0379
▁accessories	-11.0379
crypt	-11.0383
▁USD	-11.0387
▁favorite	-11.0389
2002	-11.0395
▁violent	-11.0396
▁tariff	-11.0396
▁600	-11.0399
▁harbour	-11.0405
▁composed	-11.0409
▁Airbus	-11.0411
▁stimulate	-11.0413
▁greenhouse	-11.0416
▁afraid	-11.0418
▁Sudan	-11.0418
▁MySQL	-11.0422
▁Tan	-11.0433
▁whatsoever	-11.0435
▁1991	-11.0438
▁certified	-11.0439
▁relief	-11.0448
▁patch	-11.0448
▁continuously	-11.045
▁withdrawal	-11.0452
▁Growth	-11.0452
93	-11.0457
▁transit	-11.0468
▁honor	-11.047
Christian	-11.0472
▁Website	-11.048
LT	-11.048
▁lens	-11.0482
▁senior	-11.0483
▁manufactured	-11.0483
▁sunny	-11.0483
▁recruit	-11.0487
▁regulate	-11.0489
RM	-11.0489
▁Prize	-11.0494
▁slide	-11.0495
▁tape	-11.0497
worthy	-11.0497
▁neutral	-11.05
7%	-11.0503
▁Back	-11.0503
▁recreation	-11.0504
▁Flash	-11.0504
▁Communication	-11.0513
▁forgotten	-11.0513
▁container	-11.052
▁cheese	-11.052
▁pharmaceutical	-11.0522
Tra	-11.0524
▁salt	-11.0526
▁stopped	-11.0535
▁Clean	-11.0544
after	-11.0544
page	-11.0545
▁Cho	-11.0545
▁diving	-11.0545
▁zero	-11.0546
▁Change	-11.055
▁Otherwise	-11.0552
▁knew	-11.0556
▁renewed	-11.0557
▁integrity	-11.057
solution	-11.0571
▁Order	-11.0572
▁replacement	-11.0572
▁electro	-11.0575
▁Light	-11.0576
▁Libya	-11.0583
▁manifest	-11.0587
▁orientation	-11.0587
▁interaction	-11.0596
▁basically	-11.0598
▁Press	-11.0603
▁Finnish	-11.0605
▁Wolf	-11.0606
▁announcement	-11.0609
▁privat	-11.0624
▁Iraqi	-11.0629
design	-11.0631
▁council	-11.0631
▁frequency	-11.0631
▁transitional	-11.0635
▁insight	-11.0636
▁nobody	-11.0637
ddle	-11.0641
▁Staff	-11.0648
▁broke	-11.0653
▁1989	-11.0653
▁GNU	-11.0653
▁invitation	-11.0658
▁upload	-11.0658
file	-11.0665
▁Iranian	-11.0665
▁surplus	-11.0666
▁acquire	-11.0669
▁blend	-11.0676
▁soldiers	-11.0679
▁duration	-11.0681
▁quantity	-11.0684
▁mineral	-11.0685
▁territories	-11.0693
▁resist	-11.0699
lang	-11.0701
▁Key	-11.0702
▁conform	-11.0711
▁cm	-11.0712
▁Marina	-11.0719
liness	-11.072
▁entail	-11.0724
▁accuracy	-11.0733
▁interactive	-11.0735
▁contractual	-11.0739
▁printer	-11.0742
cca	-11.0748
▁cave	-11.0763
▁conviction	-11.0764
step	-11.0765
▁brain	-11.077
▁healthcare	-11.0782
▁explicitly	-11.079
▁beneficial	-11.0791
00,000	-11.0795
▁uncertainty	-11.0796
▁flash	-11.0801
▁tube	-11.0803
max	-11.0806
▁presidential	-11.0812
▁unilateral	-11.0813
▁Washington	-11.0831
▁hesitate	-11.0831
bru	-11.084
from	-11.084
screen	-11.0843
▁sequence	-11.0844
▁controller	-11.0851
▁regulated	-11.0851
▁Sign	-11.0852
▁surveillance	-11.0858
▁advisor	-11.0858
▁corporation	-11.0867
▁Location	-11.0867
LU	-11.0868
▁fragment	-11.0871
▁vineyard	-11.0871
▁Gentoo	-11.0871
idad	-11.0875
▁identification	-11.0876
▁multinational	-11.0882
▁distributor	-11.0889
▁anticipate	-11.0894
town	-11.0897
▁Storage	-11.0903
▁silence	-11.0903
▁whenever	-11.0907
ación	-11.0911
▁necessity	-11.0912
▁Third	-11.0912
▁affordable	-11.0921
▁architectural	-11.0921
▁employers	-11.0923
▁Society	-11.0926
▁celebration	-11.0926
▁poker	-11.0926
▁Charles	-11.0941
credit	-11.0945
▁Price	-11.0946
▁objection	-11.0952
▁automotive	-11.0953
▁prestigious	-11.0957
▁poet	-11.0968
▁Communist	-11.0971
▁machinery	-11.0974
▁spiritual	-11.0975
▁Budapest	-11.0975
94	-11.0977
▁cancelled	-11.0986
▁Experience	-11.0989
▁Empire	-11.0998
▁Mill	-11.1016
▁Gri	-11.1024
2006	-11.1028
▁Yugoslavia	-11.1029
▁gym	-11.1029
▁smoke	-11.1031
▁praise	-11.1032
▁Tool	-11.1033
Hour	-11.1038
▁precious	-11.1047
▁Maastricht	-11.1049
▁evolution	-11.1049
▁compare	-11.1049
▁jump	-11.1056
▁chose	-11.1063
▁deliberate	-11.1072
▁Contact	-11.1072
pool	-11.1072
▁stance	-11.1073
▁merit	-11.1074
▁Tunisia	-11.1076
▁pun	-11.1078
▁Macedonia	-11.1081
▁male	-11.1098
▁Joint	-11.1098
▁Until	-11.1101
feld	-11.1101
▁grass	-11.1109
▁ratified	-11.1118
▁Near	-11.1125
take	-11.1125
▁Thomas	-11.1127
▁slave	-11.1128
▁Deposit	-11.1134
6%	-11.1152
▁bicycle	-11.1156
▁convince	-11.1159
▁conservation	-11.1159
▁laser	-11.1169
phan	-11.1173
▁acid	-11.1178
▁lecture	-11.1178
▁30%	-11.118
▁exposure	-11.1182
▁Karl	-11.1188
▁strive	-11.1197
conditioned	-11.1205
▁James	-11.1209
▁illness	-11.121
▁certainty	-11.1212
▁shut	-11.1224
▁wise	-11.1229
▁Rural	-11.1232
▁donation	-11.1236
▁socio	-11.1241
▁purchasing	-11.1243
▁credible	-11.1248
▁Discover	-11.1253
▁Search	-11.1261
▁ocean	-11.1262
▁Prince	-11.1264
▁opera	-11.127
▁charter	-11.1271
▁Hostelsclub	-11.1271
▁literature	-11.1271
€	-11.1276
▁citizenship	-11.1278
▁heavily	-11.1281
service	-11.1281
gio	-11.1283
▁invoice	-11.1286
▁absorb	-11.129
▁1000	-11.1294
▁supplementary	-11.1295
▁robot	-11.1306
▁daughter	-11.1313
▁Europol	-11.1317
▁logistics	-11.1318
▁Metro	-11.1326
▁palace	-11.1328
8%	-11.133
▁victim	-11.1331
▁Zurich	-11.1332
▁moderate	-11.1336
▁bureaucracy	-11.1337
▁unknown	-11.1344
TION	-11.1344
▁Sony	-11.1348
▁Brand	-11.1353
▁crowd	-11.1356
▁imbalance	-11.1365
▁Bureau	-11.1365
▁pine	-11.1367
▁guitar	-11.137
▁Cologne	-11.1389
▁contributing	-11.1389
▁venture	-11.1389
▁Install	-11.1394
▁Point	-11.1405
▁silver	-11.1408
▁Democratic	-11.1409
▁dictatorship	-11.1414
▁banana	-11.1417
▁enrich	-11.1418
▁Southern	-11.1423
▁borrow	-11.1427
▁eco	-11.143
▁placing	-11.1434
▁Freedom	-11.1441
▁translate	-11.1444
▁desert	-11.1462
▁minimal	-11.1463
▁BSE	-11.1463
▁feedback	-11.1471
▁rescue	-11.1475
▁prominent	-11.148
operation	-11.148
▁voters	-11.1488
▁genetic	-11.1492
▁Nazi	-11.1498
▁mandatory	-11.1499
▁Client	-11.1499
group	-11.1501
▁truck	-11.1504
▁Conditions	-11.1508
▁keen	-11.151
▁plugin	-11.1514
▁intelligence	-11.1523
▁template	-11.1528
▁Mini	-11.1528
▁Spec	-11.153
occup	-11.1533
▁closing	-11.1533
▁Lang	-11.1541
▁Estonia	-11.1542
▁systematic	-11.1542
▁criticise	-11.1549
▁robust	-11.1552
▁2012	-11.1554
▁essence	-11.1557
4%	-11.1558
▁unanimously	-11.1565
▁imposing	-11.1566
▁हो	-11.1574
▁का	-11.1574
▁biological	-11.158
▁tonnes	-11.158
▁Digital	-11.1586
▁elderly	-11.1586
▁excess	-11.1593
(1)	-11.16
▁clothing	-11.161
▁pursuan	-11.1615
▁Berg	-11.1615
▁cocktail	-11.1624
▁experiencing	-11.1624
▁churches	-11.1626
rug	-11.163
▁shame	-11.1635
ALL	-11.1639
▁List	-11.1641
▁Which	-11.1649
specific	-11.1652
▁confine	-11.1653
gie	-11.1657
▁Major	-11.1658
▁Learn	-11.1664
▁Argentina	-11.1668
▁measuring	-11.1668
▁procurement	-11.1673
▁Bavaria	-11.1674
▁precision	-11.1678
▁chart	-11.1679
▁Film	-11.1684
▁proximity	-11.1688
▁petition	-11.1689
▁adaptation	-11.169
▁hide	-11.1695
ст	-11.1704
▁statistical	-11.1707
ologist	-11.1709
ATION	-11.1712
▁demographic	-11.1717
▁commend	-11.1717
▁Burma	-11.1721
▁Similarly	-11.1722
▁confident	-11.1725
▁caught	-11.1728
▁creativity	-11.1732
▁educa	-11.1743
▁leather	-11.1752
▁precaution	-11.1756
▁Scotland	-11.1756
asso	-11.1759
▁Malta	-11.1764
▁boutique	-11.1766
▁Cross	-11.1766
▁parent	-11.177
▁Sound	-11.1779
▁Zimbabwe	-11.1781
▁integral	-11.1786
▁suggestion	-11.1787
▁Motor	-11.1804
▁copies	-11.1811
▁enchant	-11.1816
▁unemployed	-11.1819
▁Pacific	-11.1821
▁wake	-11.1829
▁receipt	-11.184
▁arbitrary	-11.1845
script	-11.1858
▁biodiversity	-11.186
्व	-11.1869
▁headquarters	-11.1875
▁Adobe	-11.189
▁Lebanon	-11.1895
▁treaties	-11.1897
▁Spring	-11.1898
▁College	-11.19
▁swift	-11.19
▁Edition	-11.1905
▁rose	-11.1907
ijk	-11.1917
▁folk	-11.1927
▁2013	-11.1935
▁rigorous	-11.1945
▁horizontal	-11.1951
▁exemption	-11.1955
zzo	-11.1959
▁Reform	-11.1962
▁Organization	-11.1965
▁sacrifice	-11.197
▁detriment	-11.1975
▁chamber	-11.1978
▁paradise	-11.1985
▁garage	-11.1986
▁coverage	-11.1994
stadt	-11.2
▁Citizens	-11.2001
▁depriv	-11.2003
▁occupied	-11.2006
owned	-11.202
▁exert	-11.2024
▁YOU	-11.2047
▁Frank	-11.205
Mail	-11.2055
▁desirable	-11.2056
▁irregular	-11.2061
dependent	-11.2062
structure	-11.2063
▁Hill	-11.2064
▁maxim	-11.2069
▁Juli	-11.2074
▁lowest	-11.2077
▁decoration	-11.2082
technology	-11.2084
ित	-11.2095
▁Obviously	-11.2097
ART	-11.2097
▁specifications	-11.2099
TU	-11.21
▁Right	-11.2101
TRA	-11.2104
▁Peace	-11.2113
▁controversial	-11.2117
▁tribute	-11.2117
▁Tuesday	-11.2122
▁equity	-11.2122
▁Mobile	-11.2122
▁Choose	-11.2123
▁Apple	-11.2125
▁admire	-11.2128
▁Defence	-11.2133
▁defining	-11.2133
▁Kirk	-11.214
▁authorisation	-11.2142
▁brutal	-11.2158
▁tolerance	-11.2159
▁fitted	-11.2164
bank	-11.2164
▁delicate	-11.2168
▁Consult	-11.2169
▁meantime	-11.218
▁Stockholm	-11.2184
▁pub	-11.2192
▁trick	-11.2192
human	-11.2194
▁tropical	-11.2199
▁hike	-11.2203
▁enlarged	-11.221
▁1.5	-11.221
▁crash	-11.2211
▁transmit	-11.2218
▁comparable	-11.2225
▁neglect	-11.2256
▁lovers	-11.2263
▁piano	-11.2265
▁Series	-11.2265
▁Cathedral	-11.2266
▁choosing	-11.2266
▁exclude	-11.227
▁NOT	-11.2271
▁contradiction	-11.2272
▁dating	-11.2274
▁plea	-11.2274
▁nonetheless	-11.2277
▁distortion	-11.2283
bble	-11.2292
▁Algeria	-11.2304
▁accelerate	-11.2313
▁yacht	-11.2313
▁Scott	-11.2313
▁harmony	-11.2318
▁stroll	-11.232
▁Alexander	-11.235
▁correction	-11.2357
▁Professional	-11.2365
Parliament	-11.237
▁William	-11.2371
liberal	-11.2375
▁emission	-11.2376
▁preliminary	-11.2381
▁elite	-11.2385
▁Puerto	-11.2386
▁plot	-11.2393
▁confusion	-11.2397
▁Content	-11.2397
▁Gulf	-11.2412
▁Elevator	-11.2423
▁evil	-11.2426
world	-11.2428
▁affiliate	-11.2433
▁Latvia	-11.2434
ESS	-11.2441
error	-11.2441
▁rejection	-11.2441
▁breathtaking	-11.2444
▁bureaucratic	-11.2455
▁parameter	-11.2455
91	-11.246
▁Nonetheless	-11.2465
▁Labour	-11.2465
▁entries	-11.2465
▁lifestyle	-11.247
▁disappointed	-11.247
▁marriage	-11.247
▁Nigeria	-11.2471
▁recipient	-11.2476
▁Close	-11.2482
▁scenery	-11.2483
▁admitted	-11.2489
charge	-11.25
▁loop	-11.2502
marquis	-11.2503
▁Hamas	-11.2504
▁pair	-11.2506
▁pact	-11.2509
▁characterized	-11.2511
▁BMW	-11.2513
▁incorrect	-11.2529
▁tunnel	-11.2529
▁giant	-11.2529
craft	-11.2531
▁isolated	-11.254
▁auction	-11.254
▁fought	-11.255
▁Beijing	-11.2561
▁bull	-11.2565
▁1960	-11.2576
▁linguistic	-11.2577
generation	-11.2584
▁Tower	-11.2585
но	-11.2591
▁challenging	-11.2593
▁Industrial	-11.2603
▁automation	-11.2603
▁shortcomings	-11.2603
▁Instrument	-11.2609
▁incredible	-11.2609
▁alleged	-11.262
▁California	-11.2625
▁downtown	-11.2628
▁Palestine	-11.263
▁League	-11.263
▁disorder	-11.263
***	-11.2636
▁loud	-11.2637
▁Language	-11.2657
▁adverse	-11.2663
▁Louis	-11.2663
▁clarification	-11.2679
▁History	-11.2679
▁regrettable	-11.2679
▁birds	-11.2684
▁Radio	-11.2685
▁optical	-11.2693
▁Luggage	-11.2695
▁analog	-11.2707
▁loyal	-11.2712
▁Ocean	-11.2717
▁Account	-11.2728
▁autonomy	-11.2738
▁guidance	-11.2738
▁routine	-11.2738
▁inspiration	-11.2755
▁migrants	-11.2757
▁battery	-11.276
▁simplification	-11.2766
▁Norway	-11.2777
▁Declaration	-11.2782
▁chocolate	-11.2787
▁fifteen	-11.2798
▁defense	-11.2798
▁plural	-11.2804
▁Adriatic	-11.2809
▁persuade	-11.2826
▁inquiry	-11.2826
▁statute	-11.2831
▁passport	-11.2833
▁survival	-11.2837
▁Everyone	-11.2837
▁conjunction	-11.2842
▁Moldova	-11.2848
▁transatlantic	-11.2848
▁Call	-11.2848
▁closure	-11.2853
▁unfortunate	-11.2858
century	-11.2862
▁prerequisite	-11.2864
Qu	-11.2871
▁pedestrian	-11.2875
EEC	-11.2882
ै	-11.2886
▁Ticket	-11.2894
▁Link	-11.2895
▁Update	-11.2898
▁पर	-11.2906
▁volunteer	-11.2908
▁pioneer	-11.2914
▁Technical	-11.2919
▁Direct	-11.292
efficient	-11.2923
▁cosmetic	-11.2925
▁Easy	-11.2925
▁subsidiary	-11.293
▁multimedia	-11.2938
▁subscription	-11.2938
▁characterised	-11.2945
▁penalties	-11.2947
▁Supervisor	-11.2947
▁40%	-11.2951
▁Meanwhile	-11.2958
▁shareholders	-11.296
▁striking	-11.2969
▁Everything	-11.2969
▁pride	-11.2979
synchron	-11.298
ifier	-11.2982
▁pipe	-11.2988
#	-11.2996
▁tune	-11.2999
▁translator	-11.3002
▁restoration	-11.3003
▁jewel	-11.3005
▁yang	-11.302
▁iPhone	-11.3036
▁immense	-11.3036
▁Solution	-11.3036
▁derived	-11.3036
▁kids	-11.3037
▁excuse	-11.3039
▁congress	-11.3047
5,000	-11.3055
▁racism	-11.3058
▁odd	-11.3063
weight	-11.3072
reaching	-11.3084
▁लि	-11.3086
▁align	-11.3091
▁pursuing	-11.3092
▁psycho	-11.3093
▁boom	-11.3097
▁upcoming	-11.3099
found	-11.3102
▁inclusive	-11.3103
▁Long	-11.3107
▁taught	-11.311
▁weapon	-11.311
▁implies	-11.3111
▁consume	-11.3117
▁Thailand	-11.3126
▁tremendous	-11.3126
▁frank	-11.3126
▁requiring	-11.3132
▁denied	-11.3132
▁conversation	-11.3137
▁identical	-11.3143
eering	-11.3149
EST	-11.3152
▁coalition	-11.3154
▁compensate	-11.3154
▁perception	-11.3159
▁recipe	-11.3166
▁administrator	-11.3171
▁macro	-11.3181
▁infection	-11.3184
▁economist	-11.3188
▁unprecedented	-11.3188
▁imperial	-11.3194
▁stood	-11.3196
▁continually	-11.3205
▁scholar	-11.3205
▁Print	-11.3208
▁Piazza	-11.3222
scription	-11.323
▁observers	-11.3232
▁consistency	-11.3241
▁mixture	-11.3249
▁automated	-11.3251
▁thread	-11.3253
▁Micro	-11.3255
▁reproduction	-11.3262
▁Sometimes	-11.3268
depend	-11.3272
soft	-11.3273
▁quantities	-11.3274
NET	-11.3274
▁Reserve	-11.3278
▁Currently	-11.3279
▁treasure	-11.3279
▁distribute	-11.3281
▁discretion	-11.3285
▁enemy	-11.3285
1999	-11.3287
▁premier	-11.3291
ggio	-11.3293
▁homepage	-11.3294
▁circulation	-11.3297
▁pocket	-11.3301
▁HTML	-11.3302
▁terror	-11.3304
▁Above	-11.3314
▁Colombia	-11.332
▁consolidation	-11.332
▁pipeline	-11.3321
▁isolation	-11.3321
migrant	-11.3329
Child	-11.3337
▁Classic	-11.3337
▁combining	-11.3354
900	-11.3359
▁fitting	-11.3364
▁exploring	-11.3372
▁Nordic	-11.3375
▁accused	-11.3383
▁Richard	-11.3383
▁annex	-11.3384
▁nicht	-11.3385
▁80%	-11.3386
▁compound	-11.3388
▁Catholic	-11.3406
▁securities	-11.3406
ntergovernmental	-11.3407
▁clip	-11.3411
▁Coast	-11.3427
▁enthusiasm	-11.343
▁recycling	-11.343
▁assumption	-11.3441
▁banned	-11.3444
▁explicit	-11.3454
▁grew	-11.3465
keeping	-11.348
▁aggressive	-11.3482
▁brochure	-11.3482
2005	-11.3505
▁accord	-11.352
▁Anonymous	-11.3523
▁tackling	-11.3535
▁culinary	-11.3541
▁engagement	-11.3542
▁width	-11.3547
ला	-11.3548
▁theoretical	-11.3553
▁vicinity	-11.3558
▁Joseph	-11.3564
▁tangible	-11.3582
▁abolition	-11.3588
▁हैं	-11.3595
access	-11.3599
This	-11.36
▁earthquake	-11.36
▁Friendly	-11.36
▁unlimited	-11.3606
▁equip	-11.3611
▁aesthetic	-11.3618
▁font	-11.3618
9%	-11.362
ни	-11.362
▁pledge	-11.3624
▁Decision	-11.3635
▁optimum	-11.3647
▁uncertain	-11.3657
▁CEO	-11.3665
▁flavour	-11.3671
▁dominant	-11.3671
▁District	-11.3677
▁clothes	-11.3677
▁deemed	-11.3683
▁storm	-11.3684
scape	-11.3684
▁Stuttgart	-11.3689
▁servant	-11.369
▁twelve	-11.3695
▁furthermore	-11.3695
▁evolve	-11.3701
▁employee	-11.3702
▁Offer	-11.3728
▁yellow	-11.3731
▁tissue	-11.3737
▁vertical	-11.3742
platz	-11.3745
▁absurd	-11.3761
▁Rental	-11.3767
▁bold	-11.377
▁Millennium	-11.3773
▁Revolution	-11.3773
▁Though	-11.3775
▁frontier	-11.3775
▁congratulations	-11.3779
▁vessel	-11.378
▁imperative	-11.3785
▁coincide	-11.3785
▁LateRooms	-11.3791
▁ideological	-11.3791
▁unstable	-11.3797
▁Danube	-11.3803
▁inequality	-11.3804
▁2.5	-11.3806
establish	-11.3809
▁Ideal	-11.3813
depth	-11.3816
▁temple	-11.3816
▁steep	-11.3818
▁analyze	-11.3833
▁Could	-11.3833
Starfleet	-11.3852
▁Alpine	-11.3852
▁capability	-11.3875
▁License	-11.3876
▁appreciation	-11.3876
▁suspension	-11.3876
▁Capital	-11.3876
▁advertisement	-11.3879
▁currencies	-11.3882
▁nowadays	-11.3894
▁removing	-11.39
ра	-11.3909
▁café	-11.3925
▁excellence	-11.3931
▁EMU	-11.3931
▁kilo	-11.3932
▁stakeholders	-11.3937
▁Professor	-11.3943
▁ratify	-11.3943
▁Application	-11.3949
▁acquis	-11.3954
▁emotional	-11.3955
▁About	-11.3959
▁Residence	-11.3961
▁ambience	-11.3961
▁Jews	-11.3962
▁inventor	-11.3967
▁constraints	-11.3968
▁UNESCO	-11.3974
▁sightseeing	-11.3974
▁transmitted	-11.3976
▁orchestra	-11.398
▁mild	-11.3981
▁basket	-11.3986
▁struck	-11.3986
▁Command	-11.3987
New	-11.3994
▁separation	-11.3998
▁kilometers	-11.4004
▁boundaries	-11.4012
▁distort	-11.4016
▁unanimous	-11.4019
▁Philip	-11.4023
▁capacities	-11.4029
▁verify	-11.4034
▁Double	-11.4035
▁beverage	-11.4042
▁embrace	-11.4066
▁supervisory	-11.4066
▁Saudi	-11.407
▁laboratory	-11.4073
▁singer	-11.408
▁Chief	-11.4082
RAN	-11.4089
about	-11.409
▁embedded	-11.4097
▁protein	-11.4097
▁flaw	-11.4097
▁married	-11.411
▁gentle	-11.411
▁indigenous	-11.4122
▁Climate	-11.4122
▁automobile	-11.4147
▁Document	-11.4153
▁NEW	-11.4154
▁pixel	-11.4154
▁reconciliation	-11.416
▁musicians	-11.416
▁Captain	-11.4169
shirt	-11.4176
▁damaging	-11.4179
▁quo	-11.4181
▁Ukrainian	-11.4185
▁Caribbean	-11.4191
assemble	-11.4192
▁Valencia	-11.421
▁random	-11.4223
▁blank	-11.4223
▁nutrition	-11.4229
▁benchmark	-11.4229
▁universe	-11.4235
▁Plus	-11.4244
▁harvest	-11.4248
▁inevitable	-11.4248
▁workforce	-11.4248
▁cycling	-11.4255
▁Jesus	-11.4261
▁shade	-11.4271
▁Queen	-11.4273
▁derogation	-11.4279
▁promising	-11.4279
▁dossier	-11.4279
▁sincerely	-11.428
▁admission	-11.4283
▁Jerusalem	-11.4286
/2003	-11.4286
metre	-11.4287
▁instant	-11.4304
present	-11.4313
▁autonomous	-11.433
▁suppress	-11.433
▁silent	-11.4338
▁hyper	-11.4343
▁Text	-11.4349
▁royal	-11.435
▁albeit	-11.4356
▁college	-11.4356
▁genetically	-11.4358
▁eligible	-11.4362
!!!	-11.4363
▁Excellent	-11.4375
▁Library	-11.4375
▁grip	-11.4381
▁qualities	-11.4388
▁embark	-11.4388
▁summary	-11.4388
config	-11.4389
▁substitute	-11.44
▁hunger	-11.4402
▁indispensable	-11.4407
▁retirement	-11.4407
▁Annual	-11.4413
▁utility	-11.4413
▁जा	-11.4419
▁Regarding	-11.442
▁critique	-11.442
▁Unlike	-11.4424
▁aroma	-11.4424
▁Stock	-11.4427
▁juice	-11.443
▁desperate	-11.4439
▁Warcraft	-11.4459
▁CHF	-11.4465
▁cloud	-11.4471
▁entity	-11.4473
▁counterpart	-11.4474
▁Heritage	-11.4478
▁administer	-11.4497
ière	-11.4498
▁gradual	-11.4507
▁composer	-11.4517
▁supermarket	-11.4524
▁coherence	-11.453
▁impetus	-11.453
▁Victoria	-11.453
▁loose	-11.4533
▁greet	-11.4536
▁intimate	-11.4537
▁HIV	-11.4543
▁Rhine	-11.4543
▁inevitably	-11.4556
▁disregard	-11.4562
▁luggage	-11.4562
html	-11.4569
▁cooperative	-11.4571
▁instability	-11.4576
▁Championship	-11.4582
▁servi	-11.4582
▁Gallery	-11.4588
equipped	-11.4589
▁sculpture	-11.4595
▁dumping	-11.4601
▁Criminal	-11.4608
scope	-11.4608
▁mould	-11.4608
▁toxic	-11.4611
▁Simply	-11.4614
resistant	-11.4621
▁Between	-11.4627
▁systematically	-11.4636
▁slaughter	-11.4641
▁occupy	-11.4641
proliferation	-11.4647
▁सं	-11.4649
▁Objective	-11.4654
▁perpetrat	-11.466
▁Statute	-11.4667
▁Exhibition	-11.4673
▁repression	-11.4674
▁Singapore	-11.468
▁definitive	-11.468
▁hairdryer	-11.468
▁animation	-11.4681
▁tolerate	-11.4706
▁helicopter	-11.4706
▁husband	-11.4713
▁gaming	-11.4716
▁continuation	-11.472
▁Conservative	-11.4726
▁vacuum	-11.4733
▁predecessor	-11.474
▁cluster	-11.474
▁Chechnya	-11.4746
▁compatibility	-11.4746
▁convincing	-11.4753
▁arriving	-11.478
▁Provide	-11.478
▁Saddam	-11.4793
▁elegance	-11.4793
▁solving	-11.4793
▁wound	-11.4796
▁criterion	-11.4799
▁refurbished	-11.4799
▁interference	-11.48
▁rigid	-11.4846
▁aluminium	-11.4853
▁Corporate	-11.486
▁Corporation	-11.486
▁libraries	-11.486
▁innocent	-11.486
▁Depend	-11.4861
▁journal	-11.4863
▁rhetoric	-11.4866
▁counterfeit	-11.4873
▁entities	-11.4874
▁procedural	-11.488
▁delegate	-11.488
▁Cultural	-11.4887
▁Railway	-11.4887
▁Summer	-11.4889
security	-11.4897
▁Original	-11.49
▁Short	-11.4901
▁washing	-11.4905
▁conservative	-11.4907
▁Daniel	-11.4907
▁thirty	-11.4914
▁ceramic	-11.4914
▁globe	-11.4914
▁expire	-11.4916
▁hint	-11.4917
▁swim	-11.4923
▁Wood	-11.4923
legislator	-11.4927
▁remedy	-11.4934
0.0	-11.495
6-0	-11.4955
▁cathedral	-11.4961
▁URL	-11.4968
▁breast	-11.4975
sheet	-11.4975
▁practise	-11.4975
▁Terrace	-11.4982
▁disastrous	-11.4988
▁fossil	-11.4995
▁Dresden	-11.5009
▁detention	-11.5015
▁refusal	-11.5022
looking	-11.5027
▁entrepreneurs	-11.5029
▁Administration	-11.5029
▁simplified	-11.5029
▁float	-11.504
▁Helsinki	-11.5049
▁resolving	-11.5049
▁distant	-11.505
▁serial	-11.505
▁drastic	-11.5071
profit	-11.5075
▁exquisite	-11.5084
write	-11.5084
▁endanger	-11.5091
▁Record	-11.5091
▁Electronic	-11.5098
▁determining	-11.5098
▁circum	-11.5118
install	-11.5138
disciplinary	-11.5139
▁panorama	-11.5139
▁Nikon	-11.5139
valuation	-11.5149
Enterprise	-11.5151
▁Theatre	-11.5169
▁Riviera	-11.5173
▁psychological	-11.518
▁brilliant	-11.5201
▁conscience	-11.5201
▁virtue	-11.5201
▁constituent	-11.5208
▁IGC	-11.521
▁invasion	-11.5216
slav	-11.5217
defined	-11.5228
▁scrutiny	-11.5229
▁Wireless	-11.5229
▁ceremony	-11.5243
▁Equal	-11.525
▁precondition	-11.5254
▁वि	-11.5267
▁dictator	-11.5284
built	-11.5285
▁Edinburgh	-11.5285
▁pitch	-11.5293
▁altitude	-11.5306
▁Sierra	-11.5306
कार	-11.5311
▁democracies	-11.5313
▁qualify	-11.5313
▁Machine	-11.5341
▁Samsung	-11.5348
Mediterranean	-11.5348
▁examining	-11.5355
▁descend	-11.5355
▁abilities	-11.5355
▁Innovation	-11.5362
▁congratulating	-11.5369
▁disclose	-11.537
▁Large	-11.5372
▁securing	-11.5384
American	-11.5384
▁Privacy	-11.5391
▁cruise	-11.5391
▁Petitions	-11.5398
Circ	-11.5402
▁Mallorca	-11.5405
▁unanimity	-11.5405
▁Solidarity	-11.5419
▁sensitivity	-11.5419
▁Computer	-11.5419
▁professor	-11.5426
▁chronic	-11.5433
▁cotton	-11.5433
▁depict	-11.5434
▁prejudice	-11.544
▁courtyard	-11.544
▁birthday	-11.5442
IVE	-11.5454
▁preservation	-11.5454
▁advertise	-11.5458
▁affirm	-11.5469
▁SQL	-11.5469
▁heaven	-11.5469
▁Political	-11.547
▁catalog	-11.5482
▁muscle	-11.5483
▁obstacle	-11.5485
▁rhythm	-11.549
▁vendor	-11.549
▁Credit	-11.549
▁Especially	-11.5497
▁harsh	-11.5498
▁integrating	-11.5504
▁Consider	-11.5505
▁monopoly	-11.5519
===	-11.5519
▁dismiss	-11.5525
▁wisdom	-11.5526
▁audiovisual	-11.5533
▁Armenia	-11.5536
▁Whilst	-11.554
▁associate	-11.5551
▁Newspapers	-11.5562
▁Leipzig	-11.5569
▁pursuit	-11.5569
▁energies	-11.5576
aught	-11.558
▁iPod	-11.5584
▁encompass	-11.5591
▁Chancellor	-11.5598
▁Written	-11.5598
▁Venezuela	-11.5598
▁shelter	-11.5598
▁implant	-11.5605
▁sympathy	-11.5612
▁worried	-11.5612
▁secular	-11.562
▁Relations	-11.5626
▁irrespective	-11.5634
▁diameter	-11.5634
▁immunity	-11.5641
third	-11.5645
▁communist	-11.5649
▁brush	-11.5656
performance	-11.5659
(3)	-11.566
▁drain	-11.5664
▁Connect	-11.5669
▁smell	-11.5671
▁Malaysia	-11.5678
▁embryo	-11.5678
2.1	-11.5683
▁Disabled	-11.5685
▁inherent	-11.5686
▁injection	-11.5693
▁attentive	-11.57
▁assignment	-11.57
▁Slovak	-11.5701
▁surgery	-11.5714
▁Annex	-11.5722
▁Afghan	-11.5729
▁deciding	-11.5736
▁barrier	-11.5745
▁Neither	-11.5751
▁memories	-11.5751
▁multilingual	-11.5758
▁Nokia	-11.5758
thumb	-11.5766
▁medicinal	-11.5773
▁stimulus	-11.5773
▁Quark	-11.5782
▁typ	-11.5783
▁furnishings	-11.5795
▁galleries	-11.5795
▁enthusiastic	-11.581
▁Zealand	-11.5817
▁diminish	-11.5817
vocation	-11.5832
▁Blair	-11.5847
▁Smith	-11.5847
debate	-11.5854
ordinate	-11.586
▁laptop	-11.5869
▁austerity	-11.5876
▁persecution	-11.5876
▁german	-11.5877
▁Relax	-11.5884
▁rebuild	-11.5885
▁Galileo	-11.5891
▁simulation	-11.5899
Linux	-11.5904
▁avec	-11.5909
▁Canadian	-11.5914
▁guilty	-11.5921
▁completing	-11.5921
▁Iceland	-11.5944
▁reaffirm	-11.5951
▁drama	-11.5954
▁vibrant	-11.5959
▁Watch	-11.5959
▁vigorous	-11.5974
▁cereal	-11.5981
▁disabilities	-11.5989
▁bubble	-11.6005
▁Cohesion	-11.6034
▁ideology	-11.6041
▁devise	-11.6045
▁Firefox	-11.6056
▁Wikitravel	-11.6056
▁Engineering	-11.6057
▁werden	-11.6057
▁recital	-11.6064
Voyager	-11.6072
▁alpine	-11.6087
▁Airlines	-11.6095
▁Siemens	-11.6102
▁Nothing	-11.6111
▁Francisco	-11.6117
▁conceal	-11.6117
▁Recently	-11.6125
▁dairy	-11.6125
▁macroeconomic	-11.6125
▁Schulz	-11.6133
▁legacy	-11.6134
▁XML	-11.614
▁über	-11.614
compatible	-11.6147
▁precedent	-11.6148
▁unexpected	-11.6155
▁abstract	-11.6156
▁ecosystem	-11.6156
▁exacerbat	-11.6163
comprehensible	-11.6178
▁baggage	-11.6178
▁literally	-11.6186
▁imagination	-11.6194
▁commence	-11.6194
jpg	-11.6194
▁petrol	-11.6214
▁Montenegro	-11.6224
▁pricing	-11.6225
▁temporarily	-11.6232
▁adjacent	-11.6247
▁buffer	-11.6248
▁motivation	-11.6263
▁affair	-11.6264
▁behave	-11.6282
▁cigarette	-11.6294
▁Friedrich	-11.6317
▁priest	-11.6318
▁phenomena	-11.6325
▁casual	-11.6325
▁fortress	-11.6326
article	-11.6328
sql	-11.633
Europe	-11.6334
▁dioxide	-11.6348
nbsp	-11.6348
▁enhancing	-11.6364
Friend	-11.6365
▁enemies	-11.6379
▁wrap	-11.6407
▁scrap	-11.6407
▁reconcile	-11.6419
▁powder	-11.6419
▁retreat	-11.6419
▁Dolomites	-11.6434
▁Function	-11.6434
▁Progress	-11.6442
▁renovation	-11.6442
▁fragile	-11.645
▁fortunate	-11.6458
▁outermost	-11.6458
▁pragmatic	-11.6458
▁erect	-11.6465
▁preserving	-11.6466
Herzegovina	-11.6474
▁Warsaw	-11.6474
▁crown	-11.6474
▁gourmet	-11.6482
▁genocide	-11.6489
▁Battle	-11.6497
famous	-11.6508
▁extremist	-11.6521
▁tasty	-11.6522
▁reimburse	-11.6537
▁gesture	-11.6537
first	-11.6551
▁relocation	-11.6561
▁fabulous	-11.6569
democratic	-11.658
▁bargain	-11.6593
▁Democracy	-11.6609
▁continuity	-11.6609
▁Guinea	-11.6609
▁commodity	-11.6617
▁OECD	-11.6617
▁oasis	-11.6625
▁Blanc	-11.6627
▁gambling	-11.6633
▁harmonious	-11.6633
▁OLAF	-11.6641
▁batteries	-11.6657
▁corridor	-11.6657
▁Engine	-11.6665
▁hybrid	-11.6665
▁statutory	-11.6673
▁Source	-11.6673
▁दे	-11.6681
▁Ashton	-11.6681
▁handicap	-11.6685
▁paradox	-11.6689
▁retention	-11.6689
▁Fortunately	-11.6697
▁mortgage	-11.6705
Hotel	-11.671
▁eliminating	-11.6721
▁embargo	-11.6721
‘	-11.6726
azione	-11.673
▁instructor	-11.6732
▁appoint	-11.6745
▁Jordan	-11.6746
▁visibility	-11.6746
▁elaborate	-11.6754
▁console	-11.6754
▁cultivate	-11.6762
▁generating	-11.6762
▁Andalusia	-11.677
▁feasible	-11.6778
▁multitude	-11.6786
operative	-11.6794
▁Athens	-11.6795
figura	-11.6809
▁coordinating	-11.6811
▁Picture	-11.6819
▁Kurdish	-11.6835
▁algorithm	-11.6835
5.00	-11.6838
▁Johann	-11.6876
▁Official	-11.6884
▁foodstuffs	-11.6893
▁resembl	-11.6893
▁injury	-11.6893
▁interfere	-11.69
▁Cambodia	-11.6901
▁quantitative	-11.6901
▁regain	-11.6909
́	-16.5319
