<unk>	0
<pad>	0
<s>	0
</s>	0
,	-3.30391
.	-3.49934
s	-3.53984
▁the	-3.8659
▁	-4.09489
en	-4.30527
▁in	-4.39621
e	-4.50412
▁of	-4.51971
▁die	-4.60474
▁and	-4.62792
▁der	-4.65812
▁to	-4.66908
n	-4.69731
▁und	-4.70141
▁a	-4.96832
-	-5.06212
▁is	-5.32782
t	-5.33269
er	-5.3661
d	-5.49223
ing	-5.49722
▁zu	-5.54244
▁that	-5.5981
▁for	-5.60181
▁be	-5.60883
▁den	-5.67506
ed	-5.67818
▁von	-5.69698
r	-5.79335
▁ist	-5.86481
▁an	-5.88895
▁für	-5.89404
▁on	-5.89826
▁auf	-5.97575
▁mit	-5.98619
▁I	-5.99036
▁das	-6.0198
▁with	-6.03214
▁The	-6.03613
▁(	-6.0625
▁des	-6.09267
▁are	-6.10661
▁ein	-6.15575
es	-6.1567
▁eine	-6.17409
▁im	-6.21111
ly	-6.21354
▁this	-6.2507
▁we	-6.25856
y	-6.27026
▁as	-6.27665
▁Sie	-6.28198
▁nicht	-6.29036
▁it	-6.33418
:	-6.34079
)	-6.35853
▁werden	-6.37185
al	-6.37991
▁not	-6.3855
▁by	-6.40372
▁dem	-6.40435
m	-6.40804
▁-	-6.40839
▁have	-6.41848
▁sich	-6.4418
▁Die	-6.44622
▁wir	-6.46391
▁dass	-6.46794
▁you	-6.4764
'	-6.47805
▁will	-6.49665
▁es	-6.50775
▁In	-6.53249
▁which	-6.5701
ung	-6.5841
▁auch	-6.59426
▁was	-6.60433
▁S	-6.60448
▁from	-6.61965
a	-6.62449
o	-6.64131
▁sind	-6.67048
▁über	-6.67749
in	-6.68347
▁or	-6.68825
▁at	-6.68847
▁so	-6.72427
▁has	-6.73054
▁A	-6.73088
▁wird	-6.73378
▁all	-6.75889
▁um	-6.76135
▁aus	-6.78405
▁ver	-6.80453
g	-6.80664
k	-6.82526
▁als	-6.84514
▁can	-6.85215
st	-6.8539
▁ich	-6.89165
▁oder	-6.90312
te	-6.90573
an	-6.93686
▁European	-6.9492
▁also	-6.94978
▁our	-6.95381
▁haben	-6.9619
ten	-6.97046
re	-6.9786
▁er	-6.99436
▁sie	-6.99629
i	-6.9997
l	-7.00988
▁de	-7.01069
▁hat	-7.01709
▁"	-7.02127
▁ge	-7.02165
w	-7.02174
ar	-7.02811
▁vor	-7.03384
ge	-7.03615
▁einer	-7.04341
or	-7.04821
▁wie	-7.04898
▁bei	-7.05547
!	-7.05761
?	-7.06094
z	-7.06296
S	-7.06709
u	-7.07833
▁We	-7.08596
▁E	-7.10496
▁zur	-7.10686
▁re	-7.1097
▁B	-7.11853
ch	-7.12131
ation	-7.1265
▁Be	-7.13443
be	-7.14385
▁Union	-7.14751
c	-7.15095
ur	-7.16514
▁Das	-7.17122
▁C	-7.17473
▁einen	-7.19288
▁your	-7.19896
/	-7.21161
b	-7.21466
de	-7.21919
it	-7.22323
▁K	-7.2277
et	-7.23164
▁nach	-7.23312
▁können	-7.23836
ver	-7.24034
le	-7.24603
▁Ich	-7.25094
B	-7.25958
▁–	-7.25968
▁durch	-7.263
▁but	-7.26359
▁un	-7.26419
▁am	-7.26613
▁would	-7.30807
"	-7.31216
▁more	-7.31244
f	-7.31915
C	-7.32173
’	-7.32284
▁An	-7.32306
ter	-7.33376
▁G	-7.33489
▁its	-7.34101
P	-7.34131
▁their	-7.34214
▁einem	-7.34673
▁Wir	-7.34949
th	-7.35093
h	-7.35603
▁diese	-7.37031
il	-7.37049
;	-7.37579
p	-7.3772
D	-7.38003
T	-7.38309
▁It	-7.38361
▁uns	-7.38485
▁Mr	-7.39136
▁zum	-7.39221
▁This	-7.40443
▁do	-7.41272
▁EU	-7.41322
▁nur	-7.41593
▁been	-7.42385
▁one	-7.42676
▁F	-7.42684
on	-7.43185
us	-7.43958
▁Ver	-7.43966
▁should	-7.44367
▁P	-7.44725
▁kann	-7.45845
E	-7.46008
ra	-7.47391
▁Der	-7.48064
▁Es	-7.4857
▁Er	-7.51256
▁new	-7.5137
▁unter	-7.52044
▁dieser	-7.52487
ic	-7.5308
▁Commission	-7.53405
den	-7.5384
▁Kommission	-7.53924
el	-7.53928
ir	-7.55183
▁Re	-7.56119
▁man	-7.56154
ä	-7.56251
▁must	-7.56256
at	-7.56705
▁very	-7.56962
▁like	-7.57296
▁daß	-7.5779
▁Ein	-7.58086
F	-7.58314
▁other	-7.58477
sch	-7.59023
▁there	-7.59075
▁time	-7.59626
▁Hotel	-7.59795
▁no	-7.59978
M	-7.60149
▁war	-7.60155
▁noch	-7.60187
▁wurde	-7.61449
der	-7.61783
la	-7.6181
A	-7.62495
um	-7.62564
▁T	-7.6278
▁Herr	-7.6293
ma	-7.63283
▁con	-7.64195
▁only	-7.64721
li	-7.64905
▁President	-7.6555
ieren	-7.65752
to	-7.66004
▁aber	-7.66037
▁they	-7.66509
▁about	-7.67041
▁wenn	-7.67108
▁sein	-7.67361
ment	-7.6801
ion	-7.68366
▁D	-7.68895
ern	-7.69052
▁he	-7.69074
L	-7.70185
▁up	-7.70356
▁who	-7.70633
▁sehr	-7.71582
▁müssen	-7.72129
G	-7.72312
ate	-7.72561
ne	-7.7318
▁out	-7.73634
▁19	-7.73894
able	-7.74123
ll	-7.74153
ist	-7.74292
is	-7.75803
se	-7.76226
me	-7.77119
▁us	-7.77544
ta	-7.77978
id	-7.78234
▁L	-7.78325
▁mehr	-7.79338
▁ab	-7.80194
he	-7.80273
ce	-7.80291
▁M	-7.80421
O	-7.80827
▁these	-7.81002
▁Ge	-7.81285
ers	-7.81389
▁report	-7.8222
▁diesem	-7.82535
▁alle	-7.82647
▁any	-7.83296
▁if	-7.84277
ity	-7.84595
K	-7.84727
▁Aus	-7.84945
iert	-7.85398
ul	-7.85442
zu	-7.85457
).	-7.85521
▁W	-7.85597
▁e	-7.85712
▁H	-7.85798
2	-7.85919
▁such	-7.85941
▁1	-7.85947
▁people	-7.86553
I	-7.86562
▁bis	-7.86827
▁Europäischen	-7.87264
ia	-7.87826
▁work	-7.88143
▁O	-7.88186
ischen	-7.88241
ive	-7.88548
▁Europe	-7.89038
W	-7.8955
em	-7.89561
x	-7.89663
▁Bericht	-7.89858
▁Parliament	-7.90045
▁3	-7.90234
▁into	-7.90429
im	-7.90578
▁what	-7.90815
▁were	-7.91361
N	-7.9164
▁well	-7.91845
▁ihre	-7.92335
ungen	-7.9293
ck	-7.92991
ad	-7.93065
ü	-7.93212
▁möchte	-7.93883
ig	-7.94013
gen	-7.95074
ol	-7.95333
▁R	-7.95492
▁So	-7.95909
▁Präsident	-7.95946
igen	-7.96342
H	-7.96851
▁my	-7.96894
▁2	-7.96898
ro	-7.96954
▁some	-7.96984
▁me	-7.96992
▁Member	-7.97261
as	-7.97316
▁States	-7.97951
▁hier	-7.9813
▁need	-7.98141
lich	-7.98251
ri	-7.98635
▁hotel	-7.9868
U	-7.99024
▁his	-7.99234
▁use	-7.99447
age	-7.99601
ein	-7.99739
▁than	-7.99742
▁Im	-7.99756
▁To	-7.99822
▁countries	-7.99912
ut	-7.99933
▁Vor	-7.99988
▁when	-7.99993
▁Sch	-8.00159
▁La	-8.00798
▁first	-8.01069
▁Ab	-8.01128
▁most	-8.0115
▁da	-8.01491
▁Le	-8.01536
▁c	-8.01578
ner	-8.0166
ke	-8.01816
▁vom	-8.01895
am	-8.02256
é	-8.02669
▁f	-8.03962
▁over	-8.04081
▁unsere	-8.04091
▁make	-8.04273
co	-8.04488
ische	-8.05154
▁support	-8.05334
▁Council	-8.05424
▁sowie	-8.05464
ie	-8.06566
▁St	-8.07018
▁now	-8.07582
▁important	-8.07621
▁muss	-8.07833
▁Zeit	-8.08492
▁keine	-8.08644
▁pro	-8.08946
▁gibt	-8.09107
▁many	-8.09225
▁Parlament	-8.09521
▁De	-8.09527
ab	-8.10243
00	-8.10432
▁between	-8.10788
▁st	-8.11444
R	-8.11463
ant	-8.11558
▁take	-8.11645
▁Pa	-8.1199
un	-8.1232
▁co	-8.12459
1	-8.12596
V	-8.12672
▁zwischen	-8.13263
▁because	-8.13698
▁la	-8.13752
▁dieses	-8.1378
▁just	-8.14004
▁way	-8.14185
3	-8.1523
ine	-8.15566
na	-8.15625
...	-8.15638
go	-8.15827
au	-8.15923
ö	-8.16249
▁Auf	-8.16326
▁Li	-8.16372
▁N	-8.16531
),	-8.16571
▁them	-8.17179
mp	-8.17396
op	-8.17938
ste	-8.18032
ve	-8.1842
▁Europa	-8.18756
▁p	-8.18834
v	-8.18951
▁V	-8.19369
▁„	-8.1962
▁part	-8.19712
▁eines	-8.19746
▁place	-8.20038
und	-8.20299
ft	-8.20376
▁where	-8.20634
kt	-8.20658
▁wo	-8.20988
bar	-8.21069
▁4	-8.21119
▁good	-8.21185
▁information	-8.21235
▁Da	-8.21264
▁two	-8.22091
ci	-8.22284
▁Ihnen	-8.22705
min	-8.22897
▁Pro	-8.23065
▁Ma	-8.23111
“	-8.23534
ien	-8.23593
ca	-8.23817
▁had	-8.23878
▁made	-8.24119
▁Mit	-8.24141
vi	-8.24176
uch	-8.2496
▁world	-8.25259
▁Ha	-8.25319
▁Zu	-8.25344
ent	-8.25366
sten	-8.2553
▁years	-8.2555
▁As	-8.25593
▁anderen	-8.25781
ry	-8.25887
▁5	-8.26265
lo	-8.26394
▁Vi	-8.26793
▁those	-8.26807
▁Se	-8.26824
▁neue	-8.27032
▁For	-8.27092
▁If	-8.27121
land	-8.27424
▁system	-8.27799
”	-8.2791
▁di	-8.27943
▁want	-8.28137
ka	-8.28352
▁Welt	-8.28372
com	-8.28509
5	-8.28527
▁Mitgliedstaaten	-8.28544
▁immer	-8.28552
▁per	-8.28581
ik	-8.28712
ling	-8.28807
▁right	-8.29443
ti	-8.29722
▁policy	-8.30079
tra	-8.30337
▁may	-8.30563
ze	-8.30796
▁order	-8.3117
▁Wenn	-8.31561
▁own	-8.31679
▁Do	-8.31728
hr	-8.321
hi	-8.3214
che	-8.32222
▁dann	-8.32243
▁k	-8.32371
▁Ro	-8.32456
▁“	-8.32496
▁ob	-8.32588
▁Ihre	-8.32619
▁m	-8.32773
heit	-8.32907
▁b	-8.32914
▁U	-8.33085
ach	-8.33407
▁market	-8.33481
▁Z	-8.33699
do	-8.33917
▁10	-8.34342
▁dis	-8.34636
ler	-8.34641
ence	-8.34651
▁He	-8.34714
ance	-8.34758
▁seine	-8.34865
▁find	-8.34886
▁Diese	-8.35142
▁being	-8.35411
man	-8.3555
▁damit	-8.35706
▁even	-8.35857
▁gegen	-8.35932
men	-8.36341
▁Rat	-8.36401
ian	-8.36503
är	-8.36716
ga	-8.37585
fe	-8.37818
▁Frau	-8.37854
▁pre	-8.37885
di	-8.38403
os	-8.38502
ha	-8.38776
om	-8.38923
▁wurden	-8.39219
▁You	-8.39384
est	-8.39866
ier	-8.40132
▁diesen	-8.40164
%	-8.40222
ige	-8.40248
▁Entwicklung	-8.40288
nd	-8.40329
▁'	-8.4038
stand	-8.40391
▁area	-8.40597
▁ent	-8.40792
▁Menschen	-8.409
▁international	-8.4096
ert	-8.4124
▁...	-8.41322
▁year	-8.41503
zeit	-8.41673
▁Bo	-8.41917
▁development	-8.41941
▁d	-8.42025
▁wieder	-8.42487
▁20	-8.4267
her	-8.42721
▁under	-8.42947
▁see	-8.43692
▁unserer	-8.43968
▁ca	-8.44131
▁Europäische	-8.44238
▁habe	-8.4441
▁Nach	-8.44575
tre	-8.44578
ben	-8.44887
gel	-8.44916
▁sondern	-8.4501
▁zwei	-8.45081
▁here	-8.45172
▁national	-8.45352
▁real	-8.45547
up	-8.45577
sion	-8.4575
liche	-8.45879
chen	-8.45946
▁after	-8.45977
▁political	-8.46096
▁economic	-8.46379
▁jedoch	-8.46723
▁through	-8.46835
ster	-8.46849
lichen	-8.4696
no	-8.4716
mal	-8.47179
▁All	-8.47221
and	-8.47256
aus	-8.47455
ni	-8.47491
ot	-8.47521
nt	-8.47574
teil	-8.47608
▁public	-8.47623
▁Jahr	-8.47776
▁andere	-8.47882
▁No	-8.48354
ierung	-8.48398
▁her	-8.48765
▁same	-8.48971
▁possible	-8.49218
▁could	-8.49297
end	-8.49902
▁point	-8.50151
schaft	-8.50497
ex	-8.50582
mo	-8.50926
▁Um	-8.5115
▁heute	-8.51296
ard	-8.51556
ated	-8.51997
▁du	-8.52234
▁Sa	-8.52252
io	-8.52293
▁se	-8.52308
per	-8.52378
4	-8.52684
▁comp	-8.52746
va	-8.52847
▁number	-8.52852
▁form	-8.52993
▁end	-8.53313
▁Unternehmen	-8.53459
▁Un	-8.53604
▁process	-8.53623
ight	-8.53765
sa	-8.53829
▁There	-8.53851
isch	-8.53889
▁country	-8.54166
sp	-8.54177
ous	-8.54197
▁Man	-8.54228
▁does	-8.54669
ness	-8.54951
recht	-8.5505
▁Arbeit	-8.5521
▁fact	-8.55304
▁selbst	-8.55359
▁say	-8.55549
kommen	-8.55624
▁Euro	-8.55748
zi	-8.55778
▁within	-8.55788
▁le	-8.55823
▁best	-8.5592
▁both	-8.56027
▁modern	-8.56199
▁high	-8.56204
▁much	-8.5622
▁ohne	-8.56237
▁sollte	-8.56332
▁against	-8.56406
▁bereits	-8.56409
ak	-8.56429
ho	-8.56536
▁know	-8.56712
ungs	-8.56713
▁Al	-8.56879
▁6	-8.56965
ating	-8.56977
▁ihrer	-8.57031
mm	-8.57189
pe	-8.5728
ite	-8.57332
▁mich	-8.57338
vor	-8.58107
▁how	-8.5817
▁Frage	-8.58296
▁therefore	-8.58381
▁ganz	-8.58625
mit	-8.58677
▁great	-8.58716
da	-8.58729
▁rights	-8.58907
▁And	-8.58927
hl	-8.59049
▁free	-8.59128
▁used	-8.59238
▁view	-8.59434
▁po	-8.59477
rat	-8.59633
▁europäischen	-8.59839
wa	-8.5987
fa	-8.60037
▁last	-8.60137
▁Mo	-8.60145
ary	-8.60493
▁J	-8.6073
tic	-8.6078
▁help	-8.6078
ger	-8.60793
halten	-8.60801
ise	-8.60976
ber	-8.61005
▁neuen	-8.61321
▁social	-8.61498
▁Jahren	-8.61527
▁welche	-8.61551
▁viele	-8.61571
▁Co	-8.61738
one	-8.62251
ill	-8.62286
▁Land	-8.6243
▁long	-8.62437
▁different	-8.62467
gi	-8.62542
▁möglich	-8.62585
▁set	-8.62698
lu	-8.62767
▁still	-8.62867
▁believe	-8.63046
▁course	-8.63161
ag	-8.63195
▁think	-8.63428
▁Teil	-8.63659
▁without	-8.63689
j	-8.63838
ord	-8.64161
▁g	-8.64521
▁Fall	-8.64598
▁meine	-8.6461
▁get	-8.64751
▁Ta	-8.65066
▁ra	-8.65129
▁Art	-8.65537
tal	-8.65642
▁sollten	-8.65645
▁Lage	-8.65885
les	-8.65991
▁open	-8.66118
ang	-8.66205
▁System	-8.66709
▁Fa	-8.66728
▁Con	-8.66898
▁vi	-8.66905
▁Ar	-8.66982
bo	-8.6704
sh	-8.67138
▁finden	-8.67445
▁Bei	-8.67887
tro	-8.68026
▁every	-8.68155
▁services	-8.6833
str	-8.68389
ub	-8.68408
▁einige	-8.68478
▁bo	-8.68495
ton	-8.68519
▁18	-8.68875
▁weiter	-8.69029
▁available	-8.69036
▁US	-8.69069
▁global	-8.69158
▁room	-8.69367
▁w	-8.69405
▁Mittel	-8.69583
▁dazu	-8.69596
▁viel	-8.69675
▁large	-8.69758
▁Zimmer	-8.69778
▁bietet	-8.69802
▁human	-8.69824
▁bin	-8.69849
ür	-8.70024
con	-8.70073
art	-8.70128
▁Internet	-8.70234
ß	-8.70405
▁give	-8.70527
▁special	-8.70817
pa	-8.70994
▁At	-8.71022
▁Lo	-8.71128
▁ex	-8.71313
vo	-8.71363
▁einfach	-8.71614
▁before	-8.71651
▁liegt	-8.71841
▁small	-8.71876
▁machen	-8.7207
▁pa	-8.7212
▁able	-8.72216
▁already	-8.72224
▁future	-8.72343
tu	-8.7243
▁sch	-8.72441
ty	-8.72555
ator	-8.72661
iv	-8.72689
▁Bürger	-8.72797
▁But	-8.72894
▁15	-8.73006
so	-8.73025
0	-8.73136
▁Po	-8.73154
ual	-8.73157
▁weil	-8.73245
▁12	-8.73296
ld	-8.73427
ac	-8.735
▁inter	-8.73797
]]	-8.74086
▁service	-8.74201
lle	-8.74292
wi	-8.74436
▁darauf	-8.74526
▁issue	-8.74545
ations	-8.7463
▁Mar	-8.74665
pi	-8.74831
▁Über	-8.74852
ko	-8.74959
▁today	-8.75018
▁car	-8.7534
▁example	-8.7541
▁That	-8.75521
fer	-8.75614
los	-8.7576
▁Ka	-8.75772
ium	-8.75951
que	-8.75978
▁7	-8.7601
ell	-8.76047
the	-8.76082
▁seiner	-8.76143
mi	-8.76245
▁debate	-8.76374
▁jetzt	-8.76509
▁Ziel	-8.76549
▁access	-8.76637
▁hand	-8.76661
ende	-8.76765
red	-8.76892
▁Unter	-8.77034
qui	-8.77136
▁case	-8.77533
▁fa	-8.77574
▁provide	-8.77763
▁situation	-8.77785
ff	-8.77805
▁Ra	-8.77843
hn	-8.77854
▁cannot	-8.77949
▁data	-8.77973
▁Grund	-8.7805
keit	-8.78066
▁sa	-8.78335
▁Ba	-8.78339
zen	-8.78634
▁Commissioner	-8.78724
6	-8.78783
▁ihr	-8.78783
iz	-8.78941
▁Wie	-8.78975
ish	-8.79053
▁Bereich	-8.79067
▁schon	-8.79075
▁products	-8.79094
our	-8.79144
▁Maßnahmen	-8.79232
▁geht	-8.79265
ial	-8.79447
ies	-8.79561
▁question	-8.79664
▁Stadt	-8.79708
▁mir	-8.80085
▁Recht	-8.80166
port	-8.80528
▁level	-8.8053
▁Und	-8.80624
▁Informationen	-8.80643
▁gut	-8.80698
▁Problem	-8.80707
▁[[	-8.80836
▁back	-8.81007
tor	-8.81027
ction	-8.81031
ip	-8.8105
▁present	-8.81194
▁dafür	-8.8147
▁Bar	-8.81674
▁law	-8.81724
enden	-8.81845
▁seit	-8.81946
▁Rahmen	-8.81982
▁since	-8.82069
ative	-8.8213
▁too	-8.82232
▁financial	-8.82332
▁8	-8.82364
▁Na	-8.82457
ring	-8.82551
▁list	-8.82828
▁problem	-8.83066
ER	-8.83199
trag	-8.83303
▁go	-8.83581
▁Jahre	-8.83628
tion	-8.83661
▁&	-8.83808
auf	-8.83814
ud	-8.83974
ism	-8.84067
▁zurück	-8.84131
cht	-8.84146
▁proposal	-8.84706
▁day	-8.84709
▁city	-8.84722
▁offers	-8.84731
▁Ca	-8.84796
▁clear	-8.84912
▁action	-8.84937
arbeit	-8.85133
▁hin	-8.85333
▁China	-8.85373
ide	-8.85462
▁during	-8.8551
ting	-8.85594
▁allen	-8.85616
▁Ga	-8.85764
▁sub	-8.85787
bau	-8.86002
ow	-8.8612
▁close	-8.86149
▁Daten	-8.86211
▁said	-8.86411
pp	-8.8644
▁allem	-8.86655
▁position	-8.86667
▁Eine	-8.86816
ding	-8.86849
▁Herrn	-8.87208
▁vote	-8.87359
tri	-8.87458
▁Du	-8.87499
▁result	-8.87518
ap	-8.87579
▁play	-8.8761
▁würde	-8.878
9	-8.87971
▁far	-8.88007
▁2009	-8.88127
legen	-8.88172
form	-8.8818
▁means	-8.884
▁regard	-8.88521
▁%	-8.88545
▁ihren	-8.88603
od	-8.88798
▁pass	-8.89017
▁sp	-8.89083
▁Bi	-8.8909
gehen	-8.89121
▁Für	-8.89345
▁business	-8.89384
▁quality	-8.89449
▁control	-8.89473
▁ensure	-8.89732
▁h	-8.89755
ick	-8.90193
we	-8.90333
ef	-8.90349
tag	-8.90401
log	-8.90412
less	-8.9072
Z	-8.9073
ven	-8.90789
▁few	-8.90882
▁power	-8.90934
▁offer	-8.91099
lang	-8.91256
▁wollen	-8.9127
▁However	-8.91297
▁Ri	-8.91401
ure	-8.91487
▁Ja	-8.91523
ical	-8.91597
halt	-8.91718
ität	-8.91825
▁stay	-8.91887
▁found	-8.9195
▁große	-8.92001
▁particular	-8.92039
▁Service	-8.92135
▁common	-8.92158
▁With	-8.92186
▁including	-8.92314
▁Ne	-8.9233
▁Kon	-8.92359
ug	-8.92421
▁wäre	-8.92422
line	-8.92427
▁Our	-8.92548
geben	-8.92553
▁each	-8.92648
▁Politik	-8.9294
ast	-8.92941
á	-8.93216
▁Committee	-8.93328
▁während	-8.93363
▁unseren	-8.93516
EN	-8.93566
▁9	-8.93694
bi	-8.93712
X	-8.9384
son	-8.93995
▁rooms	-8.9424
stellen	-8.94271
▁experience	-8.94312
lä	-8.94412
▁hope	-8.9446
▁Me	-8.94513
ich	-8.94543
serv	-8.94683
▁zusammen	-8.9482
rt	-8.94823
▁Qu	-8.95063
▁On	-8.95115
rä	-8.95137
ör	-8.95141
net	-8.95155
▁Länder	-8.95204
mon	-8.95218
▁denen	-8.95233
▁nun	-8.95287
▁put	-8.95454
gang	-8.95457
▁three	-8.95493
ken	-8.95696
▁Regierung	-8.95816
▁Ru	-8.95838
pro	-8.95895
▁drei	-8.9594
ted	-8.95968
led	-8.96157
▁name	-8.96322
▁agreement	-8.96366
▁next	-8.96429
▁z	-8.96535
▁tun	-8.9654
▁doch	-8.96576
▁sagen	-8.96629
▁Vorschlag	-8.9664
▁life	-8.96648
▁etwas	-8.96738
▁denn	-8.96748
ा	-8.96885
ities	-8.97019
▁state	-8.97097
▁gra	-8.97332
▁30	-8.97413
▁measures	-8.97465
tain	-8.97588
politik	-8.97626
▁sicher	-8.97742
▁further	-8.97993
▁Form	-8.98289
▁account	-8.98325
▁citizens	-8.98345
▁site	-8.9835
▁energy	-8.98354
side	-8.98433
▁continue	-8.98517
▁stehen	-8.98648
▁become	-8.98857
▁insbesondere	-8.98942
ib	-8.99117
▁come	-8.9914
▁Ent	-8.99351
hm	-8.99447
Y	-8.99621
▁legal	-8.99829
▁Energie	-8.99848
▁call	-8.99892
fi	-8.99911
weg	-9.0007
▁second	-9.00085
▁ersten	-9.00087
▁sector	-9.00133
all	-9.00181
▁Weg	-9.00203
ru	-9.00328
▁Mi	-9.004
▁erhalten	-9.00556
▁Am	-9.00564
▁again	-9.00625
▁show	-9.00703
▁Kinder	-9.00774
▁Parlaments	-9.00892
ile	-9.00946
▁change	-9.00948
bel	-9.01122
nis	-9.01253
ja	-9.01318
▁Unterstützung	-9.01384
ions	-9.01417
▁einmal	-9.01593
je	-9.0163
▁taken	-9.01778
▁private	-9.01815
ized	-9.01881
▁Umwelt	-9.02059
▁Namen	-9.02424
▁soll	-9.02463
▁Markt	-9.02514
▁deal	-9.0252
▁ange	-9.02588
▁areas	-9.02588
cu	-9.02759
stellung	-9.02975
▁trade	-9.03034
▁Di	-9.03134
▁Group	-9.03165
▁War	-9.03189
▁ausge	-9.03204
▁natürlich	-9.03273
▁Th	-9.03299
▁art	-9.03489
fen	-9.03509
▁Kunden	-9.03589
mission	-9.03596
hol	-9.03793
▁down	-9.03832
out	-9.04091
▁respect	-9.04104
▁com	-9.04132
▁start	-9.04173
▁schnell	-9.04236
(	-9.04373
▁Pi	-9.04526
ward	-9.04561
uer	-9.04582
ally	-9.04729
hin	-9.04824
▁necessary	-9.04887
gu	-9.04928
▁Zusammenarbeit	-9.04957
▁fest	-9.05075
▁lassen	-9.05261
▁shall	-9.05309
▁company	-9.0538
▁Ex	-9.05394
▁Programm	-9.05433
▁Pla	-9.05447
lar	-9.05551
▁security	-9.05558
▁centre	-9.05626
bre	-9.05735
▁did	-9.05787
▁main	-9.05875
▁health	-9.05948
▁|	-9.0605
ts	-9.06216
▁direkt	-9.06316
▁water	-9.06357
▁klar	-9.06453
▁waren	-9.06595
▁t	-9.06657
▁why	-9.06799
▁weitere	-9.06869
▁while	-9.0688
ect	-9.06917
▁however	-9.0707
▁group	-9.07108
iger	-9.07114
▁given	-9.0714
sk	-9.07228
elt	-9.0734
▁beim	-9.07405
▁führen	-9.07506
▁su	-9.07512
igkeit	-9.07547
ina	-9.07611
lin	-9.07615
▁besteht	-9.07721
▁cooperation	-9.07771
▁wichtig	-9.07772
▁line	-9.07794
▁problems	-9.07818
▁X	-9.07845
▁Fl	-9.07852
▁live	-9.08272
▁look	-9.08278
mb	-9.08356
▁geben	-9.08368
▁Beispiel	-9.08475
des	-9.08506
▁/	-9.08646
▁Sicherheit	-9.08814
▁Tag	-9.08819
ability	-9.08832
▁located	-9.08843
▁protection	-9.09121
si	-9.09143
za	-9.09156
gemein	-9.09209
isation	-9.09346
anz	-9.09416
▁Ländern	-9.09433
▁Arbeits	-9.09445
bt	-9.095
cent	-9.0954
▁11	-9.09564
▁Car	-9.09632
▁House	-9.10045
▁ba	-9.10083
bra	-9.10219
▁sehen	-9.10332
▁wish	-9.10338
▁steht	-9.10361
kon	-9.10485
▁always	-9.10617
ere	-9.10651
cre	-9.10733
ue	-9.10767
▁i	-9.10769
7	-9.10848
reich	-9.10906
▁United	-9.11014
▁Finanz	-9.11339
igt	-9.114
po	-9.11404
▁Ho	-9.11417
bereich	-9.11645
▁short	-9.1182
▁individual	-9.11888
▁better	-9.11936
▁old	-9.11987
▁transport	-9.12039
uß	-9.12086
cher	-9.1222
sam	-9.12247
▁frei	-9.12362
▁dabei	-9.12467
▁local	-9.12532
▁New	-9.1255
▁Sp	-9.12578
▁wirklich	-9.12617
ba	-9.12617
о	-9.12784
tern	-9.12793
▁general	-9.12814
▁letzten	-9.12881
▁full	-9.12931
▁Fragen	-9.12932
▁personal	-9.13054
▁Was	-9.13168
tin	-9.13208
▁sh	-9.13218
by	-9.13284
▁ma	-9.13397
▁What	-9.13559
▁2008	-9.1362
8	-9.13685
king	-9.13739
ierte	-9.13858
▁2010	-9.13889
gg	-9.13962
berg	-9.13969
▁plan	-9.1397
gra	-9.13971
▁non	-9.14015
tet	-9.1413
▁USA	-9.14132
▁Richtlinie	-9.14501
▁wirtschaftliche	-9.14574
▁bitte	-9.14702
ron	-9.14738
programm	-9.14862
▁Kollegen	-9.14879
▁They	-9.14941
▁Mal	-9.15049
qu	-9.15097
vis	-9.15202
▁production	-9.15206
▁Inter	-9.15241
pf	-9.15256
ank	-9.15297
▁design	-9.15306
äng	-9.15321
▁gleich	-9.15322
▁current	-9.15323
▁16	-9.15493
▁14	-9.15582
▁Ko	-9.15606
20	-9.15708
▁ideal	-9.1572
ren	-9.15747
▁Community	-9.15769
▁del	-9.15808
▁Je	-9.1583
▁worden	-9.15901
▁muß	-9.15924
▁voll	-9.15929
▁kein	-9.1599
gt	-9.16037
ou	-9.16083
▁Kommissar	-9.16097
ries	-9.16101
elle	-9.16127
▁Ihr	-9.16204
▁around	-9.1621
▁less	-9.16277
▁lo	-9.16311
▁Bedeutung	-9.16438
spiel	-9.16511
▁enjoy	-9.16567
_	-9.16642
▁using	-9.16678
▁Verfügung	-9.16881
▁Gra	-9.16924
hen	-9.16992
▁Fe	-9.17015
ors	-9.1702
▁based	-9.17065
▁Ad	-9.17087
▁Ort	-9.17111
▁genau	-9.17318
▁ja	-9.17416
▁create	-9.17418
▁Dies	-9.17497
▁recht	-9.17542
sicht	-9.17545
ade	-9.17562
mark	-9.17566
▁Mu	-9.17573
▁Te	-9.17623
▁Gu	-9.17644
▁force	-9.17683
▁großen	-9.17721
ände	-9.17724
udi	-9.17754
▁17	-9.17874
▁Auto	-9.1788
▁million	-9.17899
IN	-9.179
▁working	-9.17907
▁Thema	-9.18121
val	-9.18166
▁certain	-9.18166
rm	-9.18197
ful	-9.1827
▁Seite	-9.18297
▁50	-9.18332
▁whether	-9.1857
▁Möglichkeit	-9.18678
▁sc	-9.18697
ture	-9.187
▁seinen	-9.18727
▁Bank	-9.18819
tung	-9.18877
▁When	-9.18908
▁Aber	-9.19008
wei	-9.19023
▁25	-9.19102
▁terms	-9.19201
▁needs	-9.1921
▁Hier	-9.19284
rü	-9.19293
ismus	-9.19427
▁Probleme	-9.1952
▁home	-9.19596
haft	-9.19605
▁budget	-9.19632
▁whole	-9.19689
▁Schutz	-9.19873
▁International	-9.19897
▁role	-9.19919
▁particularly	-9.1996
wert	-9.20045
▁ro	-9.20048
▁location	-9.20072
▁another	-9.20136
▁aller	-9.20164
ran	-9.20189
if	-9.20216
raum	-9.20218
▁function	-9.20255
▁Gebiet	-9.20371
50	-9.20376
act	-9.20394
▁subject	-9.20458
reg	-9.20494
way	-9.20559
▁children	-9.20605
▁together	-9.20633
ok	-9.20762
▁week	-9.20804
▁research	-9.209
▁kommen	-9.20964
enz	-9.20972
▁Meinung	-9.20994
▁These	-9.21119
▁step	-9.21228
▁Auch	-9.21233
▁product	-9.21271
gar	-9.21301
▁bar	-9.2138
▁German	-9.21428
plan	-9.21433
▁Lu	-9.21455
werk	-9.21518
▁Si	-9.21655
▁notwendig	-9.21656
▁Spiel	-9.21879
stitution	-9.21886
▁beach	-9.21958
▁welcome	-9.22001
▁bekannt	-9.22016
▁Alle	-9.2216
▁Ni	-9.22254
▁visit	-9.22277
tur	-9.22309
▁person	-9.22392
▁rapporteur	-9.22404
▁field	-9.22437
ration	-9.2263
▁dar	-9.22725
▁könnte	-9.22795
ible	-9.22851
▁Ende	-9.22853
▁je	-9.22856
▁Tra	-9.22896
▁bieten	-9.22943
▁davon	-9.23054
▁Or	-9.23058
]	-9.2315
lichkeit	-9.23162
▁Park	-9.23186
acht	-9.23186
▁resolution	-9.23196
▁San	-9.23227
▁Weise	-9.23272
▁Y	-9.23281
▁wissen	-9.2334
▁Neu	-9.2335
richt	-9.23359
▁Can	-9.23361
cur	-9.23428
▁government	-9.23451
lie	-9.23501
▁Zukunft	-9.23507
▁regional	-9.23568
▁Rolle	-9.23614
schen	-9.23617
▁gegenüber	-9.23628
▁Text	-9.23804
▁pi	-9.23878
▁positive	-9.24012
▁text	-9.24019
▁allow	-9.24022
▁bring	-9.24138
▁page	-9.24139
sta	-9.24213
▁address	-9.24264
ki	-9.24279
▁darüber	-9.24392
In	-9.244
▁km	-9.2441
har	-9.2443
of	-9.24488
▁specific	-9.2449
treten	-9.24564
▁tax	-9.24572
▁Wort	-9.24635
▁ad	-9.24736
▁erst	-9.24806
zahl	-9.24844
▁air	-9.25054
▁directive	-9.25054
row	-9.25093
igung	-9.25166
▁daher	-9.25169
ress	-9.25205
▁politische	-9.25246
▁Wahl	-9.25364
▁entfernt	-9.25386
pos	-9.25396
▁book	-9.25445
▁stellen	-9.25449
▁100	-9.25462
▁project	-9.25503
▁Frauen	-9.25616
▁matter	-9.25627
▁Als	-9.25649
mer	-9.25664
ces	-9.25665
ün	-9.25706
▁Haus	-9.25736
▁conditions	-9.25739
▁Durch	-9.25752
▁various	-9.25788
▁Restaurant	-9.25822
▁women	-9.25833
mittel	-9.25979
▁24	-9.26007
ah	-9.26074
▁na	-9.26252
▁El	-9.2646
▁companies	-9.26474
▁fast	-9.26531
▁politischen	-9.26648
▁eigenen	-9.26705
air	-9.26911
▁sowohl	-9.26955
int	-9.26992
▁unser	-9.27021
▁industry	-9.27092
▁basis	-9.27186
▁she	-9.27191
tel	-9.27201
▁guarantee	-9.27225
nder	-9.2728
▁Bau	-9.2729
gleich	-9.27303
▁risk	-9.27322
ock	-9.27328
▁erreichen	-9.27367
▁befindet	-9.27437
▁tra	-9.27464
org	-9.27535
AN	-9.27547
▁ask	-9.27634
isten	-9.2769
▁Qualität	-9.27754
eb	-9.27757
nahme	-9.27767
▁hatte	-9.27841
▁share	-9.27857
ev	-9.27932
▁Natur	-9.28112
▁issues	-9.28134
▁europäische	-9.28216
St	-9.28252
▁Haushalts	-9.28265
▁dort	-9.28272
▁solche	-9.28305
▁unterstützen	-9.28328
▁increase	-9.28399
lung	-9.28403
ob	-9.28406
▁third	-9.28454
ellen	-9.28504
▁13	-9.28558
▁gute	-9.2863
▁really	-9.28668
▁kon	-9.2883
erung	-9.29027
▁region	-9.29043
icht	-9.29065
DE	-9.29167
▁Jo	-9.29276
▁besonders	-9.293
▁2007	-9.29345
par	-9.29363
weit	-9.29579
▁especially	-9.29582
tik	-9.29586
▁Ihrer	-9.29589
▁l	-9.29592
▁speak	-9.29673
▁Schul	-9.29677
zer	-9.29686
▁[	-9.29791
organisation	-9.29818
▁ihnen	-9.29821
▁aim	-9.29966
▁meiner	-9.30051
▁Staaten	-9.30054
▁glaube	-9.30122
▁demand	-9.30148
30	-9.30168
▁period	-9.30173
gestellt	-9.30259
▁done	-9.30364
vel	-9.30477
ign	-9.3049
ists	-9.3054
▁neu	-9.30638
▁erste	-9.30641
ong	-9.30652
▁Rechts	-9.30687
AR	-9.30867
▁Preis	-9.30886
▁Com	-9.30994
▁programme	-9.3101
▁staff	-9.31015
haus	-9.31158
▁innerhalb	-9.31168
▁turn	-9.31232
▁verschiedenen	-9.31272
▁strong	-9.31276
▁building	-9.31299
ice	-9.31319
tten	-9.31458
▁lead	-9.31562
▁Anwendung	-9.31675
sol	-9.31706
▁test	-9.31708
▁accept	-9.31713
▁Situation	-9.31732
01	-9.31797
▁Wa	-9.31961
▁zwar	-9.32019
▁food	-9.32052
▁reform	-9.32104
▁favour	-9.32156
satz	-9.32183
▁sea	-9.32247
▁single	-9.32277
▁Su	-9.32282
schlag	-9.3234
mun	-9.3245
▁major	-9.32573
▁Fraktion	-9.32617
▁o	-9.32628
lic	-9.32704
▁approach	-9.32732
fin	-9.32749
▁weit	-9.3277
▁decision	-9.32811
▁Rück	-9.32826
use	-9.32861
▁stellt	-9.32862
▁request	-9.32893
▁systems	-9.32964
ins	-9.33147
ES	-9.33172
▁tri	-9.33202
ments	-9.33257
▁Dr	-9.33258
sche	-9.33261
▁EUR	-9.3331
▁complete	-9.33356
▁1.	-9.33383
▁Seiten	-9.33407
▁Spa	-9.33424
▁y	-9.33546
lage	-9.3366
ct	-9.33784
mmer	-9.33796
▁Haupt	-9.33838
ving	-9.33861
ified	-9.33969
▁among	-9.34007
▁document	-9.34009
▁Hand	-9.34036
▁cha	-9.34248
▁rec	-9.34266
000	-9.34269
du	-9.34394
▁Wettbewerb	-9.34395
▁Tre	-9.344
▁ne	-9.34402
▁environment	-9.34426
wo	-9.34517
▁exist	-9.34833
cken	-9.34844
▁sei	-9.34874
mor	-9.34966
ana	-9.34978
▁Germany	-9.34995
▁content	-9.35086
▁Wasser	-9.35114
▁organ	-9.35159
▁price	-9.35213
▁itself	-9.35239
sehen	-9.35391
RO	-9.35395
wirtschaft	-9.35453
▁Artikel	-9.35453
▁something	-9.35454
vision	-9.35458
ther	-9.3546
▁several	-9.35544
▁el	-9.35607
fo	-9.35771
lass	-9.35832
▁vielen	-9.35926
ship	-9.35929
ierten	-9.36127
▁thank	-9.36129
rate	-9.36252
र	-9.36307
system	-9.36346
▁mo	-9.36391
▁al	-9.36407
voll	-9.36461
ition	-9.36486
▁UN	-9.36533
▁kurz	-9.36588
▁kind	-9.36666
gabe	-9.36709
▁feel	-9.36714
▁Hilfe	-9.36772
▁house	-9.36778
ification	-9.36833
platz	-9.36871
▁range	-9.36879
▁total	-9.36943
▁post	-9.36947
▁least	-9.36963
kl	-9.36966
▁procedure	-9.3701
▁Software	-9.37013
än	-9.37036
▁language	-9.3707
▁offen	-9.37078
kan	-9.37134
▁Mrs	-9.3719
▁hinaus	-9.37265
punkt	-9.37344
▁Produkt	-9.37427
▁progress	-9.37429
▁town	-9.37476
▁Uhr	-9.37538
▁internationalen	-9.37587
▁li	-9.37723
handel	-9.37857
10	-9.37958
е	-9.37965
▁excellent	-9.37982
▁bed	-9.37985
atur	-9.37989
▁Geld	-9.38004
▁idea	-9.38059
▁consider	-9.38138
▁network	-9.38157
for	-9.38192
ale	-9.38311
▁making	-9.3833
▁type	-9.38337
ctor	-9.38339
▁serious	-9.38366
mod	-9.3847
▁agree	-9.38482
bri	-9.3853
ku	-9.38544
▁Pol	-9.38561
▁crisis	-9.38576
part	-9.38589
▁following	-9.38658
▁si	-9.38697
▁gentlemen	-9.38879
hör	-9.38931
▁stand	-9.38945
shop	-9.38945
schutz	-9.38958
ker	-9.38966
▁Bu	-9.38982
▁Pri	-9.39032
▁Minister	-9.39061
▁Sta	-9.39087
▁hard	-9.39187
▁Wi	-9.39209
▁contact	-9.39235
win	-9.39266
bin	-9.39286
▁represent	-9.39302
▁off	-9.39331
▁website	-9.39446
▁Funktion	-9.39451
▁Produkte	-9.3946
а	-9.39501
▁sign	-9.39515
ize	-9.39518
▁meeting	-9.39578
▁family	-9.39613
▁going	-9.39662
ari	-9.39689
og	-9.39721
▁away	-9.39763
lt	-9.39764
▁prevent	-9.39764
leg	-9.39777
▁Lösung	-9.39808
▁Schritt	-9.39885
▁möchten	-9.39899
ges	-9.40035
▁Schw	-9.40234
stoff	-9.40242
▁management	-9.4028
▁Pre	-9.40297
▁2000	-9.40305
▁forward	-9.40319
▁Berlin	-9.40359
ya	-9.40399
▁understand	-9.40428
pt	-9.40437
ult	-9.40493
|	-9.40527
▁benefit	-9.40638
pl	-9.40713
setzen	-9.40778
▁opinion	-9.40863
hab	-9.40958
▁bereit	-9.41071
▁act	-9.41089
CH	-9.41092
oc	-9.41144
akt	-9.41226
▁Cha	-9.41289
▁stark	-9.41422
▁World	-9.41458
▁Mon	-9.41596
▁near	-9.41654
zug	-9.4168
क	-9.41685
tan	-9.41699
▁key	-9.41704
day	-9.41725
möglich	-9.41725
▁Leben	-9.41775
▁money	-9.41805
Re	-9.41814
▁Region	-9.41914
▁rules	-9.41937
▁Ihren	-9.42125
▁growth	-9.42243
yer	-9.42281
▁etc	-9.42306
▁v	-9.42366
arch	-9.42428
▁towards	-9.42438
▁Punkt	-9.42447
fre	-9.42645
▁Fu	-9.42661
▁deutlich	-9.42762
▁Gesellschaft	-9.42783
▁institutions	-9.42873
▁reason	-9.42885
▁wenig	-9.42931
llen	-9.42954
▁online	-9.42961
▁little	-9.42962
isiert	-9.42964
ning	-9.43017
nde	-9.43051
▁alles	-9.4309
▁software	-9.4324
▁schön	-9.43255
▁once	-9.4327
nehmen	-9.4333
iti	-9.43392
▁Frei	-9.43397
EC	-9.43431
▁Personen	-9.43442
▁State	-9.43477
J	-9.43528
bot	-9.43709
▁erforderlich	-9.43964
af	-9.44018
▁send	-9.44056
▁until	-9.44086
▁National	-9.44091
vers	-9.44144
▁Gemeinschaft	-9.44195
▁difficult	-9.44251
▁Zusammenhang	-9.44264
ient	-9.44291
▁Kultur	-9.44297
▁ri	-9.4434
▁Madam	-9.44356
▁weltweit	-9.44413
tation	-9.44417
▁0	-9.44487
ble	-9.44492
▁light	-9.44569
▁care	-9.44571
и	-9.44595
▁version	-9.44651
▁Bild	-9.44686
▁things	-9.4472
dem	-9.44913
▁side	-9.44932
▁ta	-9.45009
ization	-9.45011
▁Projekt	-9.45027
▁pay	-9.45032
▁land	-9.45036
mail	-9.45077
▁require	-9.45135
▁besser	-9.45139
rück	-9.45169
▁him	-9.45177
▁natural	-9.45248
▁achieve	-9.45305
utz	-9.45359
▁Website	-9.45413
▁res	-9.45457
▁bi	-9.45468
▁jeder	-9.45555
ON	-9.45574
ktion	-9.45574
istic	-9.4558
▁value	-9.45604
▁beiden	-9.45606
▁etwa	-9.45635
▁trans	-9.45738
kri	-9.45776
OR	-9.45833
▁kommt	-9.4586
▁Treaty	-9.45922
press	-9.46117
▁program	-9.46178
▁opportunity	-9.46237
▁2006	-9.46367
▁rather	-9.4639
▁unserem	-9.46565
▁effective	-9.46565
▁interest	-9.46701
▁nie	-9.46733
▁Ti	-9.46733
▁Wirtschaft	-9.46765
wand	-9.46782
ral	-9.46864
▁abge	-9.46869
▁keep	-9.47081
▁Dis	-9.47119
▁Deutschland	-9.47176
▁Gen	-9.4725
▁Entschließung	-9.47272
▁Steuer	-9.47285
▁tr	-9.47285
bl	-9.47293
▁macht	-9.47412
▁bu	-9.47433
▁pu	-9.47505
▁Sol	-9.47548
ette	-9.47561
IT	-9.4767
tes	-9.47757
fern	-9.47882
▁Kosten	-9.47883
▁activities	-9.47961
chten	-9.48092
ris	-9.481
bei	-9.48111
▁los	-9.48118
ised	-9.48152
®	-9.48161
ident	-9.48243
▁check	-9.48336
▁customers	-9.48464
▁might	-9.48657
Ver	-9.48718
▁fair	-9.48721
fü	-9.48802
uf	-9.48853
▁include	-9.48856
len	-9.48861
▁game	-9.48895
ph	-9.48981
▁quite	-9.48994
ssen	-9.49016
▁Industrie	-9.49039
▁Verbraucher	-9.49057
ix	-9.4906
▁Partner	-9.49118
gesetzt	-9.4917
▁weniger	-9.49287
▁Web	-9.49292
tritt	-9.493
▁daran	-9.49396
▁dr	-9.49465
▁bzw	-9.49469
▁Abstimmung	-9.49573
träge	-9.49631
▁ha	-9.49682
▁remain	-9.49691
▁resources	-9.49698
▁que	-9.49735
▁entwickelt	-9.49777
▁port	-9.49842
▁aid	-9.49911
▁unterstützt	-9.49962
▁fe	-9.50114
ischer	-9.5014
▁wichtige	-9.50214
▁Millionen	-9.50303
ि	-9.5034
rit	-9.50441
iß	-9.50448
▁provided	-9.50452
▁behalf	-9.5047
▁einge	-9.50543
▁gemacht	-9.50581
ada	-9.50637
▁indem	-9.50666
pri	-9.50683
▁four	-9.50697
nnen	-9.50709
▁ho	-9.50928
▁yet	-9.51048
▁gilt	-9.51176
▁besondere	-9.51181
▁framework	-9.51182
▁bringen	-9.51203
▁music	-9.51275
▁days	-9.513
ica	-9.51322
dition	-9.51323
▁economy	-9.514
spect	-9.51466
▁add	-9.51597
▁Präsidentin	-9.51674
▁sogar	-9.51675
▁sur	-9.51708
▁gesagt	-9.51764
▁solution	-9.51829
zeug	-9.51832
▁After	-9.51887
▁travel	-9.51904
▁nämlich	-9.5196
▁Mai	-9.51968
AL	-9.51971
▁often	-9.51978
▁Deshalb	-9.52011
▁install	-9.52016
▁having	-9.52039
▁fully	-9.5214
The	-9.52168
ough	-9.52219
▁jeden	-9.52262
hy	-9.52289
▁Gegen	-9.52297
minister	-9.52316
▁September	-9.52377
▁gerade	-9.52406
▁Nord	-9.52459
▁Her	-9.52461
▁Wirtschafts	-9.5252
▁Ebene	-9.52613
chte	-9.52775
cc	-9.52812
▁night	-9.52868
н	-9.52897
▁Geschäfts	-9.52978
aff	-9.53002
▁Reform	-9.53049
▁technology	-9.5305
▁happen	-9.53087
unt	-9.53223
▁ti	-9.53245
bor	-9.53306
▁Unsere	-9.53373
▁acc	-9.53482
▁environmental	-9.53498
rank	-9.53563
▁ladies	-9.53563
ost	-9.53702
schi	-9.53714
▁heart	-9.53756
cor	-9.53853
ov	-9.53864
▁left	-9.53886
▁option	-9.53924
▁focus	-9.53928
ös	-9.5394
▁image	-9.54039
fu	-9.54073
heim	-9.54081
Berichterstatter	-9.54109
▁past	-9.5412
▁West	-9.54183
▁Hotels	-9.54189
▁ski	-9.54215
isierung	-9.54224
▁euro	-9.54255
dic	-9.54264
oper	-9.54312
▁draw	-9.54387
▁Rates	-9.5441
▁appear	-9.54431
Q	-9.54525
▁mar	-9.54539
Be	-9.54561
▁führt	-9.54605
▁mehrere	-9.54655
▁members	-9.5466
low	-9.5468
▁above	-9.54768
▁easy	-9.54794
lö	-9.54815
▁along	-9.54827
tribu	-9.54846
▁multi	-9.54855
▁ihn	-9.54872
▁bank	-9.54892
▁Kar	-9.5498
▁run	-9.5499
einander	-9.55159
fass	-9.55182
▁beautiful	-9.55333
▁safety	-9.55357
▁station	-9.55363
dy	-9.55384
▁Jahres	-9.55422
▁wide	-9.55465
्	-9.5547
í	-9.55507
▁21	-9.55528
▁Plan	-9.55541
schließen	-9.55567
▁central	-9.55608
▁charge	-9.55754
ps	-9.55763
▁meisten	-9.55816
▁nehmen	-9.55825
▁minutes	-9.55848
tz	-9.55849
▁recommend	-9.55889
▁amendments	-9.55959
▁Zugang	-9.55961
▁Ansicht	-9.56129
▁Weiter	-9.56133
▁Go	-9.56143
wer	-9.56213
▁Dienst	-9.56252
deck	-9.56272
▁moment	-9.56274
▁operation	-9.56275
setzung	-9.56277
▁Nicht	-9.56354
▁essential	-9.56369
▁ebenfalls	-9.56451
länder	-9.56454
▁Entscheidung	-9.56537
▁application	-9.56572
pon	-9.56581
▁taking	-9.5662
▁Gi	-9.56634
▁eigene	-9.56634
▁adopted	-9.56735
▁Dar	-9.56826
▁return	-9.56906
▁seinem	-9.56997
▁Produktion	-9.57008
▁Fo	-9.57029
▁Per	-9.5705
▁Dank	-9.57085
▁Fi	-9.57168
▁model	-9.57209
▁Meer	-9.57213
IS	-9.57256
▁statt	-9.57289
▁lange	-9.57354
▁Volk	-9.57397
met	-9.57419
▁Bezug	-9.57437
statt	-9.57482
▁darf	-9.57534
▁Wo	-9.57542
▁Vorschläge	-9.57583
tim	-9.57618
▁dessen	-9.57688
▁unterschiedlich	-9.57703
burg	-9.57715
▁Fin	-9.57725
rie	-9.57762
▁cost	-9.57777
▁Verfahren	-9.57802
ruf	-9.57883
▁addition	-9.57909
▁legislation	-9.5797
▁fundamental	-9.58004
jo	-9.5801
▁initiative	-9.58146
vention	-9.5815
▁ihm	-9.58187
kü	-9.58191
▁See	-9.58208
▁costs	-9.58233
▁perfect	-9.58255
▁verbunden	-9.58272
ön	-9.58291
▁Dieses	-9.58307
att	-9.58379
▁einzu	-9.58568
▁Organisation	-9.58595
▁darin	-9.58712
▁Tage	-9.58739
▁enable	-9.58827
ziel	-9.58852
ano	-9.58941
▁th	-9.59015
▁practice	-9.59027
fall	-9.59094
▁policies	-9.59129
eln	-9.59133
▁success	-9.59157
▁aufge	-9.59181
▁wesentlich	-9.592
▁Strategie	-9.59202
ute	-9.59321
ify	-9.59338
mil	-9.5935
▁One	-9.59417
▁handelt	-9.59448
▁called	-9.59456
▁standard	-9.59471
▁hoch	-9.59485
▁verschiedene	-9.59485
▁face	-9.59507
▁Rechte	-9.59519
▁Dieser	-9.59528
weisen	-9.59582
▁Aussprache	-9.59679
▁Bri	-9.5968
▁verwendet	-9.59694
▁Ost	-9.59717
▁pe	-9.5976
▁attention	-9.59802
▁2005	-9.59843
AT	-9.59854
▁Reise	-9.59877
▁investment	-9.60124
▁gehen	-9.60133
/20	-9.60403
▁opt	-9.60441
".	-9.60442
▁Erfolg	-9.60454
druck	-9.60566
▁proposals	-9.60606
nden	-9.60675
dienst	-9.60692
let	-9.60771
RE	-9.60773
▁freedom	-9.6081
▁Ze	-9.60841
▁Pe	-9.609
▁pri	-9.60907
▁inform	-9.60908
▁Ste	-9.60934
▁My	-9.6095
zone	-9.60968
▁öffentlichen	-9.6104
richten	-9.61051
can	-9.61088
▁Mitglied	-9.61105
▁education	-9.61106
▁sure	-9.61148
cho	-9.6119
▁Tu	-9.61267
▁move	-9.6128
lock	-9.61364
▁aktiv	-9.61385
▁hohe	-9.61421
mat	-9.61425
bu	-9.61461
▁schaffen	-9.61491
▁team	-9.61514
▁40	-9.61582
hor	-9.61602
verkehr	-9.61667
ack	-9.61691
▁Chi	-9.61708
▁dürfen	-9.61744
▁concerned	-9.6178
▁Grundlage	-9.61792
▁Str	-9.61883
▁Menschenrechte	-9.61991
ay	-9.62018
ütz	-9.62057
▁Lebens	-9.62108
▁young	-9.62111
▁space	-9.62207
▁apartment	-9.62317
▁reach	-9.62371
▁responsibility	-9.62372
ino	-9.62419
ties	-9.62439
lassen	-9.62477
▁principle	-9.62496
▁Instrument	-9.62505
▁Prozess	-9.62553
▁society	-9.62568
▁tool	-9.6259
ath	-9.62642
▁simply	-9.62645
▁2.	-9.62646
▁sport	-9.6273
▁Standard	-9.62738
▁Mitglieder	-9.62781
▁let	-9.62854
leistung	-9.62904
▁log	-9.62923
▁vier	-9.62972
▁capital	-9.62975
▁technical	-9.62996
▁erreicht	-9.63035
▁Fahr	-9.63109
▁Ve	-9.63136
ging	-9.63163
▁Nor	-9.63246
SE	-9.63295
▁importance	-9.63307
ek	-9.63312
▁Val	-9.63373
nach	-9.63398
ika	-9.63408
▁office	-9.63415
▁due	-9.63517
▁bedeutet	-9.63519
ziehen	-9.63556
nom	-9.6363
▁Europas	-9.6364
▁read	-9.63681
▁brauchen	-9.63689
▁Char	-9.63691
▁lot	-9.6371
▁direct	-9.63723
▁Port	-9.63743
lan	-9.63802
isse	-9.63826
▁anzu	-9.63919
▁Inhalt	-9.63961
rent	-9.63987
▁Trans	-9.63989
av	-9.64002
baut	-9.64008
▁ihrem	-9.64046
▁Jahrhundert	-9.64071
▁strategy	-9.64073
▁projects	-9.64084
▁package	-9.64173
res	-9.64228
▁stop	-9.64232
▁weiterhin	-9.64289
▁2004	-9.64537
▁Reihe	-9.64538
sitz	-9.64558
▁derzeit	-9.64642
ball	-9.64645
▁Antwort	-9.64665
▁card	-9.64728
▁Demokratie	-9.6478
nes	-9.64919
▁einigen	-9.65096
pul	-9.65121
▁normal	-9.65133
▁TV	-9.65157
schluss	-9.65167
▁results	-9.65204
▁road	-9.65297
feld	-9.6535
xi	-9.6539
▁Fund	-9.65405
über	-9.6548
▁method	-9.65529
▁greater	-9.65531
▁besten	-9.65625
▁challenge	-9.65665
▁holiday	-9.65673
▁Richtung	-9.65687
▁Wert	-9.65705
asse	-9.65819
▁speziell	-9.65861
▁professional	-9.659
▁develop	-9.65932
▁date	-9.65946
zimmer	-9.66004
ai	-9.66019
▁Angebot	-9.66035
für	-9.66037
▁Debatte	-9.66043
▁training	-9.66058
▁Such	-9.66088
▁Verantwortung	-9.66129
▁anti	-9.6613
▁recent	-9.66158
▁Vertrag	-9.66206
fil	-9.66256
essen	-9.66276
▁clean	-9.66277
▁sollen	-9.66288
▁Süd	-9.6632
▁gemeinsame	-9.66393
▁internal	-9.66594
▁Hu	-9.66627
ros	-9.66677
न	-9.66683
▁betrifft	-9.66742
ny	-9.66762
rn	-9.66768
ox	-9.66827
▁Members	-9.66839
▁Bal	-9.66866
folge	-9.66913
▁fi	-9.6694
gue	-9.66951
falls	-9.66981
▁user	-9.67007
▁significant	-9.67012
▁provides	-9.6711
hu	-9.67119
▁communication	-9.67137
▁Spe	-9.6716
over	-9.67167
OS	-9.67198
▁Che	-9.67202
▁gehört	-9.67205
▁auszu	-9.6721
▁rest	-9.67257
tum	-9.67324
▁fall	-9.67343
ising	-9.67349
è	-9.67356
▁Verbindung	-9.67371
▁Design	-9.67416
▁Den	-9.6744
▁Sport	-9.6746
ably	-9.67503
▁Sicherheits	-9.67506
▁sta	-9.67518
▁amount	-9.67532
▁required	-9.67558
pol	-9.67614
mann	-9.67633
▁nationalen	-9.67646
▁known	-9.67661
▁words	-9.67665
▁groups	-9.67743
▁Leistung	-9.67766
antwort	-9.67804
▁größere	-9.67842
▁authorities	-9.67921
▁breakfast	-9.67933
&	-9.6794
lit	-9.67982
wind	-9.67989
▁answer	-9.68121
▁Sozial	-9.68182
kenn	-9.68231
▁Schl	-9.68303
EL	-9.68305
tä	-9.68307
stell	-9.68329
▁standards	-9.68357
▁leben	-9.68371
▁Buch	-9.68378
▁aufgrund	-9.6844
▁hervor	-9.68524
▁Berg	-9.68563
blick	-9.68608
▁Umsetzung	-9.68654
▁via	-9.6866
▁super	-9.68668
े	-9.68847
mäßig	-9.68849
▁clearly	-9.68863
glich	-9.68915
▁Krise	-9.68942
▁te	-9.68946
mar	-9.68947
fahren	-9.68974
schl	-9.69019
▁original	-9.69033
ple	-9.69055
▁invest	-9.69057
▁deshalb	-9.69115
12	-9.69131
▁receive	-9.69142
▁head	-9.69163
struct	-9.69278
▁enter	-9.69294
Änderungsanträge	-9.69349
",	-9.69355
▁br	-9.69356
▁Gar	-9.69394
▁learn	-9.69429
▁suggest	-9.69431
▁würden	-9.69455
AS	-9.69495
▁Meine	-9.69607
▁meet	-9.69666
isieren	-9.69739
▁mean	-9.69769
▁Zahl	-9.69786
▁ru	-9.69845
▁competition	-9.6989
▁questions	-9.699
Mail	-9.69915
mut	-9.69936
▁protect	-9.6995
schein	-9.69964
▁Luft	-9.70005
▁fight	-9.70022
▁leicht	-9.70033
▁Nähe	-9.70042
▁relax	-9.70057
fertig	-9.70121
▁Initiative	-9.7014
▁Kunst	-9.70258
▁j	-9.70304
▁Gäste	-9.70349
▁lang	-9.70355
▁points	-9.70362
▁gu	-9.7037
▁richtig	-9.70392
▁American	-9.70411
▁cultural	-9.70447
see	-9.7045
▁erfolgreich	-9.70504
▁Wachstum	-9.70557
▁Privat	-9.70566
ep	-9.70599
▁einzige	-9.70623
▁keinen	-9.70625
▁according	-9.70686
▁November	-9.70693
▁Geschichte	-9.70733
sprechen	-9.70741
ett	-9.7077
rea	-9.70804
▁Von	-9.7083
▁event	-9.70845
▁rep	-9.70847
bli	-9.70849
rum	-9.70909
▁Version	-9.70934
▁23	-9.70937
find	-9.70946
AP	-9.71026
selbe	-9.71099
cul	-9.71105
▁)	-9.71132
▁makes	-9.71216
▁connection	-9.71227
▁cap	-9.71307
▁nature	-9.71345
▁peace	-9.71361
▁Tri	-9.71381
Office	-9.71413
▁employment	-9.71424
▁purpose	-9.71472
buch	-9.71484
▁Interesse	-9.71547
▁Technologie	-9.71587
▁Bevölkerung	-9.71664
position	-9.7176
▁kleine	-9.71901
teilung	-9.71957
▁Zusammen	-9.71969
▁nächsten	-9.71984
▁history	-9.7202
fragen	-9.7216
▁longer	-9.7217
cing	-9.72192
▁facilities	-9.72265
▁Wer	-9.72313
▁directly	-9.72314
ete	-9.7236
▁May	-9.72375
▁zeigt	-9.72439
pass	-9.72483
▁enough	-9.72486
▁aware	-9.72487
unter	-9.72552
▁civil	-9.72567
wal	-9.72658
▁Bas	-9.72708
▁ju	-9.72901
▁responsible	-9.72908
▁Windows	-9.72908
▁maintain	-9.72909
▁findet	-9.72916
▁months	-9.72956
▁:	-9.72988
▁proposed	-9.73017
fol	-9.73062
▁Russia	-9.73095
▁France	-9.73112
▁April	-9.73134
▁Außen	-9.73176
▁Verbesserung	-9.73181
▁foreign	-9.73226
▁Abkommen	-9.73226
▁fo	-9.73296
▁source	-9.73298
▁First	-9.73306
▁Paris	-9.73328
▁Betrieb	-9.73378
▁Mil	-9.73386
ular	-9.73487
▁nutzen	-9.73525
▁Israel	-9.73619
▁structure	-9.73642
zz	-9.73767
del	-9.73793
fahrt	-9.73856
▁Dokument	-9.73869
▁Ziele	-9.7387
dauer	-9.73883
▁allerdings	-9.73893
▁themselves	-9.73932
bringen	-9.74027
▁requirements	-9.74056
tiv	-9.741
▁discussion	-9.7416
▁record	-9.74188
werb	-9.74198
▁arm	-9.74199
▁currently	-9.74277
▁successful	-9.74316
▁limit	-9.74317
rus	-9.74331
ping	-9.7434
▁Africa	-9.74349
▁file	-9.74358
▁Not	-9.74446
▁Fri	-9.74484
▁machine	-9.74531
chan	-9.74532
gl	-9.74557
time	-9.74714
dig	-9.74801
stein	-9.74834
bas	-9.75025
▁apply	-9.75074
▁werde	-9.7513
▁By	-9.75154
how	-9.75199
abil	-9.75203
▁parties	-9.75218
rang	-9.75259
▁involved	-9.75343
tischen	-9.75345
▁va	-9.75365
▁Insel	-9.75365
kur	-9.75399
▁implementation	-9.75409
▁u	-9.7542
▁Selbst	-9.75477
▁beispielsweise	-9.75484
▁Handels	-9.75622
▁Kur	-9.75689
▁fl	-9.7575
wirk	-9.75836
▁commitment	-9.75859
▁committee	-9.75875
star	-9.75885
markt	-9.75969
vol	-9.7598
▁regulation	-9.76022
IP	-9.76029
▁Beschäftigung	-9.76044
▁improve	-9.76044
▁hoffe	-9.76047
▁Druck	-9.76058
▁Bedingungen	-9.76084
▁fünf	-9.76132
jahr	-9.76144
cker	-9.76149
▁min	-9.76182
▁interests	-9.7621
▁never	-9.76227
▁democracy	-9.76252
▁From	-9.7626
▁web	-9.76271
▁Mess	-9.7631
▁Tatsache	-9.76438
▁Musik	-9.76447
▁please	-9.76504
▁century	-9.7651
▁behind	-9.76527
▁pages	-9.76593
▁Mor	-9.76637
roll	-9.76694
▁contain	-9.76701
▁needed	-9.76716
▁Kan	-9.76729
▁Please	-9.76736
▁disc	-9.76737
▁vielleicht	-9.76777
amp	-9.76799
industrie	-9.76817
▁extremely	-9.769
▁Ch	-9.769
▁22	-9.76984
put	-9.77017
gebiet	-9.77019
▁unbe	-9.7706
▁voted	-9.77083
▁solutions	-9.77122
▁balance	-9.77133
▁guests	-9.77166
▁Raum	-9.77186
▁dank	-9.77203
▁weiß	-9.77314
▁effect	-9.77316
cri	-9.7732
▁versch	-9.77365
▁don	-9.77397
▁soziale	-9.77399
▁ago	-9.77439
▁illegal	-9.77441
▁efforts	-9.77451
▁times	-9.77488
▁cover	-9.77503
▁2003	-9.77507
▁gr	-9.77626
▁border	-9.77631
▁Cor	-9.77686
ux	-9.77722
▁Ju	-9.77733
▁views	-9.77741
denken	-9.77797
▁democratic	-9.77802
▁wohl	-9.77886
▁bus	-9.77889
▁restaurant	-9.77902
▁et	-9.7791
Ma	-9.77986
▁final	-9.78132
▁events	-9.78161
ulation	-9.78179
त	-9.78193
lauf	-9.78265
▁zentral	-9.7827
lon	-9.7828
ju	-9.78299
▁fr	-9.78328
▁unique	-9.78349
▁upon	-9.78358
▁eng	-9.78358
▁gegeben	-9.78378
▁follow	-9.78399
▁AG	-9.78414
▁big	-9.78499
▁Will	-9.7851
An	-9.78517
▁hold	-9.78527
▁South	-9.78573
▁contract	-9.7863
▁bevor	-9.78711
▁Col	-9.78715
hält	-9.78732
▁others	-9.78744
▁walk	-9.78807
tar	-9.78827
are	-9.7884
▁target	-9.78851
▁regions	-9.78891
▁enthalten	-9.7895
lot	-9.78998
▁gemeinsamen	-9.79022
▁additional	-9.79062
▁arbeiten	-9.79106
▁Ke	-9.79129
▁client	-9.79149
▁Mitarbeiter	-9.79158
▁sozialen	-9.79274
19	-9.79305
äch	-9.79316
arbeiten	-9.79317
ST	-9.79404
▁ermöglicht	-9.79448
▁item	-9.79493
▁heraus	-9.79494
setzt	-9.79496
▁schwer	-9.79509
▁Daher	-9.7952
unternehmen	-9.79527
▁Einsatz	-9.7953
▁appropriate	-9.7953
verständlich	-9.79563
▁low	-9.79564
▁implement	-9.79621
flu	-9.79626
▁GmbH	-9.79655
▁vo	-9.79684
▁000	-9.79685
gesellschaft	-9.79689
▁developed	-9.79701
ory	-9.79721
steuer	-9.79739
▁internationale	-9.79739
▁Angelegenheit	-9.79796
▁though	-9.79803
▁kleinen	-9.79827
poli	-9.7983
▁Red	-9.7986
eu	-9.79916
▁top	-9.79925
▁Frieden	-9.80018
gal	-9.80029
▁Entwicklungs	-9.80065
tlich	-9.80146
oo	-9.80153
mie	-9.80209
▁En	-9.80274
▁culture	-9.8028
▁Blick	-9.80281
van	-9.8035
▁basic	-9.80376
▁Bad	-9.80419
cia	-9.80425
last	-9.80483
▁soon	-9.80513
stimm	-9.80559
stan	-9.80601
▁situated	-9.8065
band	-9.80682
öl	-9.80704
▁pool	-9.80734
▁verfügt	-9.80742
▁Doch	-9.80769
▁Ihrem	-9.80782
▁comfortable	-9.80788
▁developing	-9.80788
▁either	-9.80818
▁rate	-9.80833
▁extra	-9.80861
▁Op	-9.80885
erweise	-9.80899
▁app	-9.80911
▁bleiben	-9.80942
▁60	-9.80983
cro	-9.81016
▁sprechen	-9.81053
▁Krieg	-9.81055
set	-9.81106
leit	-9.81111
▁negotiations	-9.81113
02	-9.81122
▁mind	-9.81145
▁digital	-9.81155
▁previous	-9.81349
▁mark	-9.81396
▁release	-9.81401
bro	-9.81692
tte	-9.81754
▁plant	-9.81774
▁player	-9.81788
▁computer	-9.81808
lose	-9.81856
▁schwierig	-9.81892
die	-9.81899
▁könnten	-9.81938
▁cause	-9.81965
ford	-9.81973
ric	-9.82028
rig	-9.82127
sign	-9.82132
▁Handel	-9.82153
▁mal	-9.82164
▁Sub	-9.82183
hilfe	-9.82242
▁media	-9.82349
▁Groß	-9.82387
gent	-9.82434
▁gemeinsam	-9.82473
stat	-9.82488
▁choice	-9.82498
▁Pu	-9.82499
▁Air	-9.82568
▁everything	-9.8261
▁French	-9.82781
▁ten	-9.82783
kosten	-9.82787
▁Datei	-9.82835
▁Erklärung	-9.82875
▁höchst	-9.82901
▁true	-9.82937
▁Damen	-9.8295
▁created	-9.82976
hof	-9.82983
table	-9.83099
sel	-9.83107
▁population	-9.83125
ili	-9.83138
cke	-9.83226
vent	-9.8323
▁Staats	-9.83269
▁Foto	-9.83279
▁climate	-9.83375
fach	-9.83412
Dienstleistungen	-9.83416
99	-9.83449
▁task	-9.83485
▁Landes	-9.83573
▁sound	-9.83584
▁Mer	-9.83596
▁Pra	-9.83615
▁fort	-9.83631
>	-9.83651
▁Iran	-9.83693
haltung	-9.837
▁Verordnung	-9.8375
▁denke	-9.83756
▁almost	-9.8379
▁Möglichkeiten	-9.838
ttle	-9.8386
bahn	-9.83861
▁promote	-9.83895
▁Auswirkungen	-9.8392
rei	-9.83956
▁gestellt	-9.84016
▁Kontrolle	-9.84042
▁statement	-9.84048
ori	-9.84082
▁talk	-9.84088
р	-9.8418
▁vorgeschlagen	-9.84207
▁Hinblick	-9.84238
▁Tour	-9.84256
▁Presidency	-9.84294
▁Fest	-9.84341
bare	-9.84387
▁abzu	-9.8439
▁Institutionen	-9.8442
unk	-9.84451
▁‘	-9.84599
▁changes	-9.8464
▁cl	-9.8464
▁€	-9.84644
tische	-9.84693
▁actually	-9.84722
ware	-9.84723
▁spa	-9.84758
▁Japan	-9.84784
▁thus	-9.84806
RA	-9.84827
▁innovative	-9.84862
▁living	-9.84878
▁later	-9.84885
▁class	-9.84887
▁Erweiterung	-9.84923
pre	-9.84926
▁transfer	-9.85009
Co	-9.8504
▁Nutzung	-9.85081
ort	-9.85085
▁prices	-9.85088
▁ebenso	-9.8509
▁Platz	-9.851
reichen	-9.85138
▁gleichzeitig	-9.85143
führen	-9.85216
▁Sal	-9.8534
car	-9.85343
▁Vo	-9.85363
▁Har	-9.85364
spolitik	-9.85421
ase	-9.85424
▁active	-9.85442
schau	-9.85543
▁traditional	-9.85589
▁tatsächlich	-9.85601
▁Kraft	-9.8561
gre	-9.85644
▁Nu	-9.85652
▁ground	-9.85678
▁Herren	-9.85739
▁lack	-9.85776
▁knowledge	-9.85777
lau	-9.85804
liegen	-9.85815
kehr	-9.85831
▁pla	-9.85901
▁correct	-9.85904
mobil	-9.85915
▁Diskussion	-9.85946
▁Zentrum	-9.85999
nten	-9.86029
▁outside	-9.86038
▁Video	-9.86051
▁halten	-9.86069
rufen	-9.8615
▁produce	-9.86176
▁Room	-9.86184
▁Film	-9.86217
▁treat	-9.86256
▁Seit	-9.86308
▁official	-9.86327
▁Verwaltung	-9.86336
▁Liste	-9.8634
▁bisher	-9.86361
▁held	-9.86377
qua	-9.86389
▁gelten	-9.86392
▁warm	-9.86449
▁included	-9.86459
▁establish	-9.86494
▁schriftlich	-9.86511
▁train	-9.86543
▁author	-9.86552
tail	-9.86593
▁Mark	-9.86684
▁Bildung	-9.86698
▁Änderungsantrag	-9.86712
▁vollständig	-9.86739
genommen	-9.86756
▁stage	-9.86799
▁Minuten	-9.86802
80	-9.86817
▁term	-9.86852
meter	-9.86895
oph	-9.86904
▁Ergebnis	-9.86922
▁context	-9.86988
▁Einzel	-9.86999
▁picture	-9.87023
▁nahe	-9.87082
▁thing	-9.8714
▁strengthen	-9.87158
fr	-9.87225
▁Interessen	-9.87263
▁America	-9.87356
▁mountain	-9.87445
▁Viele	-9.87556
lag	-9.87561
ó	-9.87645
▁cut	-9.87651
▁treatment	-9.87665
▁cor	-9.87709
▁Familien	-9.87736
ati	-9.87759
▁join	-9.87765
▁download	-9.8778
stelle	-9.87807
▁states	-9.87823
03	-9.87829
▁center	-9.87855
▁sal	-9.8801
bal	-9.88044
+	-9.88074
rad	-9.8809
legt	-9.88093
▁auto	-9.88115
▁cases	-9.88122
kraft	-9.88148
▁Bur	-9.88167
▁school	-9.88276
▁ship	-9.88296
▁Ergebnisse	-9.88297
gelegt	-9.88374
▁hätte	-9.88388
▁setting	-9.88409
▁began	-9.88411
▁workers	-9.88419
fähig	-9.88446
licher	-9.88448
▁liegen	-9.88462
▁How	-9.8849
werte	-9.88499
▁sl	-9.88546
frei	-9.88555
seitig	-9.88592
els	-9.88743
▁Einrichtung	-9.88773
sicherheit	-9.88837
leben	-9.88847
ban	-9.88853
▁darum	-9.88857
▁Let	-9.88862
▁Stimm	-9.8892
ht	-9.88947
▁tourist	-9.88958
▁majority	-9.88972
▁Ausdruck	-9.88974
▁deine	-9.88984
▁comment	-9.88988
▁concept	-9.89021
fra	-9.89113
▁simple	-9.89159
▁North	-9.8921
▁Prä	-9.89211
▁comes	-9.89268
▁jene	-9.89278
▁Abgeordneten	-9.89395
▁love	-9.89401
▁famous	-9.89407
▁Dialog	-9.89441
▁express	-9.89447
▁Tier	-9.89464
▁customer	-9.89464
▁Reg	-9.89492
▁einzelnen	-9.89498
▁floor	-9.89501
▁potential	-9.89517
▁impact	-9.89554
▁später	-9.89639
▁funds	-9.89647
▁gesamten	-9.89664
laden	-9.89691
▁Forschung	-9.89751
▁Some	-9.89755
▁designed	-9.89757
rom	-9.89813
halb	-9.89895
▁hatten	-9.89995
▁early	-9.89997
▁link	-9.89999
▁weiteren	-9.90057
ement	-9.90062
:00	-9.90063
''	-9.90064
▁para	-9.90146
frag	-9.90159
▁Regionen	-9.90171
▁five	-9.90201
▁Sprache	-9.90224
▁konnte	-9.90231
▁Kolleginnen	-9.90257
▁Position	-9.90338
▁performance	-9.90346
bild	-9.9036
az	-9.90407
▁par	-9.9047
ax	-9.9047
tisch	-9.90487
lf	-9.90492
▁markets	-9.90524
▁Programme	-9.90552
▁rund	-9.90554
ination	-9.90577
▁throughout	-9.90592
ständig	-9.90625
view	-9.90645
▁Russland	-9.90652
▁Herausforderung	-9.9068
▁jede	-9.907
▁Kontakt	-9.90727
▁video	-9.90732
▁Government	-9.90745
▁ko	-9.90762
▁London	-9.90782
▁Außerdem	-9.9082
▁emp	-9.90874
▁danken	-9.9089
q	-9.90924
▁wider	-9.90928
▁reg	-9.90981
fehl	-9.91011
▁ausgestattet	-9.91015
▁Ph	-9.91096
▁lu	-9.91123
▁photo	-9.91274
▁Fisch	-9.91296
▁guest	-9.91311
▁vari	-9.91351
▁Freiheit	-9.91381
▁angenommen	-9.91388
▁demokratisch	-9.91426
60	-9.91542
▁payment	-9.91565
eller	-9.91616
wende	-9.9165
▁Verhandlungen	-9.9167
▁Court	-9.91711
▁ever	-9.91771
т	-9.91835
▁looking	-9.91863
istischen	-9.91883
▁Beziehungen	-9.91905
zo	-9.92013
▁Para	-9.92045
sektor	-9.92079
▁gar	-9.92097
▁Vereinigten	-9.92115
sucht	-9.92164
▁Mont	-9.92169
▁unit	-9.92195
▁hinter	-9.92196
cal	-9.92275
▁pra	-9.92293
▁August	-9.92442
seite	-9.92492
▁Team	-9.92522
cient	-9.92526
itz	-9.92534
tätig	-9.9255
cy	-9.926
▁features	-9.92647
▁across	-9.92651
▁Personal	-9.92702
chter	-9.92716
kauf	-9.92761
lei	-9.9279
▁Unser	-9.92797
▁certainly	-9.92826
zunehmen	-9.92853
laub	-9.92972
▁General	-9.93046
termin	-9.93076
▁Freund	-9.93077
mul	-9.93108
▁writing	-9.93115
▁message	-9.93115
▁jedem	-9.93128
▁ban	-9.93144
▁damage	-9.93145
▁mag	-9.93218
lagen	-9.93252
▁Austria	-9.93292
▁Förderung	-9.93293
mä	-9.93306
▁extend	-9.93424
▁befinden	-9.93428
45	-9.93507
▁island	-9.93517
▁bestehen	-9.93539
term	-9.9355
▁Farb	-9.93573
▁code	-9.93638
▁Online	-9.93677
tech	-9.93697
RI	-9.93701
▁half	-9.93764
scheid	-9.93787
ique	-9.93829
▁table	-9.93857
innen	-9.93883
▁exchange	-9.93985
fallen	-9.94064
▁Information	-9.94079
▁draft	-9.94101
▁advance	-9.94119
▁member	-9.94136
▁höher	-9.94168
AC	-9.94175
▁wahr	-9.94185
▁Even	-9.94216
▁divers	-9.94221
▁2002	-9.94223
ically	-9.94228
▁joint	-9.94303
▁depend	-9.94305
▁Turkey	-9.94312
pekt	-9.94318
▁front	-9.94342
führung	-9.94415
▁Ä	-9.94426
geführt	-9.94436
▁hours	-9.94444
▁neben	-9.94552
▁seen	-9.94553
▁size	-9.94593
ME	-9.94598
▁80	-9.94608
▁cross	-9.94624
▁mentioned	-9.9472
▁complex	-9.94727
ose	-9.94742
▁men	-9.94753
▁threat	-9.94921
15	-9.94924
▁II	-9.94931
bat	-9.94935
▁search	-9.94947
ves	-9.94965
▁2001	-9.94975
daten	-9.94999
load	-9.9503
▁27	-9.95053
IC	-9.9513
▁took	-9.95161
▁App	-9.95169
▁Gefahr	-9.95226
▁leave	-9.95227
▁existing	-9.95232
▁Juni	-9.95253
▁Bro	-9.95255
▁Wal	-9.95371
ators	-9.95394
▁material	-9.95408
▁relations	-9.95472
▁entire	-9.95482
▁firm	-9.95485
▁Aufgabe	-9.95629
▁Bereichen	-9.95695
▁gesch	-9.95699
▁helfen	-9.957
▁Of	-9.95706
▁gering	-9.9575
▁mon	-9.95756
liefer	-9.95804
▁doing	-9.95811
▁Ob	-9.95815
▁Zum	-9.95824
▁heißt	-9.95865
▁Villa	-9.95866
▁character	-9.95867
▁seek	-9.9588
ley	-9.95897
▁kom	-9.95953
▁equal	-9.96009
▁Benutzer	-9.96024
▁absolut	-9.96029
▁Kampf	-9.96104
gegeben	-9.96117
▁Gelegenheit	-9.96159
▁refer	-9.96164
▁nu	-9.96176
▁conflict	-9.96198
▁sent	-9.96229
MA	-9.96243
▁military	-9.96257
stände	-9.96262
▁Best	-9.96267
▁setzen	-9.96319
▁gab	-9.96351
▁sense	-9.96364
lement	-9.96376
▁try	-9.96396
▁concerning	-9.9645
▁links	-9.96456
▁contribution	-9.96513
▁reflect	-9.96535
▁Alb	-9.96551
CE	-9.96568
▁movement	-9.96576
▁völlig	-9.96582
ij	-9.96612
▁factor	-9.96643
▁Mass	-9.96661
stor	-9.96679
▁although	-9.967
▁Macht	-9.96735
▁wine	-9.96755
istische	-9.96764
ffen	-9.96774
kal	-9.96838
▁Bre	-9.96861
▁Türkei	-9.96878
▁eigentlich	-9.96888
▁print	-9.96913
wiesen	-9.96934
▁Beitrag	-9.96941
weise	-9.97023
▁nothing	-9.97049
ender	-9.9705
▁film	-9.97058
▁spend	-9.97059
▁star	-9.97063
▁community	-9.97101
▁Va	-9.97138
▁animal	-9.97141
LA	-9.97213
▁gegenwärtig	-9.97224
▁Aktion	-9.97266
▁Dritte	-9.97298
▁users	-9.97372
▁deliver	-9.97372
▁concerns	-9.97425
▁completely	-9.97515
▁Verpflichtung	-9.97553
▁export	-9.97561
ativ	-9.97584
▁fail	-9.97597
▁High	-9.97603
▁Verkehrs	-9.97623
▁Themen	-9.97662
activ	-9.97673
sicher	-9.97681
▁built	-9.97712
▁bra	-9.97758
▁objective	-9.97799
▁suit	-9.97844
▁direction	-9.97849
▁drive	-9.9785
▁Za	-9.9785
bit	-9.9786
▁Ausschuss	-9.97905
▁alternative	-9.97961
▁Kern	-9.97966
▁English	-9.97991
ET	-9.97991
grund	-9.98009
▁Monat	-9.98013
▁leading	-9.98059
greifen	-9.98077
▁claim	-9.98131
rry	-9.98138
▁$	-9.98237
▁Informations	-9.98242
▁Fuß	-9.98355
▁East	-9.98363
▁Urlaub	-9.98376
pli	-9.98419
old	-9.98435
▁related	-9.98554
▁geführt	-9.98603
zustellen	-9.98605
▁friendly	-9.9862
war	-9.98633
han	-9.98676
▁mini	-9.9872
▁Höhe	-9.98733
в	-9.98743
▁Mag	-9.98774
▁relevant	-9.98832
200	-9.98872
▁concern	-9.98884
ym	-9.99028
▁internet	-9.99031
▁Werk	-9.99122
▁bleibt	-9.99146
teile	-9.99167
▁Sam	-9.99176
▁nice	-9.99178
11	-9.99181
▁bestimmte	-9.99205
▁persönlich	-9.99207
produkt	-9.99231
▁Ur	-9.99264
▁äußerst	-9.99288
▁Dem	-9.99364
sagt	-9.99475
ी	-9.99511
▁avoid	-9.99563
chi	-9.99566
▁rich	-9.99613
EG	-9.99646
▁tell	-9.99741
ßt	-9.99771
▁Tur	-9.99778
▁umfassende	-9.99839
zuführen	-9.9985
▁double	-9.99867
ious	-9.99871
▁PC	-9.99946
ook	-9.99952
▁programmes	-9.9999
ged	-10.0001
fug	-10.0001
▁Since	-10.0003
▁*	-10.0006
▁ganze	-10.0008
kel	-10.001
▁advantage	-10.0011
▁1999	-10.0016
gegangen	-10.0022
inter	-10.0022
top	-10.0034
ici	-10.0038
▁equipment	-10.0042
▁Link	-10.0042
▁Dinge	-10.0042
ney	-10.0043
▁press	-10.0044
prä	-10.0055
til	-10.0057
▁rule	-10.0058
▁Anfrage	-10.0059
▁Free	-10.006
▁90	-10.0061
fried	-10.0061
▁Post	-10.0062
▁south	-10.0069
▁mein	-10.0078
▁reasons	-10.008
por	-10.0081
▁Ki	-10.0088
oni	-10.0092
▁established	-10.0094
▁Frankreich	-10.0097
▁letzte	-10.01
ssystem	-10.0103
▁poor	-10.0103
▁credit	-10.0107
▁red	-10.0108
▁entscheidend	-10.011
▁gestimmt	-10.0115
▁mass	-10.0121
▁Konferenz	-10.013
▁Idee	-10.013
▁received	-10.0131
uell	-10.0132
▁jobs	-10.0137
▁safe	-10.0137
▁Jede	-10.014
bü	-10.0147
politische	-10.0149
▁Arm	-10.0151
▁Folgen	-10.0152
▁village	-10.0152
▁Ausschusses	-10.0155
▁attack	-10.0156
▁Au	-10.0162
▁CD	-10.0162
▁nor	-10.0165
▁reduce	-10.0171
ini	-10.0177
▁Fehler	-10.0178
▁Transport	-10.0179
issen	-10.018
fälle	-10.0182
▁Vorteil	-10.0182
▁body	-10.0186
▁Bitte	-10.0188
▁aufzu	-10.0188
▁response	-10.0193
▁Test	-10.0194
▁Maß	-10.0195
▁Strand	-10.0197
welt	-10.0201
▁zweite	-10.0201
grad	-10.0202
struktur	-10.0204
▁Behörden	-10.0207
▁wichtigen	-10.0208
▁Augen	-10.0212
▁confirm	-10.0213
▁Hin	-10.0215
▁bekommen	-10.022
▁freue	-10.0224
▁street	-10.0224
tlichen	-10.0226
▁Damit	-10.0233
merk	-10.0235
▁Staat	-10.0238
acy	-10.0241
liegende	-10.0245
dis	-10.0245
▁Christ	-10.025
▁Verwendung	-10.025
test	-10.0251
▁Ku	-10.0261
▁Lisbon	-10.0268
▁extrem	-10.027
▁decisions	-10.0279
▁wegen	-10.0282
▁Central	-10.0286
▁goal	-10.0287
▁Bru	-10.0289
▁conclusion	-10.0294
▁Gewalt	-10.0294
▁200	-10.0297
ink	-10.0302
▁includes	-10.0305
▁Gemeinschafts	-10.0308
▁begin	-10.031
▁Wein	-10.0312
▁jedes	-10.0313
▁beginning	-10.0315
▁gelegen	-10.0322
ida	-10.0324
▁wichtigsten	-10.0325
park	-10.033
▁Forderung	-10.0331
▁Thank	-10.0333
▁style	-10.0334
▁hinsichtlich	-10.0337
preis	-10.0342
▁self	-10.0347
gebracht	-10.0349
▁quickly	-10.0353
▁gerne	-10.0361
▁schw	-10.0363
pat	-10.0363
pan	-10.037
▁wobei	-10.0377
▁Sektor	-10.0377
▁unabhängig	-10.0383
box	-10.0385
TM	-10.0386
▁zweiten	-10.0392
▁objectives	-10.0392
räume	-10.0394
▁representative	-10.0396
▁job	-10.0396
▁agricultural	-10.0397
app	-10.0401
▁Barcelona	-10.0408
▁Fra	-10.0411
▁airport	-10.0417
alität	-10.0417
▁keyword	-10.0417
▁regarding	-10.0419
▁Affairs	-10.0428
▁partners	-10.043
▁Wochen	-10.0431
▁Gruppe	-10.0431
▁meinen	-10.0433
stieg	-10.0437
▁below	-10.0439
hand	-10.0439
tage	-10.0447
▁oil	-10.0452
▁Hause	-10.0459
▁Auswahl	-10.0464
▁values	-10.0464
wohn	-10.0465
13	-10.0466
▁sun	-10.0468
TE	-10.0474
▁Erfahrung	-10.0487
▁Management	-10.049
▁elegant	-10.0491
schrei	-10.0495
▁Aufenthalt	-10.0503
▁Lissabon	-10.0503
▁dialogue	-10.0503
▁Vertrags	-10.0503
cer	-10.0505
▁ermöglichen	-10.0505
where	-10.051
▁Hi	-10.051
ski	-10.0515
jährige	-10.0522
▁Standpunkt	-10.0523
▁party	-10.0525
32	-10.053
fect	-10.0535
alter	-10.0535
▁conference	-10.0547
▁popular	-10.0547
ruh	-10.0549
य	-10.0553
ject	-10.0558
▁zeigen	-10.0561
▁Ski	-10.0562
▁Here	-10.0565
▁industrial	-10.0566
▁broad	-10.0566
▁display	-10.0567
▁met	-10.057
bb	-10.057
▁Person	-10.0575
▁Integration	-10.0575
▁ausgezeichnet	-10.0587
trieb	-10.0587
atory	-10.0592
▁huge	-10.0602
▁spielen	-10.0604
▁Article	-10.0604
ifi	-10.061
tliche	-10.0614
▁Mehr	-10.0615
wie	-10.0615
▁recently	-10.0618
▁accommodation	-10.0618
▁Tat	-10.0623
▁konkrete	-10.0624
▁enthält	-10.0627
uff	-10.063
▁Schaffung	-10.0634
gin	-10.0635
cycl	-10.0639
▁Beitritt	-10.0643
usch	-10.0643
komp	-10.0647
zeichnung	-10.0651
▁Binnenmarkt	-10.0651
▁choose	-10.0651
▁Gesamt	-10.0656
▁geeignet	-10.0658
▁Computer	-10.0658
hnen	-10.0661
▁Notwendigkeit	-10.0662
▁pressure	-10.0666
▁Miss	-10.0667
zusetzen	-10.0669
▁Now	-10.0671
▁Museum	-10.0671
▁gehören	-10.0674
▁kam	-10.0674
▁manage	-10.0683
▁City	-10.0684
AM	-10.0687
vin	-10.0687
▁allows	-10.0688
▁qua	-10.0691
▁discuss	-10.0696
▁indeed	-10.0703
▁carry	-10.0703
cel	-10.0709
baren	-10.0711
▁applications	-10.0714
▁Anfang	-10.0719
▁Juli	-10.0725
▁grant	-10.0727
▁Organ	-10.0727
kor	-10.0728
▁adopt	-10.0731
▁Comp	-10.0731
▁seems	-10.0732
▁prove	-10.0737
col	-10.0737
▁Liefer	-10.074
▁Wohn	-10.0743
ähr	-10.0746
▁separate	-10.0747
▁+	-10.0749
ED	-10.0751
▁stärker	-10.0758
▁discover	-10.0762
cies	-10.0764
stadt	-10.0768
sicherung	-10.0773
zig	-10.0773
cle	-10.0775
sweise	-10.0779
mel	-10.078
▁Bra	-10.0782
gründe	-10.0783
▁Finally	-10.0789
▁Gesundheit	-10.0791
▁agreements	-10.0793
▁Fach	-10.0798
▁billion	-10.0801
▁zahlreiche	-10.0802
▁Fischerei	-10.0802
effizient	-10.0805
▁verbessern	-10.0806
▁achieved	-10.081
▁Club	-10.0812
▁sagte	-10.0814
▁June	-10.0817
DI	-10.0818
kla	-10.0819
stimmung	-10.0826
▁six	-10.083
▁Arbeitnehmer	-10.0831
▁efficient	-10.0846
▁lässt	-10.0847
▁integration	-10.0849
▁mobile	-10.0858
▁section	-10.086
▁gas	-10.0861
US	-10.0862
▁difference	-10.0864
40	-10.0865
maßnahmen	-10.0872
▁word	-10.0881
duc	-10.0881
partner	-10.0882
stehende	-10.0882
▁York	-10.0886
board	-10.0895
70	-10.09
UR	-10.0901
▁highly	-10.0904
dri	-10.0905
▁Golf	-10.0911
▁Amsterdam	-10.0912
▁measure	-10.0912
▁Währung	-10.0916
▁Amendment	-10.0919
ency	-10.0925
▁update	-10.0928
ließ	-10.093
▁Darüber	-10.0931
▁attempt	-10.0939
▁independent	-10.0942
richtung	-10.0947
gli	-10.0949
lea	-10.0953
eur	-10.0959
▁Regelung	-10.096
ham	-10.0963
▁object	-10.0964
▁expect	-10.0965
▁voran	-10.0966
▁foot	-10.0967
▁Frühstück	-10.0967
▁Off	-10.097
▁Umgebung	-10.0971
▁She	-10.0972
▁Woche	-10.0975
▁Zeitpunkt	-10.0975
▁base	-10.0977
▁liberal	-10.0978
▁erklärt	-10.0981
▁series	-10.0985
SP	-10.0989
rich	-10.0992
▁Anti	-10.0993
..."	-10.0995
▁Ukraine	-10.0997
▁equipped	-10.0999
▁increased	-10.1001
▁garden	-10.1006
▁finanzielle	-10.1006
▁ruhig	-10.1007
mitteln	-10.1009
▁Chance	-10.1011
▁Preise	-10.1013
▁che	-10.1018
schrift	-10.1025
▁Star	-10.1026
▁hinzu	-10.1026
▁tradition	-10.1028
▁supply	-10.1028
▁presented	-10.103
▁everyone	-10.1031
▁amendment	-10.1036
▁whose	-10.1039
▁Landwirtschaft	-10.1039
▁block	-10.1041
▁Finanzierung	-10.1041
▁allein	-10.1043
national	-10.1046
▁came	-10.1047
▁contribute	-10.1047
▁takes	-10.1048
elect	-10.1052
▁verwenden	-10.1056
▁carried	-10.1062
lia	-10.1063
bericht	-10.1065
Innen	-10.1067
▁higher	-10.1071
▁contains	-10.1074
▁Gericht	-10.1076
▁works	-10.108
▁Material	-10.1082
▁deep	-10.1086
▁click	-10.1087
▁Vertreter	-10.1092
▁similar	-10.1101
▁verfügen	-10.1101
▁Hoch	-10.1103
▁Studie	-10.1111
leid	-10.1111
cial	-10.1111
▁miss	-10.1113
dra	-10.1114
▁Italien	-10.1114
systeme	-10.1122
▁Last	-10.1124
▁parts	-10.1129
▁gl	-10.1133
▁files	-10.1133
▁mode	-10.1136
ology	-10.1137
▁perhaps	-10.1138
▁encourage	-10.1148
▁ganzen	-10.1149
bie	-10.1149
▁His	-10.1153
▁Arbeitsplätze	-10.1154
heben	-10.1156
▁Schiff	-10.1161
▁governments	-10.1164
▁Sommer	-10.1165
▁Küche	-10.1166
▁Karte	-10.1167
—	-10.1169
▁häufig	-10.1169
sfähigkeit	-10.1175
▁Gebäude	-10.1178
light	-10.1179
▁Jugend	-10.118
▁''	-10.118
▁emb	-10.1183
▁Anzahl	-10.1187
▁Modell	-10.1192
▁exp	-10.1198
typ	-10.1199
▁Priorität	-10.12
▁emphasis	-10.12
Ge	-10.1201
▁Struktur	-10.1202
▁Herzen	-10.1203
▁Zweck	-10.1204
kontroll	-10.1205
DA	-10.1206
bedingungen	-10.1206
dia	-10.121
lav	-10.121
▁creation	-10.1212
▁fördern	-10.1213
▁Cap	-10.1219
sprozess	-10.122
▁sw	-10.1222
ologie	-10.1226
▁fit	-10.1229
staat	-10.1234
▁involve	-10.1235
▁großer	-10.1236
▁nuclear	-10.1238
bus	-10.1242
▁durchgeführt	-10.1243
kom	-10.1243
▁Verfassung	-10.1244
▁commercial	-10.1247
ré	-10.1248
▁Mini	-10.126
▁Lauf	-10.126
bett	-10.1261
▁consumers	-10.1263
▁Bilder	-10.1267
förder	-10.1267
▁agreed	-10.127
▁traffic	-10.1275
text	-10.1277
uck	-10.1278
▁Mehrheit	-10.128
▁Einführung	-10.1282
▁künftig	-10.1284
▁gesamte	-10.1284
pu	-10.1285
▁Business	-10.1285
▁external	-10.1285
▁suffer	-10.1287
ped	-10.1289
▁proper	-10.1292
▁Linie	-10.1293
gaben	-10.1295
house	-10.1299
▁condition	-10.1299
LE	-10.1299
▁park	-10.1301
▁asked	-10.1305
▁import	-10.1308
▁Tor	-10.1309
▁rates	-10.131
▁Gleich	-10.1313
06	-10.1314
▁Element	-10.1317
▁angemessen	-10.132
TA	-10.1321
▁Super	-10.1324
hotel	-10.1327
ante	-10.1332
▁review	-10.1337
Sch	-10.1341
▁Cre	-10.1342
▁bathroom	-10.1342
▁öffentliche	-10.1344
wick	-10.1348
tract	-10.1348
л	-10.1351
griff	-10.1354
staaten	-10.1356
pel	-10.1358
▁compromise	-10.1367
mber	-10.1369
04	-10.1376
▁obtain	-10.1377
▁Therefore	-10.138
▁gebracht	-10.1381
▁mis	-10.1383
ausschuss	-10.1383
treffen	-10.1396
▁aspects	-10.1401
dict	-10.1403
▁court	-10.1404
▁Regierungen	-10.1405
▁restrict	-10.1408
▁geschlossen	-10.1412
▁zunächst	-10.1414
▁meinem	-10.1423
name	-10.1428
▁vehicle	-10.1448
▁eindeutig	-10.1456
▁board	-10.1456
▁India	-10.1468
▁Familie	-10.1468
▁sorgen	-10.1469
▁latest	-10.1472
75	-10.1474
▁Server	-10.1474
ppen	-10.1479
getragen	-10.1483
▁Republic	-10.1493
▁lokale	-10.1493
▁Convention	-10.1494
▁vorhanden	-10.1495
▁CO	-10.1496
▁speed	-10.1499
▁Wohl	-10.1499
*	-10.1504
▁gain	-10.1504
▁Konflikt	-10.1506
gh	-10.1508
▁perform	-10.1509
▁opportunities	-10.151
▁Neben	-10.1514
▁summer	-10.1515
▁stress	-10.1515
▁Innovation	-10.1521
▁Alp	-10.1521
▁Ben	-10.1523
▁Während	-10.1523
▁kulturelle	-10.1525
▁possibility	-10.1529
▁considered	-10.153
▁entwickeln	-10.153
▁500	-10.1533
▁former	-10.1539
▁reviews	-10.154
elf	-10.154
▁mu	-10.1541
▁negative	-10.1544
gro	-10.1544
ID	-10.1544
▁Green	-10.1546
▁Dabei	-10.1546
▁Lösungen	-10.1547
geht	-10.1549
▁atmosphere	-10.156
▁Debian	-10.156
▁added	-10.1561
Ü	-10.1561
betrieb	-10.1565
iff	-10.1565
▁legislative	-10.1565
vig	-10.1569
▁Apartment	-10.1573
▁Kla	-10.1574
▁erfolgt	-10.1575
▁serve	-10.1576
▁groß	-10.1579
ero	-10.1583
zeichnet	-10.1584
▁Pass	-10.1585
zy	-10.159
▁shown	-10.1591
▁Sitzung	-10.1593
▁providing	-10.1594
▁neuer	-10.1603
▁host	-10.1604
▁death	-10.1606
ants	-10.1611
motiv	-10.1612
▁register	-10.1614
▁Veranstaltung	-10.1614
ific	-10.1617
lebt	-10.1619
▁Bus	-10.1621
▁late	-10.1625
PS	-10.1626
▁Tro	-10.1626
▁Kom	-10.1626
▁Stabilität	-10.1627
▁cu	-10.1629
ella	-10.1632
anischen	-10.1632
▁Rom	-10.1634
▁prefer	-10.1634
▁lediglich	-10.1634
ison	-10.1639
▁Änderungen	-10.1643
bildung	-10.1644
lor	-10.165
▁Party	-10.1652
▁easily	-10.1656
▁study	-10.1658
▁Lebensmittel	-10.1659
▁Pf	-10.167
▁sofort	-10.1671
▁verstehen	-10.1677
▁individuell	-10.1678
netz	-10.1682
ल	-10.1683
bank	-10.1684
▁größten	-10.1686
▁prepared	-10.1688
▁praktisch	-10.1689
▁reached	-10.169
▁IT	-10.1698
▁ständig	-10.1699
▁Besuch	-10.1699
service	-10.1703
▁genannt	-10.1704
▁principles	-10.1706
tru	-10.171
▁komplett	-10.1713
▁capacity	-10.1714
bindung	-10.1716
pot	-10.1717
▁Punkte	-10.1721
▁gewährleisten	-10.1726
karte	-10.1735
▁Flughafen	-10.1736
bereit	-10.1738
▁combat	-10.1739
▁Wieder	-10.174
▁consumer	-10.174
Tech	-10.1741
▁north	-10.1744
▁sustainable	-10.1744
▁reject	-10.1745
▁Spain	-10.1748
▁fine	-10.1749
▁junge	-10.1753
MS	-10.176
▁buy	-10.176
▁gerecht	-10.1767
▁reference	-10.1768
▁automatisch	-10.1772
▁combine	-10.1773
▁Flug	-10.1775
▁Gold	-10.1776
▁levels	-10.1781
▁Fortschritte	-10.1786
▁Änderung	-10.1786
ological	-10.1788
▁origin	-10.1792
ffi	-10.1797
▁enlargement	-10.1798
▁doubt	-10.1798
▁decided	-10.1798
script	-10.1798
▁server	-10.1801
▁gleichen	-10.1806
▁verfügbar	-10.1806
05	-10.1809
▁70	-10.1814
▁Projekte	-10.1815
▁define	-10.1817
▁construction	-10.182
▁größte	-10.1822
▁Market	-10.1822
▁Mü	-10.1824
▁gewisse	-10.1825
▁Lang	-10.1825
▁Behandlung	-10.1826
nehmer	-10.1827
lig	-10.183
▁British	-10.1838
schnitt	-10.1843
PL	-10.1844
▁erneut	-10.1846
▁somit	-10.1849
mini	-10.185
phi	-10.1853
erseits	-10.1854
▁tragen	-10.1855
▁Nur	-10.1856
▁liebe	-10.1858
▁effects	-10.1862
▁wenige	-10.187
▁eingesetzt	-10.187
▁March	-10.1875
spann	-10.1875
bewusst	-10.188
▁kostenlos	-10.1881
telli	-10.1884
▁Zwei	-10.1887
▁increasing	-10.1888
wahr	-10.1891
▁obwohl	-10.1892
▁nachhaltige	-10.1893
▁26	-10.1899
▁Ratspräsident	-10.1899
▁Bekämpfung	-10.1903
▁Präsidentschaft	-10.1905
▁Grenz	-10.1911
▁Italy	-10.1916
व	-10.1921
▁coming	-10.193
pack	-10.193
▁submitted	-10.1932
▁Vereinbarung	-10.1933
▁exclusive	-10.1933
▁property	-10.1942
pet	-10.1944
▁vorher	-10.1945
▁ve	-10.195
▁device	-10.1953
▁store	-10.1955
▁hohen	-10.1958
▁28	-10.1963
▁breite	-10.1964
с	-10.1965
wesen	-10.1968
▁Kosovo	-10.1971
▁gross	-10.1976
▁Medien	-10.1978
▁December	-10.1984
Die	-10.1984
ami	-10.1986
▁Zur	-10.1995
▁comfort	-10.1995
▁spec	-10.1996
▁erwähnt	-10.2002
▁Abend	-10.2007
07	-10.2012
off	-10.2015
▁Sicht	-10.202
▁materials	-10.202
lü	-10.2021
▁influence	-10.2025
▁crime	-10.2029
▁guten	-10.2032
▁purchase	-10.2036
▁hervorragend	-10.204
TO	-10.2042
etz	-10.2042
▁regular	-10.2046
▁grundlegende	-10.2049
▁Gruppen	-10.2049
▁green	-10.2051
▁distance	-10.2052
▁scheint	-10.2054
▁Site	-10.2055
tical	-10.2057
▁Erachtens	-10.2057
▁Booking	-10.2064
flo	-10.2066
wort	-10.2066
▁Q	-10.207
▁practical	-10.2071
▁anderer	-10.2071
▁rein	-10.2072
▁partner	-10.2074
▁priority	-10.2077
▁exc	-10.2078
▁profit	-10.2088
▁gene	-10.2093
ita	-10.2097
▁quiet	-10.2098
▁dritte	-10.21
▁Klima	-10.2103
aging	-10.2103
stall	-10.2107
▁Gemeinsam	-10.211
frage	-10.2111
schlüsse	-10.2113
▁Dur	-10.2113
strategie	-10.2115
▁Bio	-10.2117
phase	-10.2119
verein	-10.2119
gerichtet	-10.2121
pend	-10.2122
▁edit	-10.2123
▁Kommissarin	-10.2124
▁conduct	-10.2126
▁arrange	-10.2127
IM	-10.2129
▁Western	-10.213
▁Italian	-10.213
▁matters	-10.2133
▁transparent	-10.2134
Fraktion	-10.2139
staatliche	-10.2151
▁Hol	-10.2153
▁adapt	-10.2156
▁assistance	-10.2156
▁à	-10.2158
▁track	-10.2158
mos	-10.2159
sätze	-10.2159
▁engine	-10.2161
aktion	-10.2166
▁else	-10.2174
▁break	-10.2176
barkeit	-10.2177
SA	-10.2183
II	-10.2184
▁thanks	-10.2185
ola	-10.2185
yl	-10.2188
▁remains	-10.2189
▁hu	-10.2189
▁funding	-10.2191
=	-10.2196
▁versucht	-10.2196
▁Sache	-10.2203
labor	-10.2205
▁Open	-10.2206
FR	-10.2208
▁www	-10.221
wechsel	-10.2214
▁Also	-10.2215
▁zusätzliche	-10.222
▁limited	-10.2223
chtig	-10.2224
▁vorgesehen	-10.2227
▁thought	-10.223
▁Kommunikation	-10.223
▁bestimmten	-10.2231
sverfahren	-10.2232
▁Zahlung	-10.2234
cept	-10.2235
▁WTO	-10.2238
▁Med	-10.2239
▁Aktivitäten	-10.2239
▁Sea	-10.2247
▁details	-10.2259
▁shows	-10.226
▁highlight	-10.2262
▁closed	-10.2264
schieden	-10.2266
▁Hy	-10.2269
▁exception	-10.2271
▁Mac	-10.2276
▁historical	-10.2279
▁reserve	-10.2281
Ar	-10.2282
▁hear	-10.2292
▁bessere	-10.2292
geber	-10.2295
▁Basis	-10.2301
▁brought	-10.2306
▁effort	-10.231
▁flexible	-10.231
▁Anlage	-10.2312
▁außerdem	-10.2316
▁Tätigkeit	-10.2316
aria	-10.232
▁wirksam	-10.2328
▁trip	-10.2337
categories	-10.2339
plo	-10.234
▁Konzept	-10.2341
▁Vertrauen	-10.2341
pflicht	-10.2343
▁secure	-10.235
▁300	-10.2358
MO	-10.2358
lash	-10.236
▁intensiv	-10.2363
▁Bestimmungen	-10.2365
▁Start	-10.2365
EM	-10.2373
like	-10.2377
▁Dezember	-10.2379
▁Stelle	-10.2381
▁laut	-10.2383
▁festgelegt	-10.2385
reck	-10.2387
ritt	-10.2388
harmoni	-10.2391
ula	-10.2392
iber	-10.2393
▁Bundes	-10.2398
▁vorgelegt	-10.2402
▁Camp	-10.2404
▁dadurch	-10.2404
18	-10.2406
asi	-10.2412
▁creating	-10.242
lieb	-10.242
qual	-10.2423
▁betroffen	-10.2423
▁interessant	-10.2425
lli	-10.243
▁Log	-10.2433
▁versuchen	-10.2438
minute	-10.2439
▁mer	-10.2439
Mo	-10.2444
▁erheblich	-10.2446
▁schlecht	-10.2447
▁flow	-10.2455
anda	-10.2457
▁insgesamt	-10.2457
▁reduction	-10.2457
▁variety	-10.2459
▁relation	-10.2461
▁largest	-10.2461
▁explain	-10.2468
▁became	-10.247
▁Min	-10.248
▁instead	-10.2489
▁eingerichtet	-10.249
▁vergangenen	-10.249
▁supported	-10.2492
fang	-10.2495
▁student	-10.2503
▁save	-10.2503
▁1998	-10.2505
ona	-10.2507
▁January	-10.2511
▁launch	-10.252
▁Asia	-10.2523
▁Grand	-10.2524
▁solchen	-10.2527
▁स	-10.2529
▁thousand	-10.2532
98	-10.2533
▁Sonne	-10.2535
▁früher	-10.2535
▁relativ	-10.2547
▁mention	-10.2549
▁erster	-10.2554
2)	-10.2557
▁Portugal	-10.2563
▁spirit	-10.2569
▁announce	-10.2569
▁expert	-10.257
▁Stunden	-10.2572
▁pleased	-10.2574
handlung	-10.2575
▁Aufmerksamkeit	-10.2585
rö	-10.2588
▁farm	-10.259
▁schließlich	-10.2593
▁stability	-10.2593
ura	-10.2594
IA	-10.2595
▁Klein	-10.26
sprache	-10.26
▁relationship	-10.2607
Adresse	-10.261
▁improvement	-10.2614
Mobil	-10.2617
▁obvious	-10.2622
▁Gott	-10.2622
▁October	-10.2636
▁innovation	-10.264
▁Auffassung	-10.2641
▁Investitionen	-10.2642
▁(1	-10.2643
▁wait	-10.2644
lösung	-10.2646
▁activity	-10.2648
▁unge	-10.2657
▁Amerika	-10.2657
▁Sil	-10.2658
▁age	-10.2658
▁richtige	-10.2682
▁ändern	-10.2683
▁path	-10.2683
▁build	-10.2683
▁Agrar	-10.2686
▁Development	-10.2687
▁folgt	-10.2688
▁optimal	-10.2688
▁einschließlich	-10.2691
▁Gesundheits	-10.2691
öhn	-10.2691
uv	-10.2694
▁consist	-10.2694
▁child	-10.2695
ordnung	-10.2697
▁status	-10.2699
ama	-10.2701
▁Ansatz	-10.2707
▁instrument	-10.2713
▁Today	-10.2713
wissenschaftlich	-10.2723
▁aufgenommen	-10.2729
▁seem	-10.2729
▁Sha	-10.2733
▁Hel	-10.2735
▁produced	-10.2735
▁article	-10.2743
LI	-10.275
▁Opfer	-10.2755
under	-10.2758
reise	-10.2763
▁31	-10.2764
▁round	-10.2764
▁genießen	-10.2771
▁Schweiz	-10.2773
▁wollte	-10.2782
▁Forschungs	-10.2787
▁März	-10.2791
arian	-10.2794
▁describe	-10.2796
cio	-10.2805
▁custom	-10.2805
▁vertreten	-10.2807
▁effektiv	-10.2808
▁started	-10.281
Pa	-10.281
▁interesting	-10.2811
▁Oktober	-10.2812
▁regulations	-10.2813
09	-10.2814
▁Em	-10.2817
08	-10.282
▁Lehr	-10.2822
▁fishing	-10.2824
gänge	-10.2828
▁End	-10.2828
▁Rights	-10.2831
▁Bla	-10.2833
▁Führung	-10.2837
figur	-10.2838
▁figure	-10.2843
source	-10.2844
illa	-10.2847
▁fire	-10.286
stru	-10.2864
▁gemäß	-10.2865
▁alten	-10.2868
▁medium	-10.287
▁Haushalt	-10.2874
म	-10.2875
▁allowed	-10.2876
▁erfahren	-10.2878
▁verbessert	-10.2879
▁morgen	-10.2881
hnt	-10.289
▁temp	-10.2894
▁Paket	-10.2902
technik	-10.2902
▁Republik	-10.2909
▁coast	-10.291
▁echte	-10.2919
▁Straßen	-10.2919
▁Folge	-10.2919
▁Beginn	-10.292
präsent	-10.2921
स	-10.2926
new	-10.2928
▁erzielt	-10.2929
▁occur	-10.2931
▁distribution	-10.2932
▁Öffentlichkeit	-10.2948
▁Anforderungen	-10.295
roh	-10.295
▁leisten	-10.2951
▁chance	-10.2954
back	-10.2957
▁=	-10.2957
▁Prinzip	-10.2958
▁erwarten	-10.2959
▁dringend	-10.2962
▁organization	-10.2963
▁Entscheidungen	-10.2966
hö	-10.2971
▁Tagesordnung	-10.2972
▁desire	-10.2978
VI	-10.2985
▁Sinne	-10.2985
▁halte	-10.2985
▁violence	-10.2987
▁Webseite	-10.2988
Sterne	-10.2991
Gästebewertungen	-10.2994
maschine	-10.2996
▁labour	-10.2998
▁agenda	-10.2998
urteil	-10.3002
nimmt	-10.3003
▁helpful	-10.3003
▁setzt	-10.3006
▁color	-10.3008
▁ähnlich	-10.3011
▁restaurants	-10.3014
misch	-10.3021
▁Vorschriften	-10.3025
▁Nationen	-10.3027
▁cra	-10.303
▁Deutsche	-10.3031
OL	-10.3034
▁written	-10.3044
Enterprise	-10.3045
▁Rede	-10.3048
museum	-10.3049
▁Transparenz	-10.3052
äum	-10.3056
▁bit	-10.3056
schließ	-10.3059
ziehung	-10.3063
▁Grenzen	-10.3065
▁Ger	-10.3065
▁Stil	-10.307
▁enterprise	-10.307
▁guide	-10.3073
▁determine	-10.3073
▁offering	-10.3073
avi	-10.3079
PA	-10.3082
▁Winter	-10.3086
25	-10.3087
scale	-10.3091
▁Auftrag	-10.3092
steigen	-10.31
tial	-10.31
▁wichtiger	-10.3102
▁geworden	-10.3102
▁affect	-10.3102
sichtig	-10.3111
SI	-10.3114
rupt	-10.3114
▁Ausbildung	-10.3116
kunden	-10.3116
▁Gast	-10.3121
▁französische	-10.3128
14	-10.3136
▁Spanish	-10.3137
89	-10.3138
▁Werte	-10.3139
▁fun	-10.3141
schreiben	-10.3141
▁giving	-10.315
▁verantwortlich	-10.3152
▁component	-10.3156
wart	-10.3158
▁recognise	-10.3158
▁angesichts	-10.3158
▁Every	-10.3158
ray	-10.3159
nov	-10.316
▁reading	-10.316
▁worth	-10.3162
▁Tradition	-10.3164
▁conclude	-10.3166
wasser	-10.3175
▁July	-10.3177
▁disease	-10.3177
▁constant	-10.3177
▁Kal	-10.3178
▁behandelt	-10.3178
trans	-10.3184
▁konnten	-10.3185
▁leider	-10.319
▁Gipfel	-10.3191
▁Spieler	-10.3193
sort	-10.3198
▁criteria	-10.3198
▁repeat	-10.3199
▁Januar	-10.3201
aktiv	-10.3219
▁lower	-10.322
▁provisions	-10.3222
▁fund	-10.3227
▁Cu	-10.3237
48	-10.3238
▁Sorge	-10.3238
▁interpret	-10.3238
terie	-10.3241
▁Netz	-10.3241
▁Prozent	-10.3244
▁propose	-10.3244
▁useful	-10.3244
▁phone	-10.3245
fläche	-10.3246
▁highest	-10.3248
▁ourselves	-10.325
fle	-10.3255
▁traditionelle	-10.3258
▁regime	-10.3259
▁unmittelbar	-10.326
zog	-10.327
▁benötigen	-10.327
▁Bereiche	-10.3274
▁Wissen	-10.3276
▁Methode	-10.3279
▁brand	-10.3281
ado	-10.3282
▁treffen	-10.3282
▁aktuellen	-10.3283
▁Centre	-10.3284
▁chi	-10.3293
▁sechs	-10.3296
▁Wissenschaft	-10.3299
▁Guest	-10.33
▁surrounding	-10.33
▁stock	-10.3301
▁Many	-10.3302
▁month	-10.3304
▁finally	-10.3311
▁Linux	-10.3313
tem	-10.3316
▁Spanien	-10.3324
▁Option	-10.3328
▁nächste	-10.3329
tom	-10.333
lett	-10.3332
▁Although	-10.3333
▁Empfehlung	-10.3334
▁Chinese	-10.3339
▁Leute	-10.334
▁Suite	-10.3346
▁zehn	-10.3346
▁employees	-10.3349
lager	-10.335
▁obligation	-10.3351
▁format	-10.3353
▁Untersuchung	-10.3358
▁mechanism	-10.3361
▁instruments	-10.3363
▁berühmt	-10.3364
bad	-10.3368
breite	-10.3369
▁van	-10.337
▁ven	-10.3384
▁britische	-10.3386
▁University	-10.3389
ktor	-10.3391
▁operate	-10.3393
point	-10.3394
gerät	-10.3396
▁kennen	-10.3396
▁Aspekte	-10.3397
▁Motor	-10.3399
▁Multi	-10.3401
▁got	-10.3404
▁Human	-10.3406
▁replace	-10.3407
stehen	-10.3409
▁menu	-10.3409
lk	-10.341
▁Voraussetzung	-10.3411
▁poverty	-10.3413
▁transparency	-10.3414
▁Hinsicht	-10.3418
▁täglich	-10.3418
▁Unterschied	-10.3419
▁langfristig	-10.3424
▁DVD	-10.3426
▁reality	-10.3436
lern	-10.3439
▁29	-10.3441
▁annual	-10.3444
▁tief	-10.3445
▁immediately	-10.3446
ifizierung	-10.3451
Ö	-10.3452
▁Straf	-10.3453
▁1997	-10.3454
willig	-10.3455
▁numerous	-10.3456
▁Firma	-10.3456
füll	-10.3458
▁Iraq	-10.3466
sprech	-10.3467
▁email	-10.3467
▁bad	-10.3468
▁Gründen	-10.3469
▁elements	-10.3474
mitte	-10.3477
▁europäischer	-10.3478
alys	-10.3479
▁ursprünglich	-10.3483
▁Bemühungen	-10.3492
würdig	-10.3492
▁wood	-10.3494
▁genommen	-10.3496
▁rise	-10.3499
▁gefunden	-10.3506
▁bezüglich	-10.3511
17	-10.3512
▁select	-10.3512
▁erwartet	-10.3514
96	-10.3517
▁geschaffen	-10.3526
▁hoffen	-10.3528
▁nation	-10.3531
▁entsprechend	-10.3532
▁Protokoll	-10.3536
bla	-10.3537
▁beyond	-10.3547
▁integrated	-10.3548
▁Part	-10.3549
CA	-10.3551
▁applied	-10.3556
▁electronic	-10.3559
▁Ressourcen	-10.3561
vid	-10.3564
▁Maschine	-10.3569
▁Furthermore	-10.3572
▁congratulate	-10.3572
kul	-10.3575
▁eher	-10.3577
▁crucial	-10.3579
▁rapid	-10.3582
ländische	-10.3582
▁Beach	-10.3586
▁Kenntnis	-10.3589
33	-10.3589
▁consequences	-10.359
36	-10.3591
gegen	-10.3596
▁Licht	-10.3598
▁vital	-10.36
▁respond	-10.3608
64	-10.361
▁alte	-10.3615
matic	-10.3615
ं	-10.3615
▁Regeln	-10.3615
▁solidarity	-10.3617
System	-10.362
▁parking	-10.3623
Christian	-10.3626
▁route	-10.3629
▁Armut	-10.3631
zeichnen	-10.3632
read	-10.3634
▁Heute	-10.3634
zieh	-10.3642
gesch	-10.3652
▁Kompromiss	-10.3655
reif	-10.3656
▁processes	-10.3658
▁daily	-10.3663
▁electric	-10.3665
▁teach	-10.3669
▁diejenigen	-10.3674
▁länger	-10.3679
▁integriert	-10.3682
kunft	-10.3683
▁Solidarität	-10.3685
▁Städte	-10.3685
▁Wunsch	-10.369
änderung	-10.3691
▁beitragen	-10.3694
Bahn	-10.3696
body	-10.3697
▁begrüße	-10.3698
▁Directive	-10.3702
treiben	-10.3706
▁comprehensive	-10.3707
▁legitim	-10.371
▁occasion	-10.3711
entwicklung	-10.3712
▁kannst	-10.3714
IL	-10.3719
ivität	-10.372
▁sieht	-10.372
▁feature	-10.3721
▁door	-10.373
▁verhindern	-10.3732
gruppe	-10.3734
▁consult	-10.3734
▁bringt	-10.3735
▁window	-10.3741
▁elections	-10.3746
▁paid	-10.3746
▁Russian	-10.3747
▁weak	-10.3749
▁charm	-10.375
▁slow	-10.3753
▁finance	-10.3754
steht	-10.3759
dro	-10.3761
▁weder	-10.3762
kop	-10.3763
▁analysis	-10.3764
▁vergessen	-10.3769
▁Nacht	-10.3769
▁demonstrate	-10.3778
▁remove	-10.3781
phe	-10.3781
zähl	-10.3783
▁Rechnung	-10.3784
▁Your	-10.3784
▁ausreichend	-10.3785
leb	-10.3785
▁Natürlich	-10.3785
UN	-10.3787
plätze	-10.3789
▁drink	-10.3793
funktion	-10.3793
▁übrigen	-10.3794
lip	-10.3799
▁permanent	-10.3802
▁saying	-10.3803
▁Center	-10.3809
LAN	-10.381
▁installation	-10.3817
front	-10.3819
▁motor	-10.3819
65	-10.3819
▁Tal	-10.382
▁Kapital	-10.3823
▁wall	-10.3827
phy	-10.3831
krieg	-10.3831
fort	-10.3836
▁terrace	-10.3837
wahl	-10.3838
zentrum	-10.384
stück	-10.3845
▁relate	-10.3848
schritt	-10.3851
Sp	-10.3853
▁getan	-10.386
▁friends	-10.3861
▁camera	-10.3861
▁technische	-10.3864
kräfte	-10.3869
▁Aufgaben	-10.3875
▁35	-10.3875
▁zunehmend	-10.3876
CO	-10.3877
▁infrastructure	-10.3884
▁Alter	-10.3889
▁ausschließlich	-10.3895
▁goes	-10.3895
▁Aufnahme	-10.3899
▁Spezial	-10.3901
▁offered	-10.3902
▁bath	-10.3903
▁sufficient	-10.3904
▁Fällen	-10.3908
▁Mediterranean	-10.391
▁speech	-10.3911
▁happy	-10.3914
▁historic	-10.3915
▁Rad	-10.3915
5%	-10.3919
NA	-10.392
fonds	-10.3922
▁map	-10.393
freiheit	-10.393
▁Risiko	-10.3931
fully	-10.3932
▁collection	-10.3934
fest	-10.3935
▁Nr	-10.3937
▁Work	-10.3937
▁Roma	-10.3938
▁Versuch	-10.3941
▁Security	-10.3941
▁waste	-10.3945
▁Geschäft	-10.3946
▁scientific	-10.3949
▁hätten	-10.395
▁ziehen	-10.3951
▁colleagues	-10.3953
▁stabil	-10.3956
licht	-10.3965
▁Monaten	-10.3972
based	-10.3975
legung	-10.3976
▁Netzwerk	-10.398
▁meaning	-10.398
ो	-10.3985
▁Gerät	-10.3988
▁veröffentlicht	-10.399
▁Menge	-10.3994
▁Real	-10.3996
AD	-10.4003
▁minimum	-10.4005
Schlusselwortern	-10.4008
book	-10.401
▁screen	-10.401
▁modified	-10.4014
▁Kirche	-10.4015
▁Telefon	-10.4017
▁Bel	-10.4019
▁counter	-10.402
Fi	-10.4021
▁sort	-10.4025
▁colour	-10.4029
▁morning	-10.4034
▁growing	-10.4035
laufen	-10.4036
▁laufen	-10.4044
▁freundlich	-10.4044
▁Atmosphäre	-10.4049
amerikanische	-10.406
NO	-10.4064
▁fill	-10.4064
▁bestimmt	-10.4068
suchen	-10.4073
49	-10.4075
▁ह	-10.4082
ticket	-10.4087
▁Conference	-10.4092
▁entsprechenden	-10.4093
▁Cast	-10.4095
▁Hall	-10.4097
▁gewesen	-10.4097
olo	-10.4098
▁Microsoft	-10.4098
tting	-10.4099
▁eye	-10.4102
▁campaign	-10.4103
EA	-10.4105
ält	-10.4105
▁tomorrow	-10.4107
▁debt	-10.4114
▁Roman	-10.4115
▁implemented	-10.4119
▁Public	-10.4122
fla	-10.4125
▁gewählt	-10.4128
üss	-10.4129
à	-10.4131
▁Doppel	-10.4134
▁Stand	-10.4137
▁shopping	-10.4137
▁anderem	-10.4139
izi	-10.4139
terior	-10.4141
HO	-10.4141
▁count	-10.4142
projekt	-10.4151
room	-10.4158
▁paar	-10.4159
▁Völker	-10.416
▁anything	-10.4168
▁Garten	-10.4172
▁Detail	-10.4184
▁forest	-10.4185
ifiziert	-10.4188
▁Islam	-10.4189
▁Besucher	-10.4189
▁fordern	-10.4191
▁Gesetze	-10.4194
grenzt	-10.4194
▁While	-10.4196
▁verpflichtet	-10.4199
pha	-10.4204
▁Vergangenheit	-10.4205
▁Arab	-10.4209
▁warum	-10.421
▁genannten	-10.4211
▁published	-10.4215
▁sales	-10.4216
▁season	-10.422
▁operating	-10.4224
▁caused	-10.4224
▁administrative	-10.4227
▁relating	-10.423
größe	-10.423
▁Fort	-10.4232
hang	-10.4239
▁Öl	-10.4241
cap	-10.4248
▁überhaupt	-10.4248
▁paper	-10.4249
▁flight	-10.4251
97	-10.4252
steck	-10.4258
▁Mari	-10.4258
gruppen	-10.4258
▁starting	-10.4262
▁monitoring	-10.4262
var	-10.4264
▁accordance	-10.4267
reisen	-10.4275
▁Körper	-10.4275
▁decide	-10.4279
not	-10.428
▁»	-10.4286
ón	-10.4286
▁berücksichtigt	-10.4287
▁evening	-10.4288
hood	-10.429
▁Grün	-10.4291
europa	-10.43
▁partnership	-10.4301
▁erfüllen	-10.4302
▁initial	-10.4304
▁label	-10.4304
प	-10.4306
▁beide	-10.4312
▁begrüßen	-10.4313
▁strategic	-10.4314
▁erlaubt	-10.4317
▁delay	-10.4318
itar	-10.4318
▁einzigartige	-10.4319
▁probably	-10.4319
▁Budget	-10.4323
ologisch	-10.4324
▁selection	-10.4325
geschlossen	-10.4325
hold	-10.4325
▁extent	-10.4325
▁maximum	-10.4327
▁Ober	-10.4328
▁perfekt	-10.4328
▁efficiency	-10.4333
▁sometimes	-10.4339
▁Schi	-10.4341
▁nimmt	-10.4345
behörde	-10.4347
▁Partei	-10.4349
34	-10.4357
▁Universität	-10.4361
melde	-10.4363
▁bedroom	-10.4365
▁Termin	-10.4366
ova	-10.4371
bir	-10.4378
ätz	-10.4379
▁Fähigkeit	-10.4387
▁schützen	-10.4387
▁motion	-10.4388
fällt	-10.439
▁mix	-10.4391
▁offiziell	-10.4393
onym	-10.4394
▁worldwide	-10.4395
▁technologies	-10.4396
▁Del	-10.4396
geschrieben	-10.4397
▁Annahme	-10.4397
▁Erfahrungen	-10.4405
gri	-10.4408
▁Installation	-10.4409
▁Gewinn	-10.4409
cru	-10.4411
▁leaders	-10.4415
▁ready	-10.4424
▁fish	-10.4427
▁Bürgerinnen	-10.443
▁generation	-10.4431
abhängig	-10.4432
tory	-10.4435
▁kleiner	-10.4439
39	-10.4442
rap	-10.4443
24	-10.4444
▁reservation	-10.4445
16	-10.4451
▁Praxis	-10.4453
▁sell	-10.4455
vil	-10.4456
▁Durchführung	-10.4458
▁Kol	-10.4467
▁prior	-10.4472
▁symbol	-10.4475
▁Menschenrechts	-10.4477
▁Airport	-10.4478
Al	-10.4479
▁Mc	-10.448
▁swimming	-10.4483
aught	-10.4484
▁folgen	-10.4486
erei	-10.4488
38	-10.4489
▁usw	-10.4492
}}	-10.4493
▁darstellt	-10.4497
▁stimmen	-10.4497
▁typical	-10.4498
▁Ausnahme	-10.4499
bürger	-10.4503
▁Gesetz	-10.4506
▁remind	-10.4507
▁voting	-10.4512
▁beginnen	-10.4513
▁betreffend	-10.4515
▁günstig	-10.4517
▁farmers	-10.4519
▁harm	-10.452
▁fulfil	-10.4523
▁wünschen	-10.4527
work	-10.4529
▁Firmen	-10.453
▁terrorism	-10.4533
▁zumindest	-10.4535
▁Fahrzeug	-10.4543
wel	-10.4543
▁Küste	-10.4544
▁Download	-10.4544
37	-10.4548
▁Lassen	-10.4555
cious	-10.4558
▁Costa	-10.4558
▁genutzt	-10.4559
▁signal	-10.4559
▁außerhalb	-10.4562
▁benötigt	-10.4567
▁jeweiligen	-10.4572
uk	-10.4572
▁finish	-10.4573
▁Männer	-10.458
▁Act	-10.4585
▁Voll	-10.4586
▁bald	-10.4586
▁sämtliche	-10.4588
▁genug	-10.4592
▁consideration	-10.4593
▁indicate	-10.46
izing	-10.4602
▁degree	-10.4604
stream	-10.4607
▁benutzt	-10.4609
▁stets	-10.4609
preise	-10.4609
▁zahlreichen	-10.4609
▁drug	-10.4611
▁valid	-10.4612
ji	-10.4614
▁Zweitens	-10.4616
klär	-10.4618
▁John	-10.4619
▁Afrika	-10.4622
▁Terrorismus	-10.4624
miss	-10.4627
▁ki	-10.4628
▁More	-10.4632
messen	-10.4637
▁assessment	-10.4639
problem	-10.4641
PT	-10.4641
▁Note	-10.4643
▁fear	-10.4644
▁wählen	-10.4656
media	-10.4656
linie	-10.4658
▁getroffen	-10.4659
▁Afghanistan	-10.4665
▁Fernseh	-10.4672
gezogen	-10.4676
▁Google	-10.4677
▁Mitteilung	-10.4678
▁interested	-10.4678
▁Vergleich	-10.4679
▁Zi	-10.468
▁spielt	-10.4681
▁trotz	-10.4686
ocrat	-10.4687
fund	-10.4688
schläge	-10.4689
▁falsch	-10.4689
gesetz	-10.469
▁Stein	-10.4697
▁Abgeordnete	-10.4698
▁Märkte	-10.4703
▁accepted	-10.4704
▁despite	-10.4707
place	-10.4712
▁Einige	-10.4713
▁menschliche	-10.4716
▁write	-10.4716
▁administration	-10.4718
▁Reich	-10.4728
▁zusätzlich	-10.4729
▁historischen	-10.4737
angebot	-10.4738
medi	-10.4739
▁Eigen	-10.4743
▁Front	-10.4745
zahlung	-10.4746
▁fresh	-10.4747
▁Erst	-10.475
▁camp	-10.4753
region	-10.4755
▁Ireland	-10.4759
▁Milliarden	-10.476
oder	-10.476
▁bill	-10.4761
▁entscheiden	-10.4767
schlecht	-10.4784
86	-10.4789
▁heutigen	-10.4789
▁Kor	-10.4789
▁Mat	-10.4791
Pro	-10.4791
▁Gut	-10.4791
▁Sprach	-10.4796
▁Schwierigkeiten	-10.4796
▁kitchen	-10.4796
▁1996	-10.4798
▁Meter	-10.4799
▁Partnerschaft	-10.4807
▁geändert	-10.4811
cut	-10.4815
▁Parteien	-10.4822
▁eingehen	-10.4824
95	-10.4824
▁Dann	-10.4825
▁Begriff	-10.4831
ffer	-10.4833
▁invite	-10.4835
▁Moreover	-10.4838
23	-10.484
▁Dazu	-10.4841
▁Hinweis	-10.4841
▁zuständig	-10.4841
ibility	-10.4844
▁Sitz	-10.4847
▁Schlüssel	-10.4856
▁businesses	-10.4869
▁ernst	-10.4873
[	-10.4878
▁genuine	-10.4879
▁neighbour	-10.4882
kra	-10.4885
▁collect	-10.4887
▁voice	-10.4889
▁Swiss	-10.4889
▁extensive	-10.4891
zeichen	-10.4891
▁aktuelle	-10.4892
55	-10.4893
▁Frankfurt	-10.4894
▁Moment	-10.4895
▁Verteidigung	-10.4897
▁piece	-10.491
▁absolutely	-10.4911
▁ausdrücklich	-10.4921
▁topic	-10.4926
▁Island	-10.4927
▁Denn	-10.4927
▁früh	-10.4931
Kon	-10.4936
hü	-10.4937
▁argument	-10.4937
▁verstärkt	-10.4937
kret	-10.4938
▁Bedürfnisse	-10.4939
▁Tru	-10.4944
▁entsprechende	-10.4944
▁«	-10.4945
▁Generation	-10.4949
68	-10.4953
▁Allerdings	-10.4956
▁visitors	-10.4959
▁adjust	-10.496
stoß	-10.4961
fassung	-10.4962
▁overall	-10.4969
ieß	-10.497
artig	-10.4972
Ab	-10.4979
führer	-10.4986
▁remember	-10.4991
▁urge	-10.4993
▁Zug	-10.4995
▁lost	-10.4997
anstalt	-10.4997
gehörig	-10.4997
▁raised	-10.4999
CD	-10.5003
▁solid	-10.5003
▁UK	-10.5009
▁urgent	-10.5017
▁patent	-10.5026
▁Einfluss	-10.5026
Hotel	-10.5029
▁Mitgliedstaat	-10.5033
▁deutschen	-10.5035
▁Feld	-10.5036
▁organisiert	-10.5036
▁Zeichen	-10.5038
▁criminal	-10.5041
▁resort	-10.5042
85	-10.5042
▁zukünftig	-10.5043
▁fee	-10.5044
▁walking	-10.5044
sagen	-10.5044
▁trying	-10.5045
itive	-10.506
DS	-10.5062
▁ehemalige	-10.5063
▁Sonder	-10.5071
▁folgenden	-10.5075
zentr	-10.5077
▁technischen	-10.5084
ima	-10.5085
▁defend	-10.5085
Aus	-10.5087
▁Obwohl	-10.5091
▁persönlichen	-10.5092
▁Gespräch	-10.5092
▁Beratung	-10.5093
▁lies	-10.5095
▁irre	-10.5098
wendung	-10.51
west	-10.5107
▁wrong	-10.5108
lässig	-10.5115
▁People	-10.5119
▁überzeugt	-10.512
othek	-10.5122
▁streng	-10.5131
▁proceed	-10.5133
▁trust	-10.5134
lassung	-10.5134
▁hot	-10.5137
dacht	-10.5155
▁resolve	-10.5155
▁erinnern	-10.5157
▁namely	-10.5163
▁Secondly	-10.5164
stellt	-10.517
0.000	-10.5175
▁Nun	-10.5178
▁grow	-10.5181
▁Hor	-10.5185
▁Just	-10.5193
For	-10.5198
sky	-10.5215
▁manufacturer	-10.5219
▁Gri	-10.522
▁Ausführung	-10.5222
▁eben	-10.5224
▁jährlich	-10.5227
alisierung	-10.5228
▁Stellen	-10.523
pper	-10.5231
▁club	-10.5235
▁element	-10.5242
▁übernehmen	-10.5249
▁heard	-10.5251
▁Trotz	-10.5252
▁accession	-10.5264
called	-10.5269
▁kaum	-10.5271
▁endlich	-10.5272
▁Erstens	-10.5273
▁Österreich	-10.5275
▁Economic	-10.5284
▁hostel	-10.5286
▁entgegen	-10.5287
▁Kauf	-10.5287
▁Only	-10.5287
loc	-10.5288
card	-10.5289
▁Bewertung	-10.5289
bedarf	-10.529
▁Indeed	-10.5296
▁exhibition	-10.5299
ambi	-10.5307
person	-10.5313
▁parliament	-10.532
▁employ	-10.5321
▁Code	-10.5323
▁regelmäßig	-10.5324
▁NATO	-10.5327
quote	-10.5328
▁Krankheit	-10.5329
▁zudem	-10.533
▁changed	-10.5336
▁gezeigt	-10.5336
phon	-10.5337
pic	-10.5338
▁currency	-10.5343
▁intended	-10.5343
▁increasingly	-10.5345
automat	-10.5346
▁arbeitet	-10.5347
▁gesehen	-10.535
▁Zustimmung	-10.5351
▁expressed	-10.5353
▁bio	-10.5353
▁diploma	-10.5366
management	-10.5367
▁committed	-10.5369
▁unten	-10.5374
▁income	-10.5378
▁Amt	-10.5383
kultur	-10.5383
▁structural	-10.5388
▁Analyse	-10.5393
▁Hostel	-10.5393
▁patient	-10.5397
weil	-10.5407
▁Anerkennung	-10.5409
▁Agreement	-10.5413
▁beteiligt	-10.5413
▁wahrscheinlich	-10.5416
▁cities	-10.5417
lust	-10.5417
▁angeboten	-10.5419
▁candidate	-10.5425
pool	-10.5431
▁voraus	-10.5433
▁alone	-10.5434
▁director	-10.5435
bia	-10.5439
▁trend	-10.5447
▁Constitution	-10.5447
fähr	-10.5453
leitung	-10.5453
▁Modern	-10.5453
▁bilden	-10.5458
eucht	-10.5459
ador	-10.5459
▁running	-10.546
▁justice	-10.546
technologie	-10.5462
LO	-10.5465
▁Irak	-10.5467
▁Künstler	-10.5469
▁Other	-10.5471
▁Antrag	-10.5473
▁unemployment	-10.5474
▁translation	-10.5474
▁yourself	-10.5476
▁Größe	-10.5478
verfahren	-10.5479
▁unbedingt	-10.5483
▁promise	-10.5486
▁district	-10.5496
ück	-10.5501
▁participate	-10.5504
▁talking	-10.5507
hill	-10.5507
▁Komm	-10.551
▁provision	-10.5511
▁Technik	-10.5511
▁Wind	-10.5515
▁database	-10.5517
▁spoke	-10.5521
▁moral	-10.5528
▁cell	-10.5529
märkte	-10.5531
▁permit	-10.5532
läuft	-10.5534
▁Band	-10.5536
▁assist	-10.5537
kommt	-10.5539
▁Anstrengungen	-10.5542
▁Wann	-10.5542
▁angenehm	-10.5546
▁ländliche	-10.5549
▁cohesion	-10.555
▁substance	-10.5556
▁powerful	-10.5556
FA	-10.5557
▁Martin	-10.5557
aries	-10.5561
geleitet	-10.5565
▁sum	-10.5565
▁erhöht	-10.557
▁approved	-10.557
wagen	-10.5572
▁Bett	-10.5577
▁families	-10.5581
▁command	-10.5583
▁erkennen	-10.5585
▁Ferien	-10.5585
▁watch	-10.559
▁planning	-10.5591
▁critical	-10.5591
erfolg	-10.5593
▁raise	-10.5593
▁Hü	-10.5593
▁Sach	-10.5595
▁außer	-10.5595
▁enorm	-10.5597
▁Cam	-10.5603
Ro	-10.5604
▁1990	-10.5605
▁emissions	-10.5605
▁Regel	-10.5607
santrag	-10.561
migrant	-10.5616
▁arrive	-10.5616
▁Geist	-10.562
▁Bay	-10.5622
▁mainly	-10.5622
▁Ganz	-10.5627
▁enhance	-10.5627
88	-10.5629
▁braucht	-10.5634
▁erstellt	-10.5635
▁improved	-10.5636
▁einheitliche	-10.5637
▁Verkauf	-10.5642
▁Hersteller	-10.5652
▁Board	-10.5654
▁Verhältnis	-10.5656
▁photograph	-10.5656
▁Waffen	-10.5658
zza	-10.5658
▁Holz	-10.566
▁monitor	-10.5661
▁radio	-10.5667
▁confidence	-10.5668
▁erweitert	-10.5668
▁Fol	-10.5669
▁entspricht	-10.5674
▁wonderful	-10.5674
▁Regional	-10.5679
▁Verhalten	-10.5683
weisung	-10.5695
schalt	-10.5695
▁Boden	-10.5697
prinzip	-10.5699
▁affected	-10.57
▁passenger	-10.5701
▁Sand	-10.5703
▁Ausschuß	-10.5708
▁white	-10.5708
▁gefordert	-10.571
▁Fortschritt	-10.5717
▁Abschluss	-10.5722
▁beschlossen	-10.5723
▁Nations	-10.5725
▁Einstellung	-10.573
Pla	-10.573
▁suitable	-10.5734
▁circumstances	-10.5735
▁Peter	-10.5735
tzt	-10.5737
▁strict	-10.5739
▁fellow	-10.5742
▁Spr	-10.5745
▁God	-10.5746
▁Wander	-10.5747
▁police	-10.5748
▁Kritik	-10.575
▁detail	-10.5752
FI	-10.5753
▁fruit	-10.5757
▁delivery	-10.576
ING	-10.5762
▁syn	-10.5773
▁priorities	-10.5775
▁Überwachung	-10.5779
▁chair	-10.5784
▁italienische	-10.5788
bur	-10.5793
://	-10.5793
TV	-10.5795
▁automatically	-10.5799
▁exercise	-10.5802
▁sitting	-10.5805
▁reduced	-10.5816
▁Social	-10.5829
▁expand	-10.5837
well	-10.5839
▁Herz	-10.5849
▁Zweifel	-10.5852
▁Dia	-10.5854
mitglied	-10.5863
▁geleistet	-10.5863
version	-10.5864
▁Agentur	-10.587
▁driver	-10.5874
▁entschieden	-10.5882
▁Rund	-10.5885
44	-10.5886
▁audio	-10.5895
▁spezifische	-10.5896
▁Presse	-10.5899
▁manner	-10.5902
▁positiv	-10.5903
fällig	-10.591
▁union	-10.5916
▁Minderheit	-10.5919
▁Aussicht	-10.592
22	-10.5921
▁Paul	-10.5922
▁feed	-10.5927
▁Stellungnahme	-10.5929
▁mid	-10.5937
▁Haltung	-10.5942
▁rasch	-10.5942
▁Rand	-10.5942
▁channel	-10.5943
▁folgende	-10.5946
▁Direkt	-10.5946
▁participation	-10.5949
▁Balkan	-10.5951
wachsen	-10.5952
▁(19	-10.5955
▁Charakter	-10.5956
▁mindestens	-10.5962
▁typisch	-10.597
Programm	-10.5972
42	-10.5972
▁Botschaft	-10.5977
▁Middle	-10.5979
▁usually	-10.5982
▁150	-10.5987
▁berücksichtigen	-10.5988
▁strategische	-10.5988
▁scope	-10.599
▁Ausgaben	-10.5993
La	-10.5993
▁Anspruch	-10.5993
▁institutional	-10.5997
▁Glück	-10.5999
▁erfüllt	-10.6001
konferenz	-10.6003
▁sight	-10.6005
▁Greece	-10.6008
gearbeitet	-10.6015
▁perspective	-10.6016
forderung	-10.6017
▁specifically	-10.6017
▁Station	-10.6018
▁angegeben	-10.6027
▁nötig	-10.6027
IR	-10.6028
▁association	-10.6029
träger	-10.6035
▁Zwischen	-10.6038
▁tend	-10.6039
▁entstehen	-10.604
▁establishment	-10.6043
▁belong	-10.6043
ehrt	-10.6043
▁ensuring	-10.6044
▁Hohe	-10.6044
▁plus	-10.6045
GE	-10.6047
▁competitive	-10.6051
▁reception	-10.6052
▁hundred	-10.6057
straße	-10.6059
vertrag	-10.606
SL	-10.6061
▁Bewegung	-10.6061
▁notice	-10.6062
▁zufrieden	-10.6065
▁nachdem	-10.6066
▁Cat	-10.6069
90	-10.6072
▁bedeuten	-10.6076
▁Kriterien	-10.6079
▁platform	-10.6079
▁black	-10.6081
▁observe	-10.6082
kenntnis	-10.6083
▁"...	-10.6087
quality	-10.609
▁Czech	-10.61
▁Studio	-10.6104
▁massive	-10.6106
▁Übersetzung	-10.6108
▁Kind	-10.6118
▁session	-10.6123
▁herunter	-10.6124
▁Policy	-10.6124
▁Schaden	-10.6127
partei	-10.6132
▁sicherzustellen	-10.6134
▁becoming	-10.6135
▁Time	-10.614
code	-10.6145
▁Minute	-10.6152
▁agriculture	-10.6153
▁Agenda	-10.6154
stitu	-10.6155
ierenden	-10.6155
▁introduced	-10.6158
▁Power	-10.6159
▁river	-10.6159
qualität	-10.617
▁impose	-10.6172
▁Each	-10.6173
▁error	-10.6175
▁bilateral	-10.6175
▁MP	-10.6177
anlagen	-10.618
far	-10.6182
▁geschützt	-10.6185
▁2020	-10.6185
▁church	-10.6187
▁disaster	-10.6194
▁effectively	-10.6195
▁Zudem	-10.6197
▁instance	-10.6198
▁jegliche	-10.6198
▁sold	-10.6205
▁Nutzen	-10.6208
▁Sollte	-10.6211
▁Schluss	-10.6213
▁Palestinian	-10.6213
▁winter	-10.6213
pit	-10.6217
▁terrorist	-10.6219
▁Infrastruktur	-10.6223
▁regret	-10.6223
▁attend	-10.6226
rahmen	-10.6226
▁served	-10.6228
▁ergreifen	-10.623
gna	-10.6232
▁summit	-10.6236
▁intention	-10.6239
▁failure	-10.6241
wirkung	-10.6244
▁Architekt	-10.6251
macht	-10.6251
▁Serie	-10.6253
▁getting	-10.6254
▁hinweisen	-10.6255
▁According	-10.6268
▁detailed	-10.6268
▁möglicherweise	-10.6272
▁telephone	-10.6274
erstatterin	-10.6274
ground	-10.6276
▁Objekt	-10.628
▁otherwise	-10.6282
▁Nutzer	-10.6282
▁taste	-10.6287
▁euch	-10.6287
▁angezeigt	-10.6291
▁tabled	-10.6294
▁rural	-10.6295
▁Landschaft	-10.6297
▁Engagement	-10.6306
▁akzeptieren	-10.6306
▁Griechenland	-10.631
▁exactly	-10.6314
▁bestehenden	-10.6315
▁Aspekt	-10.6317
▁Most	-10.6318
▁Hintergrund	-10.6322
▁Pakistan	-10.6322
▁gegründet	-10.6326
▁Alternative	-10.6328
▁derartige	-10.6332
▁dimension	-10.6337
▁Mensch	-10.6339
▁Homepage	-10.6343
▁kill	-10.6348
▁Game	-10.6352
schicht	-10.6358
▁protected	-10.636
▁precisely	-10.636
▁1995	-10.6362
bruch	-10.6362
▁pleasant	-10.6364
▁lösen	-10.6366
▁Great	-10.6367
▁Out	-10.6367
play	-10.6367
flug	-10.6368
▁peaceful	-10.6371
▁Angriff	-10.6377
▁umgesetzt	-10.6379
▁Zivil	-10.6381
▁forget	-10.6383
▁solve	-10.6384
▁gesprochen	-10.6391
▁spread	-10.6395
gut	-10.6401
▁railway	-10.6409
scrib	-10.6411
▁benutzen	-10.6412
flüge	-10.6413
▁angesprochen	-10.6416
▁Control	-10.6417
▁anerkannt	-10.6426
▁referred	-10.6437
▁generate	-10.6439
leih	-10.6441
▁expected	-10.6445
21	-10.6447
▁Zeitraum	-10.6453
▁Zunächst	-10.6455
clus	-10.6456
▁landscape	-10.6457
▁Anpassung	-10.6459
▁Teilnehmer	-10.6466
▁Reaktion	-10.6469
▁militärische	-10.6471
▁Wellness	-10.6472
▁Schließlich	-10.6473
▁Terrasse	-10.6474
▁deutsche	-10.6474
wunder	-10.6475
▁Festival	-10.6476
MI	-10.6477
▁Mio	-10.6477
▁Schengen	-10.6479
43	-10.6485
▁introduce	-10.6494
▁Komfort	-10.6495
▁Nieder	-10.6495
▁Korea	-10.6496
▁Herstellung	-10.6498
▁discussed	-10.6501
▁earlier	-10.6504
▁zuletzt	-10.6506
▁February	-10.6506
▁Casino	-10.6508
▁engage	-10.6518
▁funktioniert	-10.652
▁Over	-10.6521
▁managed	-10.6524
▁Bush	-10.6525
▁promotion	-10.6525
▁letter	-10.6526
▁bezeichnet	-10.6535
▁guidelines	-10.6535
▁prüfen	-10.6536
▁Anteil	-10.6537
▁followed	-10.6539
▁micro	-10.6549
67	-10.6557
▁spacious	-10.6559
▁medical	-10.6563
▁gefährlich	-10.6565
▁budgetary	-10.6565
▁Geb	-10.6568
prüf	-10.6568
▁lake	-10.6568
straf	-10.657
EX	-10.6571
▁covered	-10.6572
▁seat	-10.6574
▁vermeiden	-10.6574
▁Großbritannien	-10.6578
günstig	-10.658
graph	-10.6583
▁bedeutende	-10.6587
geschäft	-10.6588
▁Global	-10.6591
▁introduction	-10.6592
▁Vorbereitung	-10.6594
▁Typ	-10.6594
▁entry	-10.6596
▁correspond	-10.6598
▁convention	-10.6602
▁Straße	-10.6603
▁Bemerkung	-10.6608
▁Titel	-10.6613
▁Van	-10.6616
▁surface	-10.6634
energie	-10.6644
▁Click	-10.665
schaffen	-10.665
▁born	-10.6653
▁Research	-10.6653
▁Ereignisse	-10.6655
▁selected	-10.6659
modell	-10.6664
▁bequem	-10.6664
gemeinschaft	-10.6669
▁Vielfalt	-10.6669
▁Gründe	-10.667
▁Tür	-10.6671
standard	-10.6672
▁Kategorie	-10.6673
▁substantial	-10.6677
47	-10.6679
gewalt	-10.6683
▁fuel	-10.6686
▁Hafen	-10.6692
▁Home	-10.6693
▁jederzeit	-10.6697
▁metres	-10.6698
▁Why	-10.67
▁umfangreiche	-10.6703
▁combination	-10.6707
▁Aufbau	-10.671
spiegel	-10.6713
versorgung	-10.6717
▁Pflicht	-10.6724
▁Wirkung	-10.6725
▁Kooperation	-10.6725
▁shape	-10.6727
▁Unterkategorien	-10.6733
66	-10.674
▁pension	-10.6744
▁Name	-10.6744
▁operator	-10.6744
▁linked	-10.6746
▁actual	-10.6751
▁stra	-10.6752
–	-10.6756
ía	-10.6758
▁darunter	-10.6758
▁title	-10.676
fuhr	-10.676
▁Ausstellung	-10.6761
▁Autor	-10.6762
grenzen	-10.6771
▁Photo	-10.6772
51	-10.6779
▁herzlich	-10.6781
▁intend	-10.6789
ह	-10.6792
▁Syn	-10.6794
▁Hoffnung	-10.6801
72	-10.6801
▁Street	-10.681
▁chinesische	-10.6813
▁cuisine	-10.6815
▁immigration	-10.6826
▁Mel	-10.6832
▁tourism	-10.6836
▁Forum	-10.6838
▁teilweise	-10.6852
▁Vereint	-10.6865
wähl	-10.6865
▁verändert	-10.6866
▁cheap	-10.6871
▁improving	-10.6872
▁domestic	-10.6874
richtlinie	-10.6876
▁Klimawandel	-10.688
holder	-10.6884
schuldig	-10.6885
▁sand	-10.6889
▁Prüfung	-10.6891
wir	-10.6896
▁erhöhen	-10.6896
▁Belarus	-10.6896
▁stattfinden	-10.6896
▁president	-10.6897
▁gave	-10.6904
▁hochwertige	-10.6904
sländern	-10.6904
material	-10.6905
46	-10.6907
▁ISO	-10.6917
▁Grundsatz	-10.6921
paket	-10.6923
▁Switzerland	-10.6929
▁convenient	-10.6929
▁näher	-10.6933
clo	-10.6941
▁sicherlich	-10.6947
▁Schau	-10.6956
phrase	-10.6957
▁gemütlich	-10.6959
▁Ruhe	-10.6966
COM	-10.6969
▁presence	-10.6972
▁Ausland	-10.6973
frist	-10.6974
▁erzielen	-10.698
▁gern	-10.6984
▁Garantie	-10.6987
▁http	-10.6992
▁Gesetzgebung	-10.7003
▁Heil	-10.7009
▁oppose	-10.7011
utter	-10.7014
▁elektronische	-10.7017
meister	-10.7018
making	-10.7018
▁transform	-10.7024
▁offensichtlich	-10.7025
▁einzelne	-10.7025
link	-10.7026
▁destroy	-10.7028
▁verfolgt	-10.7029
▁intervention	-10.703
tausend	-10.7032
lov	-10.7034
▁gewünscht	-10.7039
▁Februar	-10.7039
▁garantiert	-10.704
▁cook	-10.7044
▁Phase	-10.7044
▁Hamburg	-10.7046
▁gold	-10.7047
▁eingeführt	-10.7048
▁average	-10.7051
▁spanische	-10.7054
▁considerable	-10.706
▁Media	-10.7061
▁interface	-10.7062
▁Kredit	-10.7064
▁Pack	-10.7069
▁Faktor	-10.7073
▁Kurz	-10.7076
▁kommenden	-10.708
▁Sinn	-10.7082
▁Shop	-10.7082
▁entweder	-10.7089
▁Wett	-10.709
▁definition	-10.7091
▁gelangen	-10.7098
▁Santa	-10.7107
▁duty	-10.7109
▁Saint	-10.711
▁properly	-10.711
▁race	-10.7114
▁gekommen	-10.7115
▁hit	-10.7118
▁competitiveness	-10.712
▁Fü	-10.7121
56	-10.7127
▁seven	-10.7128
▁Europäer	-10.7129
▁brief	-10.7131
▁besuchen	-10.7131
▁supplier	-10.7139
▁destination	-10.714
76	-10.7146
▁Well	-10.7147
▁match	-10.7148
▁jeweils	-10.7149
organ	-10.7151
▁presidency	-10.7151
▁button	-10.7152
▁Veränderungen	-10.7156
▁Status	-10.716
wandel	-10.7169
▁convert	-10.717
▁authority	-10.7171
wertung	-10.7173
▁exploit	-10.7177
Ja	-10.7177
▁coordination	-10.7179
▁fisheries	-10.7181
▁Health	-10.7183
41	-10.7183
TER	-10.7183
zugehen	-10.7188
▁betrachtet	-10.7191
▁Unfortunately	-10.7195
▁estate	-10.7198
ENT	-10.7201
▁Früh	-10.7202
schreibung	-10.721
▁übernachten	-10.7214
schuld	-10.7215
nummer	-10.7217
▁Einigung	-10.7218
▁Export	-10.7218
meldung	-10.7218
gültig	-10.7225
▁hour	-10.7228
▁Var	-10.7229
»	-10.7229
▁lernen	-10.7237
▁empfehlen	-10.725
▁facing	-10.725
▁Trade	-10.725
▁stimme	-10.7261
▁appreciate	-10.7267
▁Leider	-10.7269
▁Brussels	-10.7271
▁Boot	-10.7273
▁Poland	-10.7275
▁util	-10.7282
▁400	-10.7282
▁attractive	-10.7284
viv	-10.7287
▁bestätigt	-10.7294
▁Tagung	-10.7304
▁beliebt	-10.7305
▁tut	-10.7306
▁Madrid	-10.7307
▁Irland	-10.7312
79	-10.7314
▁Abschließend	-10.7318
▁König	-10.7318
plication	-10.7319
▁defence	-10.732
▁handeln	-10.7327
▁rock	-10.7338
▁boat	-10.7339
▁Indien	-10.7341
▁opposition	-10.7345
▁Lizenz	-10.7352
▁entirely	-10.7353
▁Because	-10.7354
▁hart	-10.7362
▁science	-10.7362
▁stärken	-10.7365
▁Wohnung	-10.7366
▁difficulties	-10.7368
78	-10.7369
▁Data	-10.7375
orientiert	-10.7377
▁square	-10.7381
▁Vol	-10.7382
▁Immobilien	-10.7388
▁PHP	-10.739
▁classic	-10.7391
produktion	-10.7393
▁betonen	-10.7394
▁consistent	-10.7395
▁evidence	-10.7403
▁aufmerksam	-10.7403
▁dagegen	-10.741
▁Patent	-10.741
zweck	-10.7411
▁darstellen	-10.7415
▁succeed	-10.7422
verhältnis	-10.7422
zeig	-10.7423
▁erfolgen	-10.7424
▁divide	-10.7427
Mitglied	-10.7427
▁Besitz	-10.7429
▁Entwurf	-10.7437
ifikation	-10.7439
71	-10.7444
▁Environment	-10.7448
▁competence	-10.7448
▁erklären	-10.7448
▁architecture	-10.7449
▁Kontroll	-10.745
▁Tele	-10.745
▁Königreich	-10.7451
▁Regulation	-10.7453
year	-10.7456
▁paragraph	-10.7457
▁Militär	-10.7458
▁Welche	-10.746
▁dynamic	-10.7461
▁sauber	-10.7465
▁Jetzt	-10.7466
▁wild	-10.7469
ctic	-10.7473
▁politics	-10.7476
▁Beschreibung	-10.749
▁middle	-10.7491
▁umfasst	-10.7491
▁Jahrzehnt	-10.7493
0,000	-10.7494
▁couple	-10.7495
▁applies	-10.7497
▁Beweis	-10.7505
▁Lake	-10.7505
▁coffee	-10.7506
▁informieren	-10.751
▁Mindest	-10.7511
▁verloren	-10.7523
▁characteristic	-10.7529
▁Fonds	-10.7532
▁Büro	-10.7534
▁scene	-10.7535
▁financing	-10.7538
▁erleben	-10.7538
▁Absatz	-10.7539
DR	-10.754
▁Absicht	-10.7542
82	-10.7543
▁continent	-10.7551
▁Wall	-10.7554
gelassen	-10.756
▁Übergang	-10.7572
dorf	-10.7575
▁Bestandteil	-10.7577
Find	-10.7578
▁Vorstellung	-10.7579
known	-10.7582
kräftig	-10.7586
round	-10.759
▁User	-10.759
▁promoting	-10.759
▁frequent	-10.759
▁2011	-10.7595
▁gewährleistet	-10.7597
▁Poker	-10.76
▁govern	-10.7603
▁arrival	-10.7606
▁appeal	-10.761
▁Prime	-10.7612
▁Brüssel	-10.7612
▁Dimension	-10.7619
▁enormous	-10.7619
▁Angaben	-10.7621
▁Gefühl	-10.7621
▁Update	-10.7627
▁Black	-10.7633
▁fixed	-10.7634
gehoben	-10.7641
▁Asyl	-10.7641
▁prison	-10.7646
▁ernsthaft	-10.7651
▁stable	-10.7651
geteilt	-10.7657
▁trägt	-10.7658
▁imagin	-10.7659
▁Tool	-10.7662
▁flexibility	-10.7662
rink	-10.7664
▁mittels	-10.7667
▁spot	-10.7673
▁grenz	-10.7679
▁Schrift	-10.768
▁himself	-10.768
▁Grundsätze	-10.7694
▁Romania	-10.7695
▁Association	-10.77
▁bodies	-10.77
▁dangerous	-10.7702
▁ultimate	-10.7706
▁myself	-10.7709
▁Kingdom	-10.7711
mount	-10.7719
▁amerikanischen	-10.7722
▁monetary	-10.7722
▁spät	-10.7723
häuser	-10.7733
▁accident	-10.7733
▁THE	-10.7737
▁Ratsvorsitz	-10.7744
▁respective	-10.7745
▁economies	-10.7748
▁license	-10.7748
▁Director	-10.7753
▁outcome	-10.7754
▁recognize	-10.7755
▁television	-10.7759
▁Greek	-10.7759
max	-10.7761
▁Liberal	-10.7761
▁EADS	-10.7762
▁abgeschlossen	-10.7763
▁Warum	-10.7766
▁Argument	-10.7768
▁associated	-10.7773
▁Signal	-10.7773
▁adoption	-10.778
73	-10.7781
▁Werkzeug	-10.7783
▁length	-10.7786
▁Cho	-10.779
52	-10.7791
▁adult	-10.7792
▁assume	-10.7801
▁verfolgen	-10.7804
▁Beteiligung	-10.7806
▁adequate	-10.7811
69	-10.7811
▁übertragen	-10.7812
platte	-10.7815
▁sustain	-10.7815
cli	-10.7819
▁erscheint	-10.782
zügig	-10.7824
▁England	-10.7826
▁Terror	-10.783
▁anyone	-10.7831
▁expression	-10.7832
▁Ya	-10.7834
European	-10.7834
▁gegenseitig	-10.7839
▁politisch	-10.7841
▁sinnvoll	-10.7851
▁concrete	-10.7851
▁Einhaltung	-10.7853
87	-10.7854
▁publish	-10.787
▁Schwerpunkt	-10.7871
speicher	-10.7871
▁immediate	-10.7871
▁Investition	-10.7872
▁Standort	-10.7872
▁Halb	-10.7875
▁lift	-10.7877
▁wunderschöne	-10.7878
▁Once	-10.7878
instrument	-10.7882
svorschriften	-10.7884
▁withdraw	-10.7885
▁dennoch	-10.7889
▁konzentrieren	-10.7893
▁Lesung	-10.7894
▁studies	-10.79
▁parliamentary	-10.7905
▁spent	-10.7911
▁russische	-10.7912
▁easier	-10.7925
▁metal	-10.7928
▁historische	-10.7931
▁Strom	-10.7938
▁secret	-10.7945
▁Breakfast	-10.7947
körper	-10.795
▁Buchung	-10.7953
▁Dennoch	-10.7956
▁humanitarian	-10.7959
▁song	-10.7959
▁Achtung	-10.797
▁Gemeinde	-10.7974
▁hair	-10.7975
▁saving	-10.7977
▁agencies	-10.7981
miet	-10.7982
▁Dorf	-10.7991
▁Bestellung	-10.7997
▁preparation	-10.7997
59	-10.7999
▁spring	-10.7999
hebung	-10.8005
▁endgültig	-10.8011
style	-10.8015
▁Sehenswürdigkei	-10.8015
▁Klicken	-10.8015
▁transition	-10.8019
▁klicken	-10.802
▁nennen	-10.8021
gebühr	-10.8027
▁emerge	-10.8028
▁safeguard	-10.8029
▁Speicher	-10.8029
hängen	-10.8039
▁Patienten	-10.804
▁constitute	-10.804
▁Digital	-10.8054
▁reducing	-10.8054
▁Original	-10.8056
kreis	-10.8057
▁Stoff	-10.8058
▁temperature	-10.8061
▁irgend	-10.8063
▁Support	-10.8063
77	-10.8065
▁Justice	-10.8069
Arbeitslosigkeit	-10.807
▁Katastrophe	-10.8072
freundlich	-10.8072
▁verlassen	-10.8078
▁Nachfolgend	-10.8079
▁carefully	-10.808
▁Polizei	-10.8086
▁funktionieren	-10.809
▁impossible	-10.8093
▁erhält	-10.8096
▁Unterkunft	-10.81
▁Glas	-10.8107
▁virtual	-10.8109
▁hospital	-10.8113
▁zahlen	-10.8119
▁professionelle	-10.812
▁technique	-10.812
▁Realität	-10.8125
just	-10.8126
rühr	-10.8127
▁root	-10.8134
gerecht	-10.8141
▁verursacht	-10.8141
▁geplant	-10.8143
▁feststellen	-10.8144
▁befürworte	-10.8148
down	-10.8157
▁niemand	-10.816
▁producers	-10.8162
54	-10.8178
▁Kompetenz	-10.8187
www	-10.8188
produ	-10.819
▁Stärkung	-10.8192
▁Eigentum	-10.8193
▁Vielzahl	-10.8194
▁condemn	-10.8201
▁Atom	-10.8201
▁truly	-10.8204
▁reasonable	-10.8204
ermaßen	-10.8207
▁Gleichzeitig	-10.8208
▁declare	-10.821
▁Globalisierung	-10.8213
▁grand	-10.8214
▁Angesichts	-10.8215
▁Tisch	-10.8219
▁membership	-10.8219
▁Michael	-10.822
analyse	-10.8221
▁background	-10.8221
▁consumption	-10.8229
direkt	-10.823
rechnung	-10.8232
▁recognition	-10.8236
information	-10.8238
▁hören	-10.8251
▁Elektro	-10.8252
▁humanitäre	-10.8252
▁Verträge	-10.8253
▁Irish	-10.8255
▁Zugriff	-10.8257
▁scheme	-10.8259
▁module	-10.8264
▁Bedarf	-10.8268
▁hergestellt	-10.8269
▁diskutieren	-10.8273
▁jemand	-10.8276
▁insurance	-10.8285
▁Umfang	-10.8286
leiste	-10.8287
▁territory	-10.8292
norm	-10.8294
Komp	-10.8296
▁Liebe	-10.8302
▁Handlung	-10.8308
▁physical	-10.832
▁urban	-10.832
▁danger	-10.8321
▁Dra	-10.833
▁profitieren	-10.8339
▁Verlust	-10.8343
▁geöffnet	-10.8343
▁possibilities	-10.8343
▁Wichtig	-10.8349
▁skills	-10.8358
▁nearby	-10.8364
▁mittlere	-10.8366
▁Effekt	-10.8369
▁surprise	-10.8371
▁überprüfen	-10.8374
regelung	-10.8378
▁Tourismus	-10.8379
▁consultation	-10.838
▁Heimat	-10.839
▁blue	-10.8396
▁availability	-10.8397
▁Drogen	-10.8398
▁greatest	-10.8398
▁diskutiert	-10.84
▁Sehr	-10.8404
▁Federal	-10.8414
▁Niveau	-10.8416
züge	-10.8422
▁gesetzlich	-10.8424
▁Resort	-10.8426
57	-10.8426
▁Democrats	-10.8433
▁vernünftig	-10.8438
▁Institute	-10.8441
▁Flexibilität	-10.8442
▁hingewiesen	-10.8447
▁friend	-10.8455
▁Blue	-10.8457
▁1994	-10.8461
▁Obama	-10.8462
▁unacceptable	-10.8464
▁Flugzeug	-10.8465
▁Stück	-10.8466
▁Datenbank	-10.8469
▁Radio	-10.8473
▁transaction	-10.8476
wohl	-10.8482
▁gewinnen	-10.8483
▁attitude	-10.8492
▁Barroso	-10.8497
58	-10.8509
▁entitled	-10.8516
▁prospect	-10.8523
74	-10.8523
▁restore	-10.8525
▁religious	-10.854
▁satellite	-10.854
▁Wünsche	-10.854
▁danach	-10.855
▁burden	-10.855
▁Verkehr	-10.8551
▁komplexe	-10.8552
Geschäftsordnung	-10.8553
▁Spitze	-10.856
▁attractions	-10.8569
▁Modul	-10.857
▁hall	-10.8572
▁komfortable	-10.8574
AV	-10.8578
▁glass	-10.8579
schaffung	-10.8586
▁attach	-10.8587
▁klein	-10.8594
▁ausgewählt	-10.86
▁trading	-10.8601
tätigkeit	-10.8602
▁Mode	-10.8602
▁Wechsel	-10.8605
▁bildet	-10.8608
▁Justiz	-10.8611
▁examine	-10.8612
Datei	-10.8614
▁asylum	-10.8615
▁privat	-10.8615
▁Regime	-10.8621
81	-10.8626
▁beginnt	-10.863
▁mutual	-10.8639
▁unterstütze	-10.8642
migration	-10.8643
▁Univers	-10.8648
▁Zuständigkeit	-10.8648
▁revolution	-10.8653
▁informiert	-10.8653
geladen	-10.8654
▁fiscal	-10.8658
hundert	-10.8661
▁Zentral	-10.8663
▁commun	-10.8663
▁Quelle	-10.8665
▁buffet	-10.8665
▁geschehen	-10.8665
▁beauty	-10.8665
▁Vienna	-10.8681
▁के	-10.8685
▁maximal	-10.8692
rüstung	-10.8693
▁Latin	-10.8695
▁Foundation	-10.8699
▁beinhaltet	-10.8702
▁unfortunately	-10.8705
▁Einkaufs	-10.8708
▁Verständnis	-10.8709
▁meters	-10.872
▁Turkish	-10.8726
▁acknowledge	-10.8734
▁flat	-10.8734
▁externe	-10.8744
▁expenditure	-10.8746
long	-10.8747
mächtig	-10.8749
▁entstanden	-10.8753
TION	-10.8754
▁Koordinierung	-10.8756
▁advertising	-10.8758
▁Altstadt	-10.876
▁besitzt	-10.8766
▁protest	-10.8766
▁Mutter	-10.8768
▁citizen	-10.8771
▁Maria	-10.8777
keinerlei	-10.8782
▁Gerichtshof	-10.8783
▁nützlich	-10.8792
▁Diskriminierung	-10.8797
▁gestalten	-10.8797
▁interessiert	-10.8797
▁golf	-10.8799
▁betont	-10.8804
▁handle	-10.8805
▁Kopf	-10.8806
▁Foreign	-10.8812
▁beschäftigt	-10.8817
▁Landwirte	-10.8832
USS	-10.8832
▁reliable	-10.8834
▁Product	-10.8838
▁semi	-10.8841
▁earth	-10.8852
▁copy	-10.8864
▁Yu	-10.8868
▁Treffen	-10.8869
▁proportion	-10.8869
▁White	-10.8869
▁Aktiv	-10.887
explo	-10.8871
▁election	-10.8873
▁Branche	-10.8874
wood	-10.8877
▁Ordnung	-10.8879
▁dedicated	-10.8879
▁Einwanderung	-10.8881
▁volume	-10.8881
bund	-10.8881
▁bound	-10.8887
▁Kräfte	-10.8891
▁Another	-10.8891
▁corporate	-10.8896
▁delegation	-10.8896
▁vereinbart	-10.8898
▁luxury	-10.8906
▁kritisch	-10.8913
2010	-10.8916
▁Delegation	-10.8916
▁festgestellt	-10.8917
▁Java	-10.8922
▁grundsätzlich	-10.8923
▁Brand	-10.8925
▁compared	-10.8926
▁master	-10.8928
▁complain	-10.8929
▁storage	-10.8933
84	-10.8934
ppel	-10.8934
▁push	-10.894
63	-10.8943
▁Manager	-10.8949
▁earn	-10.895
▁quick	-10.8953
▁Eastern	-10.8956
▁mistake	-10.8958
▁kept	-10.8974
83	-10.8977
▁vollkommen	-10.8984
▁story	-10.8987
▁graphic	-10.8989
▁manufacture	-10.899
▁advice	-10.8991
▁Training	-10.8991
▁Stock	-10.8997
länge	-10.8998
▁convinced	-10.9011
▁Liberalisierung	-10.9012
▁PDF	-10.9013
▁Fenster	-10.902
▁assure	-10.9023
▁memory	-10.9023
▁herrliche	-10.9028
▁eröffnet	-10.9041
schätze	-10.9057
▁declaration	-10.9061
▁corner	-10.9066
▁Bulgaria	-10.9066
▁hauptsächlich	-10.9066
▁Israeli	-10.9071
▁entsprechen	-10.9072
▁Nevertheless	-10.9074
▁Überprüfung	-10.9079
▁concert	-10.9079
▁ökologisch	-10.9084
▁biggest	-10.9084
▁drop	-10.9085
▁Gegensatz	-10.9085
schüsse	-10.9087
▁pursue	-10.9089
▁contrary	-10.9091
▁strength	-10.9094
schiff	-10.9099
▁moving	-10.9101
▁intelligent	-10.9104
▁verabschiedet	-10.9107
agon	-10.9112
▁dream	-10.9117
▁akzeptiert	-10.9119
▁maintenance	-10.9119
▁coordinate	-10.9122
▁Fitness	-10.9127
▁Eindruck	-10.9128
schränke	-10.9132
trauen	-10.9138
▁garantieren	-10.914
Rechtsvorschrift	-10.914
▁Grundrechte	-10.9142
{	-10.915
▁wealth	-10.9154
direct	-10.9157
cott	-10.9161
▁Unabhängigkeit	-10.9163
▁wachsende	-10.9163
▁department	-10.9168
▁weapons	-10.9168
Rezeption	-10.9173
▁betrachten	-10.9173
▁Company	-10.9178
▁Theater	-10.918
▁Vorsitzende	-10.9201
▁ambitious	-10.9203
▁Netherlands	-10.9209
▁colleague	-10.921
▁achieving	-10.9214
▁chosen	-10.9214
▁teilnehmen	-10.9237
ception	-10.9239
▁Gebrauch	-10.9242
▁Palace	-10.925
▁überzeugen	-10.9253
▁Risiken	-10.9257
regeln	-10.9257
▁neither	-10.9268
▁umfassen	-10.9274
▁Special	-10.9279
▁wichtigste	-10.9283
▁sensitive	-10.9283
▁verehrte	-10.9283
▁sogenannte	-10.9286
▁üblich	-10.9286
institut	-10.929
▁erfordert	-10.9291
▁Robert	-10.9297
astronom	-10.9303
▁agency	-10.9312
▁Stadtzentrum	-10.9314
▁Ticket	-10.9314
▁PPE	-10.9314
▁Montag	-10.9316
wide	-10.9317
haushalt	-10.9329
schule	-10.9332
▁Vertrieb	-10.9339
gebildet	-10.9342
▁deficit	-10.9343
schätzung	-10.9343
▁ausgewogen	-10.9345
▁Öko	-10.9347
gewinn	-10.9363
▁judge	-10.9374
▁Where	-10.9374
▁chemical	-10.9382
▁honourable	-10.9387
▁Englisch	-10.9395
▁Datenschutz	-10.9396
town	-10.9416
ancy	-10.9421
▁parallel	-10.9423
▁Music	-10.9428
▁undertake	-10.9429
▁distinct	-10.9431
▁continuing	-10.9434
▁identify	-10.9434
assembl	-10.9436
▁equality	-10.9437
▁Übereinkommen	-10.9439
▁Zentralbank	-10.9447
▁Good	-10.945
▁exklusiv	-10.9452
▁extension	-10.9455
▁jüngsten	-10.946
▁organised	-10.9467
▁browser	-10.9468
▁evaluation	-10.9468
▁pleasure	-10.9468
▁outstanding	-10.9468
▁frisch	-10.9472
▁afford	-10.9474
▁Muslim	-10.9476
▁Metro	-10.9489
▁Croatia	-10.9492
ancing	-10.9502
▁Cuba	-10.9502
▁visa	-10.9506
flex	-10.9513
▁Einwohner	-10.9516
▁Agency	-10.9521
▁Drei	-10.9521
▁ECU	-10.9524
▁Verbrechen	-10.9524
▁independence	-10.9526
▁korrekt	-10.9529
▁participants	-10.9531
ergebnis	-10.9539
lux	-10.9539
▁gelungen	-10.9541
▁definiert	-10.9542
▁Zoll	-10.9546
▁aircraft	-10.9555
▁Klimaanlage	-10.9556
▁elected	-10.9556
▁surrounded	-10.9558
▁Bahnhof	-10.9558
▁assess	-10.9559
▁multilateral	-10.956
▁blood	-10.9563
▁eingereicht	-10.9563
▁species	-10.9564
▁Kamera	-10.9566
▁Royal	-10.9569
▁Papier	-10.9572
▁daraus	-10.9573
▁yesterday	-10.9574
▁multiple	-10.9582
▁criticism	-10.9584
▁Appartement	-10.9584
▁Kontinent	-10.9592
▁wonder	-10.9592
▁Arbeitsmarkt	-10.9596
▁kürzlich	-10.9598
▁manchmal	-10.96
fahrzeug	-10.9606
▁Definition	-10.9608
▁Experten	-10.9612
▁Summit	-10.9614
▁sorgfältig	-10.9616
▁Kombination	-10.9619
▁Verletzung	-10.9619
▁Erholung	-10.9622
▁Erhöhung	-10.963
▁facilitate	-10.9632
▁sovereign	-10.9638
▁violation	-10.9659
▁Nachdem	-10.9661
▁continuous	-10.9667
▁prepare	-10.9669
▁müsste	-10.967
▁estimate	-10.9671
▁accessible	-10.9679
ographic	-10.968
▁putting	-10.968
prob	-10.9683
▁merely	-10.9687
▁Streit	-10.9694
▁category	-10.9697
▁registration	-10.9697
▁worse	-10.97
▁battle	-10.9714
▁stimmt	-10.9717
▁Beihilfen	-10.9721
▁recovery	-10.9723
▁klassische	-10.9729
▁Hälfte	-10.9732
▁geschieht	-10.9734
▁communities	-10.9738
▁Putin	-10.9738
▁beglückwünsche	-10.974
▁Audio	-10.9741
▁disposal	-10.9742
gebunden	-10.9743
▁refuse	-10.9756
▁Gegenteil	-10.9757
▁damals	-10.976
▁kaufen	-10.9766
ebene	-10.9769
▁changing	-10.9772
durch	-10.9774
dependent	-10.9776
▁journal	-10.9777
▁Formular	-10.9779
▁ältere	-10.9784
▁quarter	-10.9797
▁contemporary	-10.9802
brechen	-10.9803
▁supplement	-10.9807
prozess	-10.9809
▁außerordentlich	-10.981
▁spricht	-10.9813
▁Revolution	-10.9818
▁Teilnahme	-10.9823
▁experiment	-10.9824
▁unternommen	-10.9824
▁Ursache	-10.9824
▁furnished	-10.9826
▁wodurch	-10.9826
▁deposit	-10.9831
europäische	-10.9833
▁technological	-10.9835
▁zugänglich	-10.9835
▁subsequent	-10.9843
▁Schreib	-10.9843
▁Freude	-10.9845
▁Ebenso	-10.9848
▁overlook	-10.9856
▁approximately	-10.9859
▁endorse	-10.986
▁switch	-10.9862
▁übernommen	-10.9865
▁kostenfrei	-10.9865
smoking	-10.987
▁journey	-10.9873
▁Located	-10.9876
ström	-10.9877
▁Energy	-10.9878
▁anbieten	-10.9878
▁1992	-10.9881
▁zählen	-10.9881
▁Square	-10.9884
▁einverstanden	-10.9887
▁Effizienz	-10.99
▁selten	-10.9902
▁basiert	-10.9904
forschung	-10.9907
▁sonst	-10.9914
telefon	-10.9914
▁reveal	-10.9917
▁präsentiert	-10.9917
▁bewegen	-10.9921
▁Hauptstadt	-10.9927
▁Those	-10.9931
▁Sweden	-10.9933
▁Alliance	-10.9939
▁andererseits	-10.9943
▁enforce	-10.9944
▁movie	-10.9945
▁Abschnitt	-10.9946
▁universal	-10.9952
▁collective	-10.9956
▁governance	-10.9958
▁profile	-10.9959
▁Enjoy	-10.9964
▁concentrate	-10.9969
ों	-10.9981
▁Überzeugung	-10.9983
▁steel	-10.9983
▁Nahrungsmittel	-10.9986
Plattform	-10.9986
deutsch	-10.9989
▁planned	-10.9996
▁primary	-10.9997
▁Konzert	-10.9997
▁glad	-10.9999
▁fashion	-11.0002
▁Touristen	-11.0003
responsibilities	-11.0011
▁Niederlande	-11.0011
sobald	-11.0018
▁liability	-11.0022
verbrauch	-11.0028
▁öffentlich	-11.0035
▁gestaltet	-11.0036
▁Pension	-11.004
▁identity	-11.0041
▁Express	-11.0049
▁vorschlagen	-11.0075
▁Austausch	-11.0077
▁Symbol	-11.0078
▁Dienstleistungs	-11.0079
▁consensus	-11.008
▁preserve	-11.0087
▁George	-11.0093
▁primarily	-11.0094
▁driving	-11.0094
gewicht	-11.0095
▁detect	-11.0097
▁manufacturing	-11.0111
▁fraud	-11.0114
▁settlement	-11.0119
▁JavaScript	-11.0122
▁Hilfs	-11.0126
▁Tibet	-11.0127
strahl	-11.0129
gefügt	-11.0133
▁impression	-11.0134
▁schedule	-11.0142
▁Konvent	-11.0145
▁reagieren	-11.0153
▁Eltern	-11.0154
▁explore	-11.0158
▁qualitativ	-11.0159
▁incorporate	-11.0167
▁Nachfrage	-11.0175
öpfe	-11.0182
▁dinner	-11.0193
▁default	-11.0195
▁Financial	-11.0201
▁Religion	-11.0207
reinigung	-11.0207
▁album	-11.021
▁snow	-11.0213
▁truth	-11.0215
▁Know	-11.0219
▁Kohle	-11.022
Deutsch	-11.022
▁mother	-11.0226
▁medicine	-11.0232
▁Socialist	-11.0245
▁Chamber	-11.0246
▁erscheinen	-11.0248
musik	-11.0253
▁abgestimmt	-11.0255
▁dispute	-11.0256
einrichtungen	-11.0261
▁David	-11.0263
▁dauerhaft	-11.0266
▁School	-11.0275
wässer	-11.0278
▁Dutch	-11.0284
▁Wahrheit	-11.0298
print	-11.0298
▁Wild	-11.0298
▁arise	-11.0302
▁{{	-11.0306
▁differ	-11.0324
▁Automat	-11.0333
▁Pflanzen	-11.0343
▁password	-11.0349
▁expensive	-11.0355
▁contextual	-11.0358
▁erhältlich	-11.036
▁tackle	-11.0361
▁sensible	-11.0369
▁Dublin	-11.0372
▁Schwarz	-11.0375
niveau	-11.0377
kapital	-11.0381
▁Aufgrund	-11.0383
▁Ferienwohnung	-11.0387
▁outdoor	-11.0387
▁begonnen	-11.0389
▁gefördert	-11.039
▁medizinische	-11.0398
▁Mountain	-11.0407
stätte	-11.0411
▁Gewicht	-11.0418
Institut	-11.0436
▁opposite	-11.0439
Veröffentlichung	-11.045
▁renoviert	-11.045
▁Komponente	-11.0456
▁leiden	-11.0468
2009	-11.0473
▁Gründung	-11.0474
drücken	-11.0476
▁deserve	-11.0484
▁Betracht	-11.0485
▁langsam	-11.049
▁Haftung	-11.0491
schloss	-11.0494
▁behandeln	-11.05
▁exceed	-11.0506
▁Ferr	-11.0525
▁vielfältig	-11.0529
▁dürfte	-11.0535
▁territorial	-11.0537
▁produziert	-11.054
gebung	-11.0541
▁ausführlich	-11.0549
▁Anbieter	-11.0552
▁mandate	-11.0556
▁leadership	-11.0558
▁Brenn	-11.0562
▁father	-11.0567
▁filter	-11.0568
▁valley	-11.0573
▁quota	-11.0573
▁Kaffee	-11.0576
▁diesbezüglich	-11.0581
▁renewable	-11.0581
▁acquire	-11.0584
▁sorgt	-11.06
▁Schloss	-11.0606
▁Klasse	-11.0607
▁Schweden	-11.0614
▁beschränkt	-11.0614
▁entspannen	-11.0614
führt	-11.0621
Berücksichtigung	-11.0623
▁Kollege	-11.0624
▁Fälle	-11.063
▁attraktiv	-11.0631
werfen	-11.0632
▁sanctions	-11.064
▁Bedrohung	-11.0649
▁Rumänien	-11.0649
child	-11.0651
▁Umständen	-11.0652
▁konstruktiv	-11.0658
▁horse	-11.0663
▁Rotary	-11.0664
austausch	-11.0664
product	-11.0666
▁discharge	-11.0667
entwurf	-11.0667
▁Church	-11.067
▁Einklang	-11.0673
▁Stunde	-11.0674
▁Kunde	-11.0677
▁Brazil	-11.0679
▁bereitgestellt	-11.0684
▁zuverlässig	-11.0688
▁Erzeugnisse	-11.0694
▁Gleichgewicht	-11.0697
überschreitende	-11.07
▁sleep	-11.0706
▁ziemlich	-11.0712
▁erhielt	-11.0715
▁zustimmen	-11.0717
▁straight	-11.072
▁qualified	-11.072
▁castle	-11.0727
▁München	-11.0729
▁Tarif	-11.0738
▁verlieren	-11.0739
«	-11.074
▁contrast	-11.0744
▁befassen	-11.0747
▁Despite	-11.075
▁ergriffen	-11.0757
▁Wolf	-11.0758
▁Fluss	-11.0765
wünsche	-11.0767
▁parameter	-11.0767
▁kontextuell	-11.0768
▁privacy	-11.0768
▁Johann	-11.0768
▁Blut	-11.0771
▁vielmehr	-11.0771
▁heavy	-11.0774
käufe	-11.0777
▁plug	-11.0781
▁Kilometer	-11.0783
employed	-11.0786
▁expense	-11.0787
▁nochmals	-11.0791
▁Ziffer	-11.0793
volution	-11.0794
▁expectations	-11.0803
▁beschrieben	-11.0805
▁griechische	-11.0813
▁türkische	-11.0819
▁residence	-11.0822
▁grüne	-11.0826
▁expertise	-11.0827
▁verlangt	-11.0827
▁Question	-11.0828
▁GDP	-11.0828
▁Operation	-11.0829
▁Egypt	-11.0831
▁Before	-11.0835
▁Eisenbahn	-11.0837
▁compliance	-11.0837
▁birth	-11.0847
entscheidung	-11.0853
▁Versorgung	-11.0861
▁gather	-11.0865
▁Perspektive	-11.087
▁relatively	-11.0871
▁beliebig	-11.0878
▁Dadurch	-11.088
ст	-11.0881
▁Schäden	-11.0883
▁furniture	-11.0889
▁leisure	-11.0892
▁politicians	-11.0898
▁Geburt	-11.0907
▁Vielleicht	-11.091
▁Kyoto	-11.0919
▁compensation	-11.0919
▁dollar	-11.0919
▁approval	-11.0922
▁Munich	-11.0922
▁advise	-11.0923
▁Übernachtung	-11.0931
datei	-11.0938
Service	-11.0947
▁Strukturfonds	-11.095
▁Erwachsene	-11.0956
▁Kreis	-11.0957
▁südlich	-11.0962
▁cycle	-11.0965
▁trotzdem	-11.0972
▁Sanktionen	-11.0974
▁Sauna	-11.0977
▁exclude	-11.098
▁Ideal	-11.098
räumt	-11.098
▁eventuell	-11.0982
▁branch	-11.1
▁fantastic	-11.1001
▁Regulierung	-11.1007
▁Menü	-11.1012
▁Ausstattung	-11.1032
▁Mikro	-11.1033
▁Gestaltung	-11.1035
▁Kranken	-11.1039
▁constructive	-11.1044
▁shift	-11.1048
▁Fläche	-11.1051
spezifisch	-11.1055
▁entertainment	-11.106
verwaltung	-11.1072
▁Maßnahme	-11.1074
▁villa	-11.1074
▁wiederholt	-11.1076
▁Schlafzimmer	-11.1078
▁architect	-11.1083
▁confident	-11.1084
drückt	-11.1085
▁gestern	-11.1097
▁Adria	-11.1098
▁emotion	-11.11
▁Badezimmer	-11.1103
▁verlangen	-11.1104
dokument	-11.111
▁broke	-11.1112
▁Temperatur	-11.1115
▁Identität	-11.1125
space	-11.1128
▁Verfügbarkeit	-11.1131
▁applicable	-11.1137
▁Eigenschaften	-11.1143
▁creative	-11.115
▁erneuerbare	-11.1153
▁belief	-11.1154
dreh	-11.1158
▁bemüht	-11.1159
Beifall	-11.1159
▁dishes	-11.1161
▁miles	-11.1162
▁Aussage	-11.1172
▁schafft	-11.1174
▁investigation	-11.1187
▁Summe	-11.1187
anspruch	-11.1196
▁sexual	-11.1199
▁Kreditkarte	-11.1212
▁valuable	-11.1218
▁vessel	-11.1221
afrikanisch	-11.1243
▁gespeichert	-11.1243
▁Vermittlung	-11.1256
▁außergewöhnlich	-11.1262
▁vacation	-11.1272
▁kompliziert	-11.1275
▁involving	-11.1278
▁zählt	-11.1283
▁schlimm	-11.1284
▁Technology	-11.1287
▁dynamisch	-11.1287
schneid	-11.1289
▁Leitlinien	-11.1294
▁bezieht	-11.1297
▁Tatsächlich	-11.13
▁Provinz	-11.1306
▁Airbus	-11.1311
▁sonstige	-11.1317
▁reaction	-11.1325
▁Skype	-11.1331
▁gewährt	-11.1331
▁whilst	-11.1331
}	-11.1334
institutionellen	-11.1335
▁Network	-11.1338
▁intellectual	-11.1363
▁latter	-11.1364
▁finanziell	-11.137
▁Führer	-11.1379
▁Verhandlungs	-11.138
▁Salzburg	-11.1385
▁liefern	-11.1391
▁beträgt	-11.1395
2008	-11.1396
▁ambition	-11.1398
▁lounge	-11.14
▁Strategy	-11.1405
▁description	-11.1405
▁View	-11.1409
▁Wirklichkeit	-11.1417
▁copyright	-11.1424
▁sauna	-11.1427
▁Client	-11.143
▁Michel	-11.1433
▁impressive	-11.1433
▁Swedish	-11.1436
▁girl	-11.1437
▁weather	-11.1437
▁inzwischen	-11.1449
▁Gebühr	-11.1459
▁Optim	-11.1468
▁Welcome	-11.1472
▁Browser	-11.1472
defini	-11.1476
▁Genehmigung	-11.1488
sieht	-11.149
▁Börse	-11.1492
▁panel	-11.1503
▁engineering	-11.1511
▁erzeugt	-11.1512
▁Kandidat	-11.1513
▁Safety	-11.1514
▁thorough	-11.1517
▁entschlossen	-11.1523
▁Güter	-11.1524
▁Kommentar	-11.1536
▁Strecke	-11.1548
▁MySQL	-11.1552
▁Stellung	-11.1558
▁Flüchtlinge	-11.1575
zauber	-11.1575
situation	-11.1578
▁leaving	-11.1585
▁visual	-11.1586
▁mobility	-11.1588
▁alarm	-11.1593
▁wunderbar	-11.1608
▁Herkunft	-11.1609
▁frame	-11.1609
▁festival	-11.1614
▁Ambiente	-11.1617
▁regulate	-11.1618
▁Oberfläche	-11.1618
▁beträchtlich	-11.1624
▁Reserve	-11.164
▁Erwartungen	-11.164
▁Harmonisierung	-11.164
ación	-11.1652
▁Ehre	-11.1652
▁remote	-11.1657
titude	-11.1667
▁familiar	-11.1673
$	-11.1677
schrieb	-11.1679
▁bridge	-11.1679
▁domain	-11.168
▁weshalb	-11.1685
▁besitzen	-11.1685
▁entdecken	-11.1686
▁excessive	-11.1692
▁zweifellos	-11.1693
▁Erinnerung	-11.1699
▁Festlegung	-11.17
▁hilft	-11.1712
▁translate	-11.1721
▁automatic	-11.1723
▁Ohne	-11.1733
▁Ausgangspunkt	-11.1735
▁fühlen	-11.1735
▁upgrade	-11.1736
▁GNU	-11.1748
pläne	-11.1752
▁religiöse	-11.1755
▁öffnen	-11.1768
depth	-11.177
▁Instead	-11.1778
▁obstacle	-11.1782
▁Angst	-11.1786
▁incentive	-11.1788
▁ignore	-11.1798
▁inflation	-11.1808
▁niemals	-11.1815
▁geprüft	-11.1825
▁Second	-11.1828
streit	-11.1828
▁Terra	-11.1843
▁abgelehnt	-11.1845
▁amtierende	-11.1847
▁apparent	-11.1848
▁verändern	-11.1851
▁Häuser	-11.1855
▁irgendeine	-11.1862
▁Japanese	-11.1876
▁englische	-11.1879
▁entdeckt	-11.1885
oire	-11.189
▁privilege	-11.1891
▁erinnert	-11.1891
gefangen	-11.1894
▁wave	-11.1894
▁faith	-11.1895
▁Luxembourg	-11.1901
▁gelöst	-11.1918
▁Monetary	-11.1935
diagnos	-11.1935
▁pattern	-11.1935
papier	-11.1942
▁Procedure	-11.1942
▁sichtbar	-11.1945
▁fehlt	-11.195
▁Übereinstimmung	-11.1955
ifizieren	-11.1962
▁geehrte	-11.1964
▁Stärke	-11.1966
▁ausgesprochen	-11.1969
▁abroad	-11.1972
▁Access	-11.1975
▁revenue	-11.1982
▁temporary	-11.1989
▁Ladies	-11.1993
▁technologische	-11.1999
▁argue	-11.2008
▁bekämpfen	-11.2016
field	-11.2019
▁religion	-11.2019
▁Kapazität	-11.2026
related	-11.2027
▁reinforce	-11.2036
▁Hostelsclub	-11.2047
▁clause	-11.2047
▁Viertel	-11.2054
zöge	-11.2061
▁Konsens	-11.2064
▁geprägt	-11.2067
▁Widerstand	-11.207
▁erreichbar	-11.2071
▁Vermögen	-11.2074
▁Zusätzlich	-11.2081
▁lobby	-11.2081
periode	-11.2082
▁anwesend	-11.2089
▁verhindert	-11.2098
▁configuration	-11.2098
▁Washington	-11.2108
▁Thomas	-11.2108
zweifel	-11.2112
▁supposed	-11.2125
▁verkauft	-11.2129
▁decorated	-11.2132
▁balcony	-11.2135
▁begrüßt	-11.2142
▁gesunde	-11.2143
▁Schönheit	-11.2146
▁Taiwan	-11.2149
▁abandon	-11.2153
▁Australia	-11.2163
Emissionen	-11.2165
▁Geschmack	-11.2166
▁Gentoo	-11.2166
▁Reservierung	-11.217
▁ethnic	-11.217
▁heutige	-11.2173
▁Konsum	-11.2182
▁Besorgnis	-11.2201
liberal	-11.2205
▁Wähler	-11.2218
▁Verantwortlich	-11.2223
▁Plenum	-11.2229
▁severe	-11.2229
▁Schüler	-11.2232
▁precise	-11.2233
▁Migration	-11.2235
▁monument	-11.2239
▁Maastricht	-11.2242
▁anschließend	-11.2242
▁spezialisiert	-11.2246
▁Petition	-11.2246
▁Schatten	-11.2246
▁Executive	-11.2249
▁Mobilität	-11.2253
▁Serbia	-11.2253
▁verurteilt	-11.2253
▁entrance	-11.2256
▁Kongress	-11.2266
▁prohibit	-11.2267
▁negotiate	-11.2274
▁Fleisch	-11.2275
▁separat	-11.228
▁qualifizierte	-11.2284
▁renovated	-11.2288
viertel	-11.2288
▁explanation	-11.2315
▁reduziert	-11.2322
▁radical	-11.2325
▁geboren	-11.2327
▁expansion	-11.2329
rechnen	-11.2334
▁Anreiz	-11.2349
▁Through	-11.2354
▁finanziert	-11.2357
▁witness	-11.2357
▁Schwimm	-11.2358
▁aufgefordert	-11.2361
▁Kapitel	-11.2361
▁arrest	-11.2361
▁decisive	-11.2364
effekt	-11.2377
▁accurate	-11.2379
€	-11.2382
▁ungefähr	-11.2383
▁Congress	-11.2386
▁Budapest	-11.2393
▁erlauben	-11.2393
▁afternoon	-11.2396
Projekt	-11.2407
▁Cyprus	-11.241
verletzung	-11.2414
▁Bearbeitung	-11.2425
▁konzentriert	-11.2428
▁verbreitet	-11.2429
wünscht	-11.2429
▁gewonnen	-11.2431
Ä	-11.2439
▁bestimmen	-11.2439
▁wertvolle	-11.2446
▁fleet	-11.2446
▁Mandat	-11.2448
▁maritime	-11.2453
▁Verringerung	-11.2456
▁Verarbeitung	-11.2456
Strategie	-11.2457
▁beruht	-11.2458
▁somewhat	-11.246
▁stylish	-11.246
▁smooth	-11.247
▁MEPs	-11.247
▁vorbereitet	-11.2474
▁uneingeschränkt	-11.2485
▁Glauben	-11.2499
▁minority	-11.2502
tschaftswachstum	-11.2509
Distribution	-11.2509
▁eliminate	-11.2513
▁regulatory	-11.2513
▁Inflation	-11.2517
▁Franz	-11.2519
▁Gepäck	-11.2527
▁Sunday	-11.2527
▁Year	-11.2532
▁verdient	-11.2535
bekämpfung	-11.2538
▁Erlebnis	-11.2542
▁kostet	-11.2545
▁Konzern	-11.2549
▁collaboration	-11.257
initiative	-11.2573
▁Drittländern	-11.2574
▁decline	-11.2574
träglich	-11.2574
▁({{	-11.2581
▁Kroatien	-11.2581
▁discount	-11.2581
▁kurzfristig	-11.2581
▁calm	-11.2583
▁Investment	-11.2585
▁sodass	-11.2588
▁zugunsten	-11.2592
▁herrscht	-11.2599
▁bestätigen	-11.2613
▁Vietnam	-11.2621
▁Entlastung	-11.2624
▁pollution	-11.2635
▁magazine	-11.2642
▁Hochschul	-11.2643
▁Framework	-11.2649
▁Professional	-11.2653
▁welfare	-11.2653
▁Ursprung	-11.2664
▁emergency	-11.2675
▁kontinuierlich	-11.2678
▁angepasst	-11.2689
▁ehrgeizig	-11.2693
▁bottom	-11.2704
▁subsidies	-11.2707
▁unverzüglich	-11.2707
▁hängt	-11.2726
▁pillar	-11.2729
▁Bulgarien	-11.2733
▁Panorama	-11.2733
▁grateful	-11.2736
▁weitgehend	-11.274
ography	-11.2742
▁parlamentarisch	-11.2747
▁verringern	-11.2747
▁understood	-11.2755
▁gift	-11.2755
▁heritage	-11.2762
▁serviert	-11.277
erklärung	-11.2777
▁Ansprüche	-11.2788
▁Protection	-11.2788
▁visible	-11.2788
konzept	-11.2791
▁wheel	-11.2791
läufe	-11.28
▁avec	-11.2803
▁Kreuz	-11.2806
▁courage	-11.2806
▁Einbeziehung	-11.2806
▁kämpfen	-11.281
▁KMU	-11.281
▁Georgia	-11.2813
▁prompt	-11.2814
geschichte	-11.2817
▁Geschwindigkeit	-11.2821
▁library	-11.2824
▁Werbung	-11.2824
▁Tausende	-11.2836
▁celebrate	-11.2846
▁statistics	-11.2854
▁Customer	-11.2857
▁Mexico	-11.2857
▁generell	-11.2866
▁producing	-11.2869
▁emerging	-11.2876
▁konsequent	-11.2883
▁personnel	-11.2885
▁gezwungen	-11.2887
▁Science	-11.2887
durchschnittlich	-11.2888
▁berufliche	-11.2893
▁protocol	-11.2898
▁geboten	-11.2914
▁resistance	-11.2917
▁verleihen	-11.2917
makers	-11.2918
▁Fremd	-11.292
▁wann	-11.2923
▁Earth	-11.2928
▁Erfüllung	-11.2931
▁murder	-11.2935
mouth	-11.2953
▁delighted	-11.2954
▁schwedische	-11.2957
▁Gewährleistung	-11.2961
▁zivil	-11.2963
▁comparison	-11.2965
▁liquid	-11.2965
▁Holiday	-11.298
▁Korruption	-11.2987
▁Copenhagen	-11.2991
▁Whether	-11.2995
fremd	-11.2998
▁Rechtsgrundlage	-11.3002
ausschuß	-11.3006
▁cooperate	-11.3006
economic	-11.3012
▁Anzeige	-11.3013
▁Soviet	-11.3014
▁Seminar	-11.3014
▁Spannung	-11.3021
▁geäußert	-11.3025
▁disappear	-11.3025
▁unfair	-11.3029
▁Räume	-11.3034
▁Verbreitung	-11.3036
▁Meeting	-11.3036
▁bemühen	-11.304
▁Sammlung	-11.304
▁inhabitants	-11.3059
▁kontrolliert	-11.3064
▁referendum	-11.3066
▁competent	-11.3066
bewegung	-11.3072
▁struggle	-11.3077
▁uncertain	-11.3081
▁Besonders	-11.3085
▁Öffnung	-11.3085
▁accompanied	-11.31
▁newspaper	-11.3108
oriented	-11.3115
▁Perhaps	-11.3119
▁Letzte	-11.3122
▁erleichtern	-11.3127
▁geräumig	-11.3127
▁strike	-11.3127
▁stolz	-11.3146
▁Statistik	-11.3149
▁Ungarn	-11.3161
▁behaviour	-11.3172
▁Himmel	-11.3172
läufig	-11.3172
pflanz	-11.3179
▁overcome	-11.3181
▁ergänzen	-11.3187
▁Anwender	-11.3187
▁corruption	-11.3191
▁Pläne	-11.3191
▁letztlich	-11.3203
▁Grafik	-11.3203
▁aktuell	-11.3203
▁Portuguese	-11.321
▁Professor	-11.321
▁chemische	-11.3212
▁Zypern	-11.3218
▁exciting	-11.3218
▁await	-11.3219
▁Luxus	-11.3222
▁Adobe	-11.3226
▁kommerzielle	-11.3229
▁niedriger	-11.3237
▁knapp	-11.3237
▁Metall	-11.3241
spräsident	-11.3241
demokratische	-11.3247
▁Registrierung	-11.3249
sphäre	-11.3256
▁verteilt	-11.326
▁hinzufügen	-11.326
▁Deswegen	-11.326
▁में	-11.3268
▁plastic	-11.328
▁honour	-11.3287
▁spectacular	-11.3287
▁Bücher	-11.3291
▁Betrug	-11.3295
▁observation	-11.3295
▁industrielle	-11.3302
▁Quark	-11.3302
▁Newsletter	-11.3306
▁Aktionsplan	-11.331
▁magnificent	-11.3318
▁geistige	-11.3329
▁Leitung	-11.333
▁plenty	-11.3341
▁palästinensisch	-11.3345
▁doppelt	-11.3345
familie	-11.3349
▁ordnungsgemäß	-11.3356
▁österreichische	-11.3356
beziehungen	-11.3357
▁getrennt	-11.336
▁explicit	-11.3364
kämpft	-11.3376
▁centuries	-11.3391
▁Rohstoff	-11.3391
▁Hungarian	-11.3395
▁Übertragung	-11.3395
▁credibility	-11.3399
▁minorities	-11.3399
▁distinguish	-11.3403
▁Kirk	-11.3415
▁dramatic	-11.3419
▁uniform	-11.3419
▁Description	-11.3438
▁definitely	-11.3442
▁inclusion	-11.345
▁judicial	-11.3454
▁Plug	-11.3459
▁Einschränkung	-11.3466
▁Subsidiarität	-11.3466
▁possess	-11.3477
▁Statut	-11.3483
▁Brasilien	-11.3493
▁Alexander	-11.3501
▁facility	-11.3501
▁Consumer	-11.3501
▁zerstört	-11.3513
marquis	-11.3513
▁Defizit	-11.3517
▁Belgium	-11.3521
▁beschäftigen	-11.3521
▁subsidiarity	-11.3521
Applause	-11.3532
▁Insbesondere	-11.3536
kampf	-11.3544
▁Wandel	-11.3548
▁Anmerkung	-11.3549
▁alcohol	-11.356
▁Exchange	-11.356
▁errichtet	-11.3568
▁Hungary	-11.3572
▁Puerto	-11.3572
▁departure	-11.3576
▁nunmehr	-11.358
▁verstärken	-11.3588
▁Förder	-11.3589
▁Bereitstellung	-11.3604
▁verbindlich	-11.3604
Produkt	-11.3605
▁Respekt	-11.3608
▁eastern	-11.3616
▁gallery	-11.3624
▁trouble	-11.3628
ounce	-11.3631
▁communicate	-11.3632
▁Vorhaben	-11.3632
▁incident	-11.3632
▁casino	-11.3636
▁luxurious	-11.3644
▁adventure	-11.366
▁appointed	-11.366
▁narrow	-11.366
▁Content	-11.3665
▁reduzieren	-11.3672
▁slightly	-11.3672
▁Kaiser	-11.3672
▁Tabak	-11.3676
▁Volkswirtschaft	-11.3684
▁Structural	-11.3688
▁satisfied	-11.3688
▁broadcast	-11.3692
fänge	-11.3705
gäste	-11.371
▁destruction	-11.3716
▁satisfy	-11.3724
▁gefährdet	-11.3736
▁possibly	-11.3744
▁Dreh	-11.3744
▁Verpackung	-11.3748
▁Würde	-11.3753
▁Kampagne	-11.376
▁province	-11.3768
bgesehen	-11.377
▁Diplom	-11.3773
▁housing	-11.3776
▁Clear	-11.3777
▁encounter	-11.378
▁undertaking	-11.378
▁angewandt	-11.3792
▁inklusive	-11.3796
▁Abhängigkeit	-11.38
▁rechtzeitig	-11.38
▁flood	-11.38
▁Medizin	-11.3801
▁Akteure	-11.3808
▁schlägt	-11.3817
▁Café	-11.3821
bedingt	-11.3823
▁Meister	-11.3825
▁letztendlich	-11.3825
▁Beamte	-11.3825
▁Kopie	-11.3826
▁identified	-11.3833
▁Stockholm	-11.3837
▁Rechnungshof	-11.3837
▁Filter	-11.3837
psycholog	-11.3845
▁AKP	-11.387
▁Account	-11.3878
Source	-11.3881
▁tobacco	-11.3886
terrasse	-11.389
▁sphere	-11.3895
▁encouraging	-11.3902
▁eventually	-11.3902
▁preparing	-11.3902
zusammenarbeiten	-11.391
▁Befugnisse	-11.391
▁horizontal	-11.391
▁survey	-11.391
▁BMW	-11.3919
▁certificate	-11.3931
▁Ernährung	-11.3935
▁unanimous	-11.3935
▁extraordinary	-11.3943
▁äußern	-11.3951
bezogene	-11.3971
▁Empfang	-11.3972
▁stammen	-11.3977
▁honest	-11.3985
▁authentic	-11.3989
▁brutal	-11.3989
geordnete	-11.399
ière	-11.3994
(1)	-11.4001
▁executive	-11.4001
▁vulnerable	-11.4001
▁Fünf	-11.4006
▁Syria	-11.4009
▁Lobby	-11.4026
ografische	-11.4032
▁Kopenhagen	-11.4034
▁HTML	-11.4034
▁geliefert	-11.4039
pixel	-11.4041
▁Assembly	-11.4055
▁Tabelle	-11.4057
▁profession	-11.4063
▁überprüft	-11.4063
commerce	-11.4068
währung	-11.4072
▁empfohlen	-11.4076
bleiben	-11.4078
▁punish	-11.4088
therapy	-11.4091
▁voluntary	-11.4092
▁Education	-11.4092
▁Following	-11.4096
▁Piazza	-11.4101
▁occupation	-11.4105
▁Extrem	-11.4105
▁vorrangig	-11.4105
▁potenziell	-11.4113
▁detaillierte	-11.4117
gängig	-11.4119
gegriffen	-11.4119
▁principal	-11.4134
▁Erwägung	-11.4138
▁Thursday	-11.4147
▁Widerspruch	-11.4155
agentur	-11.4162
▁plenary	-11.4164
▁supplies	-11.4168
▁proposing	-11.4172
▁Champion	-11.418
crypt	-11.418
▁Reduzierung	-11.4185
▁chapter	-11.4189
kapazität	-11.4193
▁beteiligen	-11.4193
▁beobachten	-11.421
▁Donnerstag	-11.4214
▁genügend	-11.4227
▁nevertheless	-11.4231
▁Sozialdemokrat	-11.4237
▁anbelangt	-11.4244
▁university	-11.4244
▁Glaubwürdigkeit	-11.4248
▁Käufer	-11.4252
▁Mallorca	-11.4256
wettbewerbsfähig	-11.4257
▁distort	-11.4257
wächst	-11.4276
▁iPhone	-11.4278
▁shadow	-11.4278
▁mündliche	-11.4282
▁gestattet	-11.429
▁verbindet	-11.4295
▁Entspannung	-11.4299
▁wrote	-11.4303
▁Überlegungen	-11.4312
▁Luxemburg	-11.4316
▁gekennzeichnet	-11.4316
amerika	-11.4329
▁empfangen	-11.4333
▁Konsequenzen	-11.4342
▁sexuelle	-11.4354
▁packaging	-11.4367
▁polnische	-11.4368
grenze	-11.4368
charakter	-11.4372
▁female	-11.4372
schieben	-11.4374
▁Prüf	-11.4375
▁Stuttgart	-11.4376
▁Allianz	-11.4376
▁Next	-11.4385
cultural	-11.4386
▁philosophy	-11.4389
▁nachdrücklich	-11.4393
▁robust	-11.4393
▁erkannt	-11.4397
▁unvergesslich	-11.4406
▁federal	-11.4415
▁Louis	-11.4415
▁gezielt	-11.4418
▁Sonntag	-11.4419
▁evaluate	-11.4423
▁verteidigen	-11.4423
▁Hardware	-11.4432
▁systematisch	-11.4434
▁Potenzial	-11.4436
gemäß	-11.4448
▁Atlantic	-11.4449
synchron	-11.4454
▁Belastung	-11.4454
▁exhibit	-11.4455
ographische	-11.4463
▁satisfaction	-11.4466
Software	-11.447
▁receiving	-11.4475
ografie	-11.4477
▁bedauerlich	-11.448
▁advocate	-11.4484
▁twenty	-11.4484
closure	-11.4486
▁Secretary	-11.4488
▁Saturday	-11.4488
▁prosperity	-11.4492
▁enabling	-11.4492
▁Arzneimittel	-11.4505
▁zwingen	-11.4506
▁realistisch	-11.4509
▁ökonomisch	-11.451
▁delicious	-11.451
▁Wiederaufbau	-11.4514
▁nördlich	-11.4514
▁bewährt	-11.4514
▁Gerechtigkeit	-11.4523
▁sought	-11.4523
ituated	-11.4525
Administration	-11.4527
„	-11.6092
‘	-11.8331
