<unk>	0
<pad>	0
<s>	0
</s>	0
,	-3.17907
.	-3.44243
en	-3.836
▁die	-3.88895
▁der	-3.93808
▁	-3.94292
▁und	-3.98641
s	-4.00642
e	-4.19903
n	-4.44659
▁in	-4.57143
▁zu	-4.83961
-	-4.93547
▁den	-4.95532
▁von	-4.97703
er	-5.07076
▁ist	-5.13438
▁für	-5.17279
▁auf	-5.26806
▁mit	-5.27218
▁das	-5.30923
t	-5.3543
▁des	-5.39856
▁ein	-5.44352
▁eine	-5.4632
▁im	-5.55961
▁Sie	-5.57012
▁nicht	-5.58634
▁werden	-5.64757
r	-5.70719
▁dem	-5.70951
▁sich	-5.72181
▁dass	-5.72825
▁Die	-5.73948
▁wir	-5.75763
▁an	-5.77521
▁es	-5.80299
▁auch	-5.8691
▁sind	-5.94663
▁wird	-6.00758
es	-6.01455
▁über	-6.02027
▁(	-6.02894
▁um	-6.0837
▁als	-6.11923
▁aus	-6.15046
▁ich	-6.16656
▁oder	-6.18121
:	-6.20879
▁haben	-6.23902
ung	-6.26942
)	-6.27002
d	-6.27007
▁hat	-6.30403
▁sie	-6.30981
▁-	-6.32276
▁einer	-6.32363
▁wie	-6.32598
▁bei	-6.37064
m	-6.37388
▁zur	-6.38647
▁Das	-6.44772
▁vor	-6.48023
▁einen	-6.49959
▁können	-6.51721
▁Ich	-6.52216
▁nach	-6.53571
▁er	-6.55683
▁be	-6.56061
▁ver	-6.56499
▁durch	-6.61261
▁einem	-6.62212
▁Wir	-6.63888
y	-6.64313
▁In	-6.64705
▁diese	-6.65637
▁zum	-6.67265
▁uns	-6.68875
▁nur	-6.702
▁kann	-6.7319
▁so	-6.75699
te	-6.76323
▁Der	-6.76465
a	-6.76727
▁S	-6.78755
▁ge	-6.78855
!	-6.79009
▁dieser	-6.80064
st	-6.80394
in	-6.81145
▁Kommission	-6.81178
▁Es	-6.82321
o	-6.83927
▁daß	-6.85221
ten	-6.86108
k	-6.87468
▁noch	-6.87617
▁wurde	-6.8869
▁"	-6.89112
▁Herr	-6.89491
z	-6.90982
▁aber	-6.93903
▁sein	-6.94456
▁wenn	-6.94671
g	-6.96026
▁müssen	-6.99244
▁sehr	-6.99717
den	-6.99968
be	-7.00983
▁am	-7.02166
?	-7.02742
▁unter	-7.02872
de	-7.04007
▁man	-7.06468
▁Be	-7.06592
▁Ein	-7.06665
B	-7.07172
▁E	-7.08056
l	-7.0862
▁mehr	-7.09726
▁diesem	-7.09949
▁A	-7.10851
ge	-7.11128
▁was	-7.11995
▁war	-7.12003
w	-7.12111
▁Union	-7.12331
▁alle	-7.12451
/	-7.13487
▁An	-7.13628
▁B	-7.1369
al	-7.14294
▁K	-7.1432
▁Europäischen	-7.14888
"	-7.15924
f	-7.16167
▁F	-7.16587
▁–	-7.16861
▁Ver	-7.17513
▁bis	-7.1797
S	-7.18003
an	-7.18529
i	-7.20023
▁Er	-7.20656
▁möchte	-7.20696
ing	-7.20887
ver	-7.21175
b	-7.21742
u	-7.24312
▁Bericht	-7.25058
▁ihre	-7.26425
▁Hotel	-7.28307
ch	-7.28457
▁C	-7.28496
T	-7.28665
h	-7.29254
▁vom	-7.30105
▁Präsident	-7.31266
▁G	-7.31603
▁ab	-7.31772
sch	-7.3226
le	-7.32852
▁hier	-7.33081
▁sowie	-7.33304
c	-7.34721
ur	-7.34912
P	-7.35128
▁gibt	-7.37136
▁Parlament	-7.37563
▁Aus	-7.37706
C	-7.3773
▁de	-7.38386
▁EU	-7.39115
D	-7.39394
▁dieses	-7.39557
▁eines	-7.39968
▁zwischen	-7.40961
▁Zeit	-7.41195
▁muss	-7.41621
F	-7.42352
ar	-7.42423
▁keine	-7.43392
▁un	-7.44042
▁unsere	-7.4417
et	-7.44237
▁Im	-7.45043
it	-7.45201
▁P	-7.45501
der	-7.45646
▁the	-7.45737
re	-7.46646
▁Europa	-7.48442
▁T	-7.49386
;	-7.49477
▁Ihnen	-7.5047
M	-7.50525
A	-7.52153
▁„	-7.52307
▁Ab	-7.52364
▁anderen	-7.52986
ein	-7.53106
▁Auf	-7.53523
or	-7.53911
ter	-7.53975
▁a	-7.54407
▁da	-7.55095
ig	-7.55249
ieren	-7.55461
▁Mitgliedstaaten	-7.55856
▁immer	-7.57342
ä	-7.58612
▁M	-7.58707
K	-7.58783
▁Ge	-7.5927
▁Wenn	-7.59305
▁dann	-7.60284
▁Entwicklung	-7.61657
▁Welt	-7.61684
ungen	-7.62219
▁Vor	-7.63156
▁damit	-7.6329
em	-7.63405
▁gegen	-7.63785
▁Diese	-7.64612
us	-7.65018
▁Frau	-7.65132
▁Re	-7.66808
lich	-7.66949
▁wurden	-7.6719
▁Mit	-7.67415
▁Menschen	-7.68048
▁W	-7.68236
▁diesen	-7.68294
iert	-7.68681
“	-7.68707
ern	-7.68734
▁Ihre	-7.69709
el	-7.69934
E	-7.70409
▁Rat	-7.70631
is	-7.70799
ed	-7.70911
▁Europäische	-7.71143
la	-7.71609
▁neue	-7.71786
▁seine	-7.71844
▁unserer	-7.71846
▁habe	-7.7215
G	-7.72437
▁sondern	-7.72453
▁zwei	-7.72705
ra	-7.72823
zu	-7.7306
▁19	-7.73105
▁L	-7.73272
▁D	-7.73766
ischen	-7.74217
▁Jahr	-7.74286
▁jedoch	-7.74527
ta	-7.74784
sten	-7.75953
'	-7.76436
p	-7.77652
▁H	-7.77671
on	-7.78764
▁heute	-7.78948
il	-7.78964
um	-7.78972
W	-7.80148
N	-7.80456
ö	-7.81079
H	-7.81277
un	-7.81557
▁of	-7.82059
▁I	-7.83004
gen	-7.83063
▁sollte	-7.83178
ste	-7.83394
▁bereits	-7.83592
O	-7.83997
▁ohne	-7.84023
▁and	-7.84074
▁wieder	-7.84464
▁andere	-7.84509
00	-7.84594
▁ganz	-7.84621
▁mich	-7.85389
▁ihrer	-7.85787
▁selbst	-7.86003
▁Sch	-7.86186
to	-7.86718
▁europäischen	-7.87357
▁Frage	-7.88245
▁O	-7.88481
é	-7.88546
▁neuen	-7.88931
me	-7.89122
▁1	-7.89509
ü	-7.897
igen	-7.89767
▁Jahren	-7.90346
▁2	-7.90474
▁wo	-7.91533
di	-7.91557
ab	-7.91733
ische	-7.92318
▁viel	-7.9306
ation	-7.93087
▁viele	-7.93434
▁sollten	-7.93477
▁finden	-7.93538
▁So	-7.9424
▁Nach	-7.94465
▁R	-7.95038
▁Land	-7.95108
).	-7.95146
▁Arbeit	-7.95287
bar	-7.95401
at	-7.95891
U	-7.95959
I	-7.96485
▁re	-7.96978
▁La	-7.97124
▁to	-7.9716
▁bietet	-7.97616
ir	-7.97795
▁f	-7.98222
▁3	-7.98229
L	-7.9829
li	-7.985
▁Zu	-7.99034
▁Zimmer	-7.99362
▁dazu	-7.99605
▁ob	-7.99727
▁liegt	-7.99857
▁machen	-8.00069
▁weil	-8.0025
ne	-8.00286
▁Unternehmen	-8.00377
ut	-8.00463
▁Le	-8.01346
▁Um	-8.01497
▁Recht	-8.01534
th	-8.01835
R	-8.0205
▁N	-8.02186
▁möglich	-8.02354
liche	-8.02396
ik	-8.02482
▁darauf	-8.02845
ie	-8.03012
▁Ziel	-8.03124
aus	-8.03212
▁weiter	-8.0331
▁Teil	-8.03661
schaft	-8.0372
▁einige	-8.03729
lichen	-8.04043
▁jetzt	-8.04046
▁seiner	-8.04165
▁allen	-8.04208
▁Lage	-8.05049
▁Bereich	-8.0558
zeit	-8.06043
ma	-8.06437
▁Maßnahmen	-8.06555
x	-8.06571
▁pro	-8.06909
▁geht	-8.07018
▁schon	-8.075
▁ihr	-8.07896
▁V	-8.08046
▁St	-8.08248
▁Stadt	-8.0843
se	-8.08661
▁Problem	-8.08865
▁dafür	-8.09081
▁Informationen	-8.09153
ierung	-8.09284
und	-8.10052
ia	-8.10333
...	-8.10925
▁Bei	-8.11148
▁Grund	-8.11396
▁Bürger	-8.12012
▁m	-8.1213
▁meine	-8.12364
▁bin	-8.12369
▁Jahre	-8.12577
v	-8.12882
▁einfach	-8.13078
▁Eine	-8.1385
▁Da	-8.14116
▁Daten	-8.14147
▁allem	-8.14366
im	-8.14625
▁k	-8.15057
▁Herrn	-8.15158
ri	-8.15305
▁Rahmen	-8.1554
▁würde	-8.1574
▁gut	-8.1688
ag	-8.16921
▁Wie	-8.1699
he	-8.1727
▁ihren	-8.17463
▁mir	-8.17672
▁Für	-8.1805
1	-8.18314
▁wollen	-8.18434
▁Euro	-8.1885
▁seit	-8.19497
ungs	-8.19705
▁sch	-8.19824
▁Und	-8.20111
as	-8.20843
kt	-8.20946
▁während	-8.21035
ce	-8.22075
ka	-8.22158
▁ent	-8.22181
▁4	-8.22242
2	-8.22274
▁Regierung	-8.22563
land	-8.22805
▁unseren	-8.22904
▁zurück	-8.23128
heit	-8.23388
▁Pro	-8.23415
▁Un	-8.23415
▁Art	-8.23677
stand	-8.23789
▁Länder	-8.23941
▁Vorschlag	-8.24039
▁sagen	-8.24066
▁drei	-8.24158
▁doch	-8.24278
▁nun	-8.24281
ro	-8.2442
▁etwas	-8.24423
ft	-8.24805
isch	-8.25268
▁Se	-8.25375
▁Z	-8.2577
),	-8.25873
▁la	-8.25909
ul	-8.26027
ad	-8.26152
▁stehen	-8.26344
▁zusammen	-8.26406
ti	-8.26477
▁insbesondere	-8.26568
▁Am	-8.26814
lo	-8.273
▁Ma	-8.27334
ner	-8.27343
▁Fall	-8.27543
ic	-8.27582
da	-8.27768
▁erhalten	-8.27868
▁5	-8.27978
zi	-8.2808
▁Parlaments	-8.2835
▁ersten	-8.28474
▁soll	-8.28675
▁Unterstützung	-8.29087
▁welche	-8.29477
▁Dies	-8.2952
end	-8.29815
▁Markt	-8.30056
▁Namen	-8.30069
ige	-8.30352
▁10	-8.30461
gel	-8.30774
ität	-8.30871
▁Kunden	-8.31189
▁natürlich	-8.31199
os	-8.3126
ol	-8.316
▁Sicherheit	-8.31842
▁große	-8.31991
▁denn	-8.32021
do	-8.32038
enden	-8.32296
ze	-8.32586
▁Zusammenarbeit	-8.32679
▁Energie	-8.32718
min	-8.32808
▁Programm	-8.33288
▁...	-8.33458
▁wichtig	-8.33495
▁lassen	-8.3366
her	-8.33891
▁also	-8.33898
am	-8.3394
▁du	-8.342
▁Man	-8.34241
▁beim	-8.34314
▁direkt	-8.34432
▁besteht	-8.34981
▁hin	-8.3511
▁Ro	-8.35232
au	-8.35359
▁geben	-8.3537
mal	-8.35434
V	-8.35501
ben	-8.35583
ler	-8.35808
▁%	-8.36048
▁Vi	-8.36065
ment	-8.36208
▁waren	-8.36223
▁Beispiel	-8.36268
▁20	-8.36303
co	-8.36478
▁Mittel	-8.36521
go	-8.36653
▁einmal	-8.36677
j	-8.37057
▁Politik	-8.37106
▁Ländern	-8.3719
bau	-8.37364
fi	-8.37391
chen	-8.37779
▁wäre	-8.37825
▁sehen	-8.37882
ion	-8.3791
▁Sp	-8.38014
▁tun	-8.38241
▁steht	-8.3828
id	-8.38749
ent	-8.39226
▁Weg	-8.39242
▁c	-8.39618
vi	-8.39647
▁wirklich	-8.39708
che	-8.39739
ier	-8.4008
▁dabei	-8.40267
na	-8.40301
gehen	-8.40469
▁De	-8.40812
iz	-8.40867
▁letzten	-8.40873
▁weitere	-8.41031
▁Fragen	-8.41032
▁Ka	-8.41189
om	-8.41817
▁Kollegen	-8.42101
▁Unter	-8.42133
ca	-8.42786
▁Ihr	-8.43016
ende	-8.432
▁worden	-8.43209
▁Was	-8.43286
▁Kommissar	-8.43636
▁muß	-8.43683
▁Bedeutung	-8.43768
auf	-8.4383
ach	-8.44144
▁System	-8.44214
▁d	-8.44382
ist	-8.44649
▁Thema	-8.44692
▁Verfügung	-8.44725
▁denen	-8.44792
▁Möglichkeit	-8.45044
▁voll	-8.45272
ster	-8.45606
▁Alle	-8.45633
ha	-8.45788
▁großen	-8.46022
▁Über	-8.46221
▁aller	-8.46489
▁Seite	-8.46629
▁kommen	-8.47132
▁The	-8.47314
är	-8.47427
men	-8.47482
▁Ha	-8.47558
▁Aber	-8.47762
▁Li	-8.47831
▁Schutz	-8.47857
▁kein	-8.47983
ex	-8.4838
▁Bo	-8.48452
fe	-8.48559
vor	-8.48661
▁Hier	-8.48686
▁Auch	-8.48722
▁Ort	-8.48755
3	-8.48896
▁Kinder	-8.49345
▁Probleme	-8.49356
▁Mo	-8.49374
▁Spiel	-8.49769
cht	-8.50037
▁seinen	-8.50119
▁könnte	-8.50145
politik	-8.50152
▁bekannt	-8.50207
▁Weise	-8.50315
▁davon	-8.50748
▁bieten	-8.50888
ien	-8.51081
▁Zukunft	-8.51293
▁Ende	-8.51319
▁Umwelt	-8.51479
▁wissen	-8.51479
▁gegenüber	-8.51662
▁Rolle	-8.51744
▁Als	-8.51814
▁darüber	-8.51839
▁Meinung	-8.52151
▁stellen	-8.52532
▁entfernt	-8.52561
▁daher	-8.52843
ll	-8.52856
än	-8.5299
▁Bar	-8.53779
mm	-8.54093
pf	-8.54113
▁eigenen	-8.54178
▁Pa	-8.5421
▁sowohl	-8.54223
iv	-8.54625
▁politischen	-8.54702
▁erreichen	-8.54751
▁befindet	-8.55124
ger	-8.55132
io	-8.55303
▁hatte	-8.55332
EN	-8.55455
▁dort	-8.55562
▁europäische	-8.556
▁unterstützen	-8.5583
ve	-8.56646
ck	-8.56811
sp	-8.56887
▁Staaten	-8.56974
zen	-8.5707
recht	-8.57109
▁besonders	-8.5717
▁meiner	-8.57298
▁Frauen	-8.57326
▁U	-8.57338
▁unser	-8.57654
▁Finanz	-8.57723
▁Ihrer	-8.57811
▁sicher	-8.5804
▁Haus	-8.58285
▁Preis	-8.58545
▁ihnen	-8.58608
▁6	-8.58676
▁innerhalb	-8.58768
ell	-8.58958
com	-8.59302
and	-8.59459
▁verschiedenen	-8.59589
▁Fraktion	-8.59667
ber	-8.5969
mo	-8.59731
▁erste	-8.59803
keit	-8.59927
▁stellt	-8.59955
▁klar	-8.59993
▁Tag	-8.60022
▁J	-8.60311
▁18	-8.60395
▁Ent	-8.60471
▁zwar	-8.60542
ke	-8.60559
▁Al	-8.60717
▁Situation	-8.60746
▁z	-8.60894
▁Seiten	-8.60921
▁genau	-8.61154
sa	-8.6138
▁USA	-8.61524
▁alles	-8.61577
▁Haupt	-8.61704
▁weit	-8.6227
▁internationalen	-8.62569
no	-8.62826
tra	-8.62953
▁Wasser	-8.63251
▁Internet	-8.63395
igkeit	-8.63495
▁Artikel	-8.63582
▁führen	-8.63732
ant	-8.63739
▁Richtlinie	-8.63828
los	-8.64072
▁hinaus	-8.64266
va	-8.64508
▁Hilfe	-8.64529
ür	-8.65213
ub	-8.65485
ga	-8.6551
▁sei	-8.6561
▁Mal	-8.65618
▁Geld	-8.65842
ine	-8.65974
nt	-8.66058
▁Uhr	-8.66338
▁vielen	-8.66353
werk	-8.66478
art	-8.6665
▁Lösung	-8.66797
▁fest	-8.66838
gabe	-8.67063
ton	-8.67232
teil	-8.67246
▁for	-8.67372
ismus	-8.67399
hi	-8.67551
ko	-8.67598
▁Form	-8.67726
uch	-8.67846
▁all	-8.67917
▁Leben	-8.68037
▁15	-8.68075
▁politische	-8.68297
form	-8.68369
tag	-8.68373
gang	-8.68386
Z	-8.68752
▁möchten	-8.68792
▁Kon	-8.68814
▁Punkt	-8.691
▁bereit	-8.69234
tal	-8.69235
gi	-8.69287
ziel	-8.69315
▁Service	-8.69662
▁Rechts	-8.69777
so	-8.70051
raum	-8.70095
▁deutlich	-8.70544
age	-8.70673
▁Gemeinschaft	-8.70762
▁Mar	-8.70861
▁b	-8.70923
▁besser	-8.70996
▁Ihren	-8.71224
all	-8.71308
haft	-8.71309
mi	-8.71464
▁Projekt	-8.71494
▁Gesellschaft	-8.71526
▁g	-8.71591
▁Zusammenhang	-8.71609
ho	-8.71829
▁ja	-8.72104
mit	-8.72197
▁Personen	-8.72271
ich	-8.72283
▁bitte	-8.72318
▁weltweit	-8.72336
man	-8.7234
tel	-8.72342
▁will	-8.72527
]]	-8.72542
▁Sa	-8.72673
▁Durch	-8.73081
▁beiden	-8.73126
▁kommt	-8.73137
handel	-8.73242
▁schnell	-8.73458
plan	-8.73494
▁jeder	-8.73501
▁Rück	-8.73715
▁7	-8.73759
▁unserem	-8.73781
▁Wirtschaft	-8.73817
▁etwa	-8.73942
▁Kultur	-8.73973
schw	-8.74184
stellen	-8.74224
ß	-8.74246
▁ausge	-8.74255
ak	-8.74491
isten	-8.74554
▁Entschließung	-8.74593
▁notwendig	-8.75091
▁macht	-8.75152
▁recht	-8.75775
▁w	-8.75823
ly	-8.75986
bereich	-8.76043
▁p	-8.76112
▁Kosten	-8.76116
▁bringen	-8.7622
▁weniger	-8.76376
▁Natur	-8.76377
▁Du	-8.76399
pa	-8.76446
5	-8.76502
ug	-8.76531
stellung	-8.76549
▁daran	-8.76615
▁He	-8.76695
▁di	-8.76709
▁unterstützt	-8.76712
▁Verbraucher	-8.76737
pe	-8.76976
▁Bau	-8.77028
▁Neu	-8.77088
kommen	-8.77591
▁solche	-8.77864
▁Präsidentin	-8.77896
▁Deutschland	-8.7797
▁[[	-8.78061
▁8	-8.78069
▁entwickelt	-8.78159
▁gemacht	-8.78188
op	-8.78292
▁gilt	-8.78426
▁bzw	-8.78459
▁Produkte	-8.7849
4	-8.78632
▁neu	-8.78714
▁Dienstleistung	-8.78907
▁Deshalb	-8.79023
port	-8.79051
elt	-8.79149
▁Ebene	-8.79163
▁gesagt	-8.79167
▁Millionen	-8.79175
▁sogar	-8.79177
▁Haushalts	-8.79196
▁nämlich	-8.79245
▁Region	-8.79326
0	-8.79333
▁indem	-8.79366
▁Industrie	-8.79656
▁Lo	-8.7967
▁Wirtschafts	-8.79768
halt	-8.79812
▁wichtige	-8.79864
ac	-8.79976
gt	-8.80214
lu	-8.80224
▁se	-8.80405
tre	-8.80515
▁gerade	-8.80552
ken	-8.80978
▁Jahres	-8.81119
▁Unsere	-8.81148
▁Co	-8.81266
▁Anwendung	-8.81318
▁Abstimmung	-8.81404
▁ihn	-8.81422
▁Hand	-8.8146
sk	-8.81635
▁Wahl	-8.81651
▁Qualität	-8.81967
▁führt	-8.81984
▁wirtschaftliche	-8.82023
gleich	-8.82058
▁gute	-8.82274
hin	-8.82333
▁Website	-8.82362
▁Dieses	-8.82375
son	-8.82397
▁kurz	-8.8243
bel	-8.82514
▁Ko	-8.82609
haus	-8.82959
▁Rates	-8.83028
spiel	-8.83033
▁nehmen	-8.83061
ER	-8.83117
▁Arbeits	-8.83157
▁Software	-8.83327
▁12	-8.83355
▁Entscheidung	-8.83386
▁ange	-8.8342
▁Ansicht	-8.83451
▁meisten	-8.83502
ord	-8.83504
▁Ra	-8.83543
lichkeit	-8.83795
▁Zugang	-8.83816
Berichterstatter	-8.84073
▁le	-8.84093
▁China	-8.8417
mp	-8.84208
up	-8.84234
▁ebenfalls	-8.84274
▁Na	-8.8453
▁ihm	-8.84536
▁is	-8.84594
▁Me	-8.84771
▁Vorschläge	-8.84811
▁Bezug	-8.85173
▁unterschiedlich	-8.85204
▁erst	-8.85249
▁dessen	-8.85321
▁per	-8.85387
tro	-8.85407
▁2009	-8.85427
▁Dank	-8.85476
▁seinem	-8.85496
du	-8.85563
tz	-8.85634
20	-8.85762
ci	-8.8578
▁Verfahren	-8.86044
ow	-8.861
▁Ja	-8.86221
▁handelt	-8.86245
▁darf	-8.86245
ling	-8.86417
▁Europas	-8.86514
▁darin	-8.86525
rä	-8.86575
▁&	-8.86619
▁Ta	-8.86825
ick	-8.86853
%	-8.86944
▁abge	-8.87036
▁gleich	-8.87079
schutz	-8.87083
arbeit	-8.87282
pro	-8.87318
▁verwendet	-8.87425
▁Aussprache	-8.87645
▁Bild	-8.87688
iger	-8.87764
▁ca	-8.8781
▁gehen	-8.8796
▁Dieser	-8.88016
á	-8.88066
▁glaube	-8.8831
geben	-8.88319
▁Rechte	-8.88516
▁Erfolg	-8.88596
nd	-8.88728
▁besten	-8.8874
▁eigene	-8.88785
ün	-8.88797
ard	-8.88903
▁vier	-8.89002
▁Ar	-8.89179
▁Grundlage	-8.89222
ot	-8.89243
isiert	-8.89262
▁h	-8.89262
▁Menschenrechte	-8.89314
ren	-8.89319
▁öffentlichen	-8.89351
▁dürfen	-8.89763
▁schaffen	-8.89949
▁erreicht	-8.90024
sel	-8.90225
▁wenig	-8.90633
hr	-8.90664
mittel	-8.90733
▁Geschäfts	-8.90815
▁Do	-8.90884
weit	-8.90916
▁US	-8.90955
▁offen	-8.91057
▁brauchen	-8.91217
▁bedeutet	-8.91325
les	-8.91338
str	-8.9147
schen	-8.91578
▁30	-8.91736
▁nationalen	-8.9178
fa	-8.91802
▁ihrem	-8.91836
▁he	-8.92054
bl	-8.92062
ni	-8.92086
▁Ri	-8.92097
▁Demokratie	-8.92148
▁Antwort	-8.92295
▁jeden	-8.9233
▁weiterhin	-8.92558
ierte	-8.92777
weisen	-8.93026
▁Richtung	-8.93173
▁Ho	-8.93296
▁Wettbewerb	-8.93319
ale	-8.93375
▁einigen	-8.93434
ellen	-8.93508
▁Fa	-8.93517
▁Debatte	-8.93815
ru	-8.93851
▁Verantwortung	-8.94083
richt	-8.94112
▁Mai	-8.94172
▁Gebiet	-8.94201
St	-8.94221
▁gehört	-8.94265
▁Vertrag	-8.94295
lassen	-8.94348
▁gemeinsame	-8.94393
halten	-8.94474
▁con	-8.94494
▁betrifft	-8.94526
▁Pi	-8.94557
system	-8.94627
sta	-8.94652
▁Produkt	-8.94687
▁Di	-8.94904
tritt	-8.94908
▁lange	-8.95028
▁sollen	-8.95053
lang	-8.95119
kon	-8.95228
rü	-8.95282
wand	-8.95364
ja	-8.95392
▁Hotels	-8.95555
▁Verbindung	-8.95641
Änderungsanträge	-8.95782
weg	-8.9597
X	-8.96017
per	-8.96124
▁Umsetzung	-8.96142
▁aufgrund	-8.9622
log	-8.96358
bo	-8.9666
▁deshalb	-8.96756
trag	-8.96798
sehen	-8.96842
gu	-8.97048
▁Nicht	-8.9714
▁hoch	-8.97156
pi	-8.97371
wirtschaft	-8.97477
si	-8.97633
mb	-8.97751
▁Partner	-8.97758
sh	-8.9784
alt	-8.97847
▁leicht	-8.97927
ts	-8.97999
ou	-8.98066
▁würden	-8.9812
▁Nähe	-8.98234
▁Bi	-8.98416
▁Bevölkerung	-8.9857
ph	-8.98605
tt	-8.98776
▁Geschichte	-8.988
sicht	-8.98836
▁Lebens	-8.98911
▁erfolgreich	-8.99005
▁erforderlich	-8.9906
▁zeigt	-8.9941
▁Interesse	-8.99463
rt	-8.99482
elle	-8.99657
▁nächsten	-8.99812
dern	-8.99875
▁Von	-9.00113
▁Reihe	-9.00115
hl	-9.00149
▁je	-9.00201
▁keinen	-9.00385
▁findet	-9.00459
ry	-9.00497
▁v	-9.00559
▁dar	-9.0059
▁Abkommen	-9.00594
▁nutzen	-9.00597
satz	-9.00738
▁statt	-9.00754
▁Reise	-9.00975
mon	-9.01016
▁allerdings	-9.01043
▁Con	-9.01065
”	-9.01105
▁Verbesserung	-9.01426
▁kleine	-9.01729
▁werde	-9.01795
voll	-9.02021
res	-9.02344
wei	-9.02367
wa	-9.02367
▁'	-9.02444
lle	-9.02554
zug	-9.02717
tu	-9.02744
▁Wert	-9.02772
tri	-9.02791
▁Sozial	-9.02835
cken	-9.02845
▁beispielsweise	-9.03156
▁hoffe	-9.0319
mäßig	-9.03335
▁Ziele	-9.03368
▁Bedingungen	-9.0341
ip	-9.03446
ud	-9.03464
▁internationale	-9.0359
ssen	-9.03608
▁Steuer	-9.03686
▁Beschäftigung	-9.03748
rat	-9.03878
▁Tatsache	-9.04117
▁sp	-9.04139
▁Text	-9.04167
▁9	-9.04307
▁ma	-9.0433
sam	-9.0434
ium	-9.04448
▁vielleicht	-9.04665
▁Raum	-9.04862
▁wohl	-9.04962
▁Druck	-9.05113
ite	-9.05121
sche	-9.0513
▁Version	-9.05208
▁weiß	-9.05258
▁soziale	-9.05269
▁/	-9.05416
schlag	-9.05493
ive	-9.05529
platz	-9.05652
ina	-9.05785
fen	-9.05792
▁Handels	-9.05831
our	-9.05995
▁st	-9.06176
▁Gra	-9.0638
lage	-9.06582
▁ermöglicht	-9.06671
▁Musik	-9.0673
▁sozialen	-9.06772
lä	-9.06857
isierung	-9.06868
est	-9.0693
▁|	-9.06967
▁schwer	-9.07043
verständlich	-9.07065
▁sprechen	-9.07125
▁gemeinsamen	-9.07243
▁arbeiten	-9.07243
ari	-9.07248
▁To	-9.07264
ba	-9.07283
▁enthalten	-9.07286
wert	-9.07339
▁Daher	-9.07424
▁Mitarbeiter	-9.07428
▁Selbst	-9.0746
▁Einsatz	-9.07513
Mail	-9.07526
▁Pla	-9.07608
▁do	-9.07639
schließ	-9.07642
▁Wort	-9.07663
▁Berg	-9.07709
▁auszu	-9.07716
iß	-9.07884
zahl	-9.07906
qui	-9.07907
▁Schw	-9.07927
▁Ihrem	-9.07993
setzung	-9.08
▁frei	-9.0802
▁kleinen	-9.08068
(	-9.08084
▁gemeinsam	-9.08104
tor	-9.08159
hm	-9.0822
’	-9.08295
hol	-9.0832
▁Doch	-9.08374
▁bleiben	-9.08461
anz	-9.08602
▁Nord	-9.0883
ierten	-9.08876
ue	-9.089
ang	-9.08906
▁Schritt	-9.08951
stimm	-9.09024
▁16	-9.09091
▁verfügt	-9.09115
▁17	-9.09426
▁Krieg	-9.09497
▁verschiedene	-9.09824
reich	-9.09868
▁1.	-9.09871
▁Blick	-9.09895
icht	-9.0992
▁Ne	-9.09921
▁14	-9.09935
ap	-9.10096
▁gestellt	-9.1018
▁könnten	-9.10192
hilfe	-9.10199
▁halten	-9.10255
▁Damen	-9.1036
ert	-9.10488
▁stark	-9.10559
ven	-9.10581
▁schwierig	-9.10603
gestellt	-9.10613
_	-9.10705
▁Funktion	-9.10718
▁Ca	-9.10743
ate	-9.10796
ah	-9.10982
▁Hinblick	-9.11015
▁Verordnung	-9.11028
▁hohe	-9.11158
spolitik	-9.11172
folge	-9.11253
▁Auto	-9.11262
ör	-9.11318
▁Auswirkungen	-9.11344
markt	-9.11456
▁Strategie	-9.11544
net	-9.1172
J	-9.11963
ff	-9.12004
▁gleichzeitig	-9.12004
6	-9.12036
▁Landes	-9.1205
▁2010	-9.12114
о	-9.12121
▁2008	-9.12167
▁Kontrolle	-9.12278
▁Möglichkeiten	-9.12321
▁Institutionen	-9.12538
▁Seit	-9.1254
ator	-9.12584
▁50	-9.12731
nehmen	-9.12797
▁Erweiterung	-9.12814
▁ebenso	-9.12958
▁San	-9.12965
ran	-9.12989
▁fünf	-9.1307
▁Diskussion	-9.13134
▁kon	-9.1323
▁heraus	-9.13254
▁liegen	-9.13261
▁Nutzung	-9.13288
▁tatsächlich	-9.13355
▁Fl	-9.13494
▁Sport	-9.13564
▁Sicherheits	-9.13632
berg	-9.13698
▁Kraft	-9.13736
träge	-9.13815
▁Minuten	-9.13865
sion	-9.13933
▁oft	-9.1394
▁Änderungsantrag	-9.13951
arbeiten	-9.14106
▁l	-9.14114
▁Ergebnis	-9.14225
Re	-9.14256
▁verbunden	-9.14274
▁schriftlich	-9.14365
▁gelten	-9.14394
▁vollständig	-9.14512
▁u	-9.14772
▁Ch	-9.14886
▁25	-9.14968
▁km	-9.15239
▁X	-9.15254
▁Ausdruck	-9.15287
▁Zentrum	-9.15569
▁Platz	-9.15771
ort	-9.15855
▁her	-9.15898
▁Interessen	-9.15978
▁fast	-9.16042
▁Familien	-9.16257
igt	-9.16462
▁Ergebnisse	-9.16479
▁Po	-9.16499
▁Liste	-9.16515
▁Forschung	-9.166
lin	-9.16607
▁gesamten	-9.16625
leben	-9.1676
▁darum	-9.16808
▁Abgeordneten	-9.17005
▁Mitglieder	-9.1704
▁hätte	-9.17094
ere	-9.17107
heim	-9.17199
▁besondere	-9.17211
serv	-9.17239
bi	-9.17279
unter	-9.1729
▁einzelnen	-9.17367
reg	-9.17372
▁später	-9.17464
fahrt	-9.17505
▁leben	-9.17528
▁Prozess	-9.17636
fall	-9.17679
äch	-9.17698
igung	-9.17723
über	-9.17731
▁Kolleginnen	-9.17741
▁Kontakt	-9.17791
▁Kunst	-9.17821
▁Russland	-9.17833
ide	-9.17891
▁Restaurant	-9.17893
▁rund	-9.17905
gegeben	-9.17929
▁hatten	-9.17948
▁Luft	-9.18158
▁danken	-9.18223
▁Frei	-9.18604
▁Herausforderung	-9.18686
▁Außerdem	-9.18712
▁Vereinigten	-9.18746
▁Unser	-9.18765
▁denke	-9.18767
▁Regionen	-9.18811
hab	-9.18821
▁Verhandlungen	-9.18921
▁konnte	-9.18941
▁angenommen	-9.18968
rück	-9.19101
▁El	-9.19105
▁Q	-9.19128
des	-9.19264
▁100	-9.19338
▁ausgestattet	-9.19353
▁Freiheit	-9.19523
Ver	-9.19612
bt	-9.19824
rufen	-9.19859
▁po	-9.20058
▁jedem	-9.20066
▁Wein	-9.20071
▁Lu	-9.20106
▁wahr	-9.20168
fang	-9.2023
50	-9.20285
▁jede	-9.20335
sektor	-9.20361
▁befinden	-9.20453
del	-9.20476
▁gab	-9.20584
steuer	-9.20609
▁gegeben	-9.20637
▁Angebot	-9.20738
▁“	-9.20753
▁mehrere	-9.20899
out	-9.21029
ill	-9.21101
▁on	-9.21126
nis	-9.21215
länder	-9.21323
▁Förderung	-9.21407
▁Position	-9.21484
▁Beziehungen	-9.2149
kosten	-9.2155
▁Meer	-9.21637
▁Herren	-9.21704
▁Dialog	-9.21793
▁setzen	-9.21924
bild	-9.21991
führung	-9.22031
äu	-9.22177
tes	-9.22265
▁Aufgabe	-9.22318
vo	-9.22513
▁heißt	-9.22541
▁Gefahr	-9.22578
nahme	-9.22665
▁neben	-9.22665
▁richtig	-9.22781
▁Ad	-9.22791
die	-9.22885
ica	-9.22896
innen	-9.22999
▁Web	-9.23002
▁helfen	-9.23009
ity	-9.23019
nde	-9.23026
01	-9.23067
▁bevor	-9.23084
▁Türkei	-9.23118
▁teil	-9.23171
je	-9.23202
▁hinter	-9.23278
▁Ru	-9.2331
▁Kampf	-9.23333
In	-9.23388
▁Gelegenheit	-9.23447
tik	-9.23484
▁Benutzer	-9.23492
▁we	-9.23529
lei	-9.23567
schau	-9.23581
fl	-9.23661
▁Ex	-9.23721
▁Informations	-9.23856
▁aktiv	-9.23886
last	-9.23947
▁Beitrag	-9.23947
▁völlig	-9.24011
▁Tra	-9.24094
▁13	-9.24156
ank	-9.24182
▁Design	-9.24312
acht	-9.24313
the	-9.24313
ana	-9.24362
▁eigentlich	-9.24437
е	-9.24545
▁Themen	-9.24582
▁geführt	-9.24724
od	-9.24817
kl	-9.24838
▁Staats	-9.24872
▁Urlaub	-9.24985
▁See	-9.25071
▁Macht	-9.25232
▁Wa	-9.25269
▁Zum	-9.25454
cher	-9.25551
frei	-9.25633
wiesen	-9.25708
▁Ausschuss	-9.25906
Y	-9.26073
▁ne	-9.26115
fer	-9.26122
wo	-9.26198
akt	-9.26202
▁Film	-9.26413
cu	-9.26505
tion	-9.26623
▁Dinge	-9.2677
▁com	-9.2684
▁Werk	-9.26861
▁Bereichen	-9.26923
▁bleibt	-9.26937
rie	-9.26939
▁Zusammen	-9.2701
▁Jo	-9.27019
wi	-9.27037
▁äußerst	-9.27158
▁24	-9.27236
zer	-9.27263
▁Gu	-9.27342
▁Jahrhundert	-9.27362
tlich	-9.27381
▁Krise	-9.27419
stoff	-9.27438
▁Sta	-9.27641
▁gestimmt	-9.2775
ok	-9.27776
we	-9.27886
ance	-9.2794
▁Bad	-9.28046
▁Gäste	-9.28058
▁2007	-9.28111
▁entscheidend	-9.28188
▁bestimmte	-9.28222
▁with	-9.28326
▁Fehler	-9.28432
▁Höhe	-9.2844
▁mein	-9.28441
▁Ausschusses	-9.28534
▁Konferenz	-9.28612
▁bekommen	-9.28632
▁ex	-9.28684
▁zweite	-9.28705
att	-9.28708
▁einzige	-9.28723
30	-9.28799
▁wirtschaftlich	-9.28886
▁Mitglied	-9.29088
An	-9.29306
▁jedes	-9.29307
gesellschaft	-9.29488
]	-9.29494
ult	-9.29564
▁Einzel	-9.29671
AR	-9.2982
▁wegen	-9.2984
fre	-9.29932
▁Behörden	-9.29943
▁t	-9.29966
gl	-9.30133
arm	-9.30136
▁Video	-9.3029
▁Frankreich	-9.30325
▁ganze	-9.30378
▁hinsichtlich	-9.3038
▁Bitte	-9.30525
hen	-9.30547
▁si	-9.30631
▁Verwendung	-9.3067
▁no	-9.30672
▁Ju	-9.30694
gebracht	-9.30696
dem	-9.30752
setzen	-9.30856
▁Juni	-9.3086
RO	-9.30917
▁Wer	-9.30925
▁unabhängig	-9.30952
▁Damit	-9.30961
▁Dr	-9.31043
greifen	-9.31051
if	-9.31051
▁Gewalt	-9.31063
tten	-9.31073
▁Sektor	-9.31089
geb	-9.31193
▁wichtigsten	-9.31301
▁Strand	-9.31333
▁einzu	-9.31401
▁weiteren	-9.31468
▁bestehen	-9.3149
feld	-9.31687
▁Gruppe	-9.31765
▁Groß	-9.31868
▁wobei	-9.31879
▁zweiten	-9.31981
▁meinen	-9.32067
ki	-9.32081
▁Park	-9.3213
▁Aufenthalt	-9.32224
▁Erfahrung	-9.32228
▁ermöglichen	-9.32232
tet	-9.32257
=	-9.32261
▁Lissabon	-9.32295
▁Buch	-9.32462
▁gerne	-9.32511
▁Struktur	-9.32575
AN	-9.32689
▁wichtigen	-9.32807
▁Standpunkt	-9.32843
8	-9.32915
▁Gemeinschafts	-9.32936
▁gelegen	-9.32971
▁Auswahl	-9.33101
▁abzu	-9.33147
▁Vertrags	-9.33204
service	-9.33225
▁Tat	-9.3323
uß	-9.33264
▁Fahr	-9.33312
7	-9.33336
Be	-9.3338
hof	-9.33466
eln	-9.33587
ischer	-9.33611
hand	-9.33611
▁enthält	-9.33765
▁Insel	-9.33795
▁Notwendigkeit	-9.33852
▁Gesamt	-9.3394
▁zeigen	-9.33985
▁Schaffung	-9.34096
▁zahlreiche	-9.34242
istischen	-9.34251
qu	-9.3427
▁stärker	-9.34276
▁Reform	-9.34371
schi	-9.34375
▁Anfang	-9.3442
▁spielen	-9.34435
▁Gesundheit	-9.34455
▁Produktion	-9.34703
▁Binnenmarkt	-9.34875
▁geeignet	-9.34904
druck	-9.34927
▁gehören	-9.34969
▁Arbeitnehmer	-9.34974
ring	-9.34998
▁[	-9.35023
legen	-9.35303
▁Fischerei	-9.35567
|	-9.35593
lass	-9.35743
ender	-9.35787
baut	-9.35788
jahr	-9.35799
▁Folgen	-9.35823
▁jene	-9.35849
▁Berlin	-9.35933
10	-9.35975
▁Meine	-9.35998
▁lo	-9.36064
▁verbessern	-9.36077
verkehr	-9.36141
▁bisher	-9.36336
▁Darüber	-9.36386
▁allein	-9.36406
ino	-9.36417
fass	-9.36436
za	-9.36495
▁Währung	-9.36548
▁Ni	-9.36601
ät	-9.36637
▁Fach	-9.36732
pass	-9.36756
able	-9.36775
▁lässt	-9.3679
ure	-9.36853
one	-9.36857
vers	-9.36859
zeug	-9.36869
▁fa	-9.36941
programm	-9.36989
Ma	-9.37129
▁größere	-9.37131
fach	-9.37195
▁erklärt	-9.37303
tan	-9.37311
▁Her	-9.37314
▁War	-9.37326
▁lang	-9.37376
po	-9.37417
▁Zeitpunkt	-9.37429
buch	-9.37558
tin	-9.3757
setzt	-9.37598
stein	-9.37721
▁Kern	-9.37726
bei	-9.37739
▁2000	-9.3778
▁Vertreter	-9.378
▁Finanzierung	-9.37868
▁Umgebung	-9.38038
ix	-9.38044
einander	-9.38066
stände	-9.38122
welt	-9.38123
9	-9.38215
▁ruhig	-9.38234
▁Woche	-9.38274
▁Integration	-9.38285
▁Inhalt	-9.38306
▁Landwirtschaft	-9.38308
▁verfügen	-9.3834
industrie	-9.38412
punkt	-9.38434
amp	-9.38446
▁Italien	-9.38488
ock	-9.38494
▁Tri	-9.38532
CH	-9.38577
▁Tage	-9.38661
part	-9.38898
▁unseres	-9.389
▁Gericht	-9.38922
▁Team	-9.38945
mann	-9.39069
▁durchgeführt	-9.39082
▁verwenden	-9.39112
▁häufig	-9.39113
ständig	-9.39114
▁fördern	-9.39128
▁Verfassung	-9.39144
▁Person	-9.39154
▁Anzahl	-9.39196
lagen	-9.39267
▁gesamte	-9.3946
▁Küche	-9.39485
ay	-9.39486
kel	-9.39619
▁Handel	-9.39712
merk	-9.39771
▁Zweck	-9.39826
llen	-9.39855
▁Entwicklungs	-9.3987
▁Mehrheit	-9.39955
▁Arbeitsplätze	-9.39986
▁Herzen	-9.40015
▁Schiff	-9.40024
▁Frühstück	-9.40048
▁Gebäude	-9.40084
ette	-9.40135
führen	-9.40162
▁hotel	-9.402
▁kam	-9.40238
ös	-9.40287
▁großer	-9.40305
▁Modell	-9.40367
▁derzeit	-9.40438
▁Linie	-9.40505
▁Einführung	-9.40516
que	-9.40528
▁künftig	-9.40559
isse	-9.40571
▁Wi	-9.40619
▁geschlossen	-9.40634
▁Online	-9.40643
ef	-9.40787
а	-9.408
▁zunächst	-9.40904
gr	-9.40974
ld	-9.41062
ei	-9.41072
▁unbe	-9.4114
▁sorgen	-9.41358
seite	-9.41448
▁meinem	-9.41452
▁Privat	-9.4149
▁Bilder	-9.41509
▁Beitritt	-9.41546
teilen	-9.41673
▁nahe	-9.41675
▁Während	-9.41692
▁Personal	-9.41715
▁gebracht	-9.41728
▁Hoch	-9.41758
lose	-9.41795
▁Sommer	-9.41827
▁Zahl	-9.41832
▁vorhanden	-9.42029
▁Preise	-9.42166
ast	-9.42193
alter	-9.42216
▁entwickeln	-9.42282
ost	-9.42285
▁eindeutig	-9.42407
sprech	-9.42439
▁öffentliche	-9.42625
systeme	-9.42835
▁0	-9.42977
Ge	-9.43015
preis	-9.43052
▁New	-9.43233
mer	-9.43238
ön	-9.43258
▁Neben	-9.43325
▁genannt	-9.4342
zimmer	-9.43478
▁Konflikt	-9.43491
▁Änderungen	-9.43502
rit	-9.43601
▁Chi	-9.43692
▁Besuch	-9.43699
sicherheit	-9.43718
netz	-9.43757
▁lediglich	-9.43791
▁erfolgt	-9.43826
▁Wachstum	-9.43846
▁co	-9.43852
▁ganzen	-9.43901
▁Sitzung	-9.43909
▁sa	-9.43925
▁Dabei	-9.43965
▁del	-9.44008
schein	-9.4403
▁Änderung	-9.44038
eb	-9.44062
▁Ki	-9.44113
kal	-9.44128
weise	-9.4419
▁ständig	-9.44243
▁verstehen	-9.44268
▁sofort	-9.44298
▁sagte	-9.44368
▁National	-9.44424
▁Computer	-9.44514
▁Not	-9.44528
ron	-9.44561
▁Regierungen	-9.44565
▁Lebensmittel	-9.44567
▁Lösungen	-9.44572
ack	-9.44575
▁automatisch	-9.44615
▁Flughafen	-9.44643
è	-9.44665
▁neuer	-9.44714
▁All	-9.44769
®	-9.44865
▁Instrument	-9.44872
pl	-9.44942
▁gewährleisten	-9.44985
ku	-9.4499
▁größte	-9.45038
▁praktisch	-9.45074
▁2006	-9.4509
▁et	-9.45101
ya	-9.45181
ett	-9.45188
▁Flug	-9.45311
sprozess	-9.45366
▁somit	-9.45414
▁komplett	-9.45483
▁erneut	-9.45485
ütz	-9.45492
▁verfügbar	-9.45532
▁Fortschritte	-9.45673
▁Bank	-9.45682
laden	-9.45817
▁Car	-9.45859
▁Ba	-9.45884
▁eingesetzt	-9.45914
▁Familie	-9.46
▁Behandlung	-9.46001
▁gleichen	-9.46104
▁Außen	-9.46107
▁li	-9.46172
▁vi	-9.46214
IT	-9.4629
▁Je	-9.46343
org	-9.46345
▁Ratspräsident	-9.46381
▁gar	-9.46441
▁hohen	-9.46471
▁Port	-9.46503
▁Sicht	-9.46581
issen	-9.46629
gebiet	-9.46646
iti	-9.46662
nutz	-9.46669
chte	-9.46727
lös	-9.46768
▁Vereinbarung	-9.46845
▁kostenlos	-9.46857
▁Verkehrs	-9.46867
istische	-9.46873
▁tragen	-9.46887
▁Präsidentschaft	-9.46896
í	-9.46945
▁Sprache	-9.46953
mar	-9.47059
sicherung	-9.47093
chten	-9.47111
▁Standard	-9.47119
и	-9.47127
▁vorgeschlagen	-9.47134
▁Bekämpfung	-9.47139
stelle	-9.47209
▁liebe	-9.47242
▁Inter	-9.47265
ES	-9.47309
▁nie	-9.47341
ziehen	-9.4736
▁Punkte	-9.4741
ect	-9.47413
fahren	-9.47453
bot	-9.47483
▁No	-9.47548
jo	-9.47605
ian	-9.47605
bericht	-9.47634
eu	-9.47636
▁anderer	-9.4773
▁obwohl	-9.47766
sätze	-9.47796
▁erwähnt	-9.47871
▁scheint	-9.47955
Sch	-9.48311
daten	-9.4839
genommen	-9.48436
bil	-9.48475
mmer	-9.48558
▁aufge	-9.48567
▁Erachtens	-9.48591
▁Kommissarin	-9.4861
▁Kr	-9.48729
frage	-9.48809
▁Test	-9.48876
fehl	-9.48889
IS	-9.49004
▁September	-9.49032
▁anzu	-9.49097
uell	-9.49137
▁ha	-9.4914
▁Volk	-9.49154
wie	-9.49204
▁moderne	-9.49233
▁deine	-9.49288
▁Gruppen	-9.49359
fr	-9.49442
▁Aktivitäten	-9.49509
▁Projekte	-9.4952
▁guten	-9.49531
bahn	-9.49585
▁vorgesehen	-9.49692
AL	-9.49722
fallen	-9.49729
▁versucht	-9.49736
▁Initiative	-9.4974
▁Klima	-9.49771
▁Zwei	-9.49862
▁Si	-9.49922
ht	-9.49924
ight	-9.5002
Fraktion	-9.50031
▁Schl	-9.50052
▁Sache	-9.5007
▁ba	-9.50084
▁vorgelegt	-9.50149
▁Th	-9.50155
▁einge	-9.5016
▁Dis	-9.50252
▁Erklärung	-9.5026
unternehmen	-9.50323
kla	-9.5038
▁Konzept	-9.50401
▁Medien	-9.50435
▁wirksam	-9.50468
▁versuchen	-9.50479
▁Pe	-9.5049
▁schlecht	-9.50766
▁Stelle	-9.5077
▁Juli	-9.50798
ek	-9.50802
▁Basis	-9.50824
uf	-9.50846
sverfahren	-9.50852
▁Bildung	-9.50893
kraft	-9.50894
▁Tätigkeit	-9.50918
gend	-9.50957
▁Dezember	-9.51012
▁außerdem	-9.51086
bare	-9.51105
lauf	-9.51225
ies	-9.51249
▁dadurch	-9.51387
▁Dritt	-9.51402
▁Chance	-9.51469
▁festgelegt	-9.51498
ges	-9.51603
▁erheblich	-9.51609
▁effizient	-9.51752
▁Vertrauen	-9.51758
for	-9.5177
▁room	-9.51945
barkeit	-9.52012
▁Ga	-9.52086
zunehmen	-9.52131
sitz	-9.52153
isieren	-9.52181
DE	-9.52209
dig	-9.52229
▁echte	-9.52337
▁bestimmten	-9.52352
▁Bestimmungen	-9.52369
yn	-9.52432
▁Mehr	-9.52532
con	-9.52539
▁Ob	-9.52578
fo	-9.52591
▁versch	-9.52624
▁insgesamt	-9.52763
▁erster	-9.52767
▁Mi	-9.52779
▁vergangenen	-9.52844
▁ko	-9.52939
app	-9.52998
prä	-9.53048
▁Wo	-9.53066
tur	-9.53115
▁Aufmerksamkeit	-9.53127
▁eingerichtet	-9.53154
met	-9.53169
▁schließlich	-9.53181
▁früher	-9.5321
ruf	-9.53223
▁Wieder	-9.53284
▁Dienst	-9.53321
▁Auffassung	-9.53378
zig	-9.53455
▁zusätzliche	-9.53455
legt	-9.53484
schrift	-9.53533
▁Mon	-9.5355
ux	-9.5357
▁Bu	-9.5369
mel	-9.53736
▁aufgenommen	-9.5387
▁hervor	-9.53876
▁Deutsch	-9.53887
▁beste	-9.53913
▁Stunden	-9.53939
▁al	-9.54034
▁solchen	-9.54082
▁Or	-9.54253
rn	-9.5426
▁Nur	-9.54311
▁Fuß	-9.54352
▁einschließlich	-9.54369
ordnung	-9.5438
bin	-9.54388
bu	-9.5445
pp	-9.54498
ai	-9.54521
▁ändern	-9.54572
▁40	-9.54573
pt	-9.54643
▁Innovation	-9.54651
▁pa	-9.54655
▁Opfer	-9.54669
SE	-9.54677
▁Te	-9.54776
wissenschaftlich	-9.54812
▁Investitionen	-9.54933
▁effektiv	-9.54988
▁folgt	-9.55084
▁Haushalt	-9.55111
geführt	-9.55174
burg	-9.55179
▁Spa	-9.55204
▁Führung	-9.55244
swert	-9.55291
ris	-9.55308
▁Unternehmens	-9.55365
IN	-9.55408
▁West	-9.5541
▁unge	-9.55433
▁que	-9.55446
▁wollte	-9.55461
ration	-9.5552
▁alten	-9.55541
▁Gesundheits	-9.55546
▁absolut	-9.55573
▁Zur	-9.55657
▁bessere	-9.55663
▁genießen	-9.55724
sfähigkeit	-9.55761
spar	-9.55783
▁Ansatz	-9.5581
▁Folge	-9.55835
erweise	-9.55841
▁März	-9.55858
▁Öffentlichkeit	-9.55912
▁gemäß	-9.55949
tru	-9.56032
▁Straßen	-9.56033
▁Bru	-9.56049
▁UN	-9.5606
leg	-9.56084
▁vertreten	-9.56145
▁fort	-9.56371
▁meines	-9.56389
ähr	-9.56391
▁Fest	-9.56396
▁Ski	-9.56431
▁11	-9.56538
▁Süd	-9.5658
▁Anforderungen	-9.56594
▁Lehr	-9.56616
ktion	-9.56711
▁morgen	-9.56848
▁größten	-9.56855
▁Gegen	-9.56888
ange	-9.56923
▁dringend	-9.56939
ting	-9.56982
licher	-9.5703
▁erfahren	-9.57071
▁Post	-9.57138
dienst	-9.57177
▁leisten	-9.57189
▁nichts	-9.5719
▁setzt	-9.57237
▁Vorschriften	-9.57289
▁Technologie	-9.57359
▁2005	-9.57437
ice	-9.57439
▁Tagesordnung	-9.57538
fähig	-9.5756
▁erzielt	-9.57578
Gästebewertungen	-9.57651
▁Transparenz	-9.57706
har	-9.57759
ial	-9.57765
ker	-9.57773
▁erwarten	-9.57774
▁Nationen	-9.57785
▁Paket	-9.57855
▁verbessert	-9.5788
▁Entscheidungen	-9.57923
▁ähnlich	-9.57943
▁Anfrage	-9.57962
▁Organisation	-9.57968
▁Grenzen	-9.58035
▁Bus	-9.58087
▁at	-9.58169
▁Programme	-9.58189
partner	-9.58223
EL	-9.58232
wick	-9.58244
ob	-9.58273
▁Rede	-9.58346
▁Augen	-9.58361
mor	-9.58366
teilung	-9.58371
▁Auftrag	-9.58395
▁treffen	-9.58409
▁Wohn	-9.58485
▁Schi	-9.58605
▁geworden	-9.5862
nder	-9.58646
▁Republik	-9.58657
▁Webseite	-9.58668
▁Sinne	-9.5867
▁Ausbildung	-9.58697
cke	-9.58739
RE	-9.58748
▁Su	-9.58809
misch	-9.58864
▁angesichts	-9.58905
ade	-9.58921
▁Ste	-9.58937
ations	-9.58982
ink	-9.59004
kan	-9.59025
▁leider	-9.59129
▁behandelt	-9.59157
▁wichtiger	-9.59172
▁wider	-9.59177
▁Frieden	-9.59204
▁Januar	-9.59219
hu	-9.59256
▁Stil	-9.59294
▁Oktober	-9.59311
blick	-9.59321
▁Dar	-9.59351
▁sechs	-9.59429
▁Klein	-9.59438
tischen	-9.59484
reichen	-9.59526
▁Y	-9.59535
▁Pri	-9.5966
▁konnten	-9.59675
schreiben	-9.5972
anten	-9.59743
▁Netz	-9.59753
▁Werte	-9.5977
▁wesentlich	-9.59788
rk	-9.59845
ov	-9.5988
werte	-9.59891
▁eng	-9.59932
▁Staat	-9.59937
▁Prozent	-9.59942
▁verantwortlich	-9.59994
▁unmittelbar	-9.60035
▁Forschungs	-9.60093
oni	-9.60103
ral	-9.60259
▁wenige	-9.60344
▁Cha	-9.60379
▁tr	-9.60428
▁Sorge	-9.60469
▁Dokument	-9.605
▁Wochen	-9.6061
ction	-9.60617
ante	-9.60638
▁Stabilität	-9.6067
find	-9.60671
▁benötigen	-9.60679
cker	-9.6075
▁Spieler	-9.60754
▁Str	-9.60801
▁Tier	-9.60809
OR	-9.60814
▁Spanien	-9.60981
▁Hinsicht	-9.61025
ipp	-9.61035
▁suchen	-9.61035
▁halte	-9.61049
▁Israel	-9.61055
▁Beginn	-9.61065
▁nächste	-9.61102
▁Fu	-9.61141
▁Sol	-9.6129
▁entsprechend	-9.61307
hör	-9.61327
amt	-9.61382
▁zehn	-9.61382
stehen	-9.61489
▁Transport	-9.615
alen	-9.61501
ano	-9.61528
▁voran	-9.61544
▁Wissen	-9.61556
▁Untersuchung	-9.61574
▁Vorsitz	-9.61618
▁genommen	-9.61699
bringen	-9.61772
▁langfristig	-9.61772
▁täglich	-9.61782
▁Bereiche	-9.61808
▁unver	-9.61833
pol	-9.61868
▁Betrieb	-9.61917
▁tief	-9.61945
▁aktuellen	-9.61947
▁Firma	-9.61953
▁gesch	-9.61964
ssystem	-9.61992
▁Leute	-9.62008
▁Straf	-9.62039
>	-9.62057
▁Gründen	-9.62068
stieg	-9.62171
▁erwartet	-9.62209
ON	-9.62269
▁geschaffen	-9.62273
000	-9.62293
▁Gar	-9.62371
▁europäischer	-9.62424
kor	-9.62454
▁kennen	-9.62519
▁weder	-9.62522
▁me	-9.62546
▁bezüglich	-9.6256
▁Tre	-9.62614
▁2004	-9.62657
▁Organ	-9.62726
EG	-9.62741
▁gefunden	-9.62803
schluss	-9.62804
▁ursprünglich	-9.62839
▁Bemühungen	-9.62868
nom	-9.62873
▁Sal	-9.62956
Die	-9.62987
▁Armut	-9.62988
hält	-9.63185
▁Com	-9.63188
sweise	-9.63197
▁Ressourcen	-9.63233
▁Protokoll	-9.63284
▁eher	-9.63321
technik	-9.63329
problem	-9.63338
▁Golf	-9.63426
▁letzte	-9.63441
tim	-9.63444
▁diejenigen	-9.63592
zeichnen	-9.63599
trieb	-9.63604
▁begrüße	-9.63633
emp	-9.63634
▁beitragen	-9.63635
▁länger	-9.63637
▁Aspekte	-9.63657
bre	-9.63664
üt	-9.63673
▁Regeln	-9.63751
▁gering	-9.63751
▁Pu	-9.63785
▁Off	-9.63822
",	-9.63846
▁Heute	-9.63896
wirken	-9.64017
stor	-9.641
mas	-9.64104
▁acht	-9.64181
▁inter	-9.642
▁integriert	-9.64238
arch	-9.643
ini	-9.64322
▁Kompromiss	-9.64393
▁Gast	-9.64394
deck	-9.64418
▁bringt	-9.64479
&	-9.64521
▁EUR	-9.64601
tour	-9.6461
eck	-9.6465
▁Solidarität	-9.64695
▁Datei	-9.6475
iss	-9.64778
▁übrigen	-9.64783
▁kannst	-9.6486
mil	-9.64912
▁bestimmt	-9.64981
▁Nacht	-9.65107
unt	-9.65115
bri	-9.65121
▁ausreichend	-9.65125
▁Kapital	-9.65303
▁Jede	-9.65305
▁sieht	-9.65385
▁verhindern	-9.6539
richtung	-9.65391
▁Wunsch	-9.65469
tisch	-9.65474
▁Aufnahme	-9.65483
▁vergessen	-9.65489
atur	-9.65501
▁getan	-9.65572
bank	-9.65598
▁AG	-9.6577
▁Städte	-9.65833
▁Natürlich	-9.65834
AP	-9.65886
▁su	-9.6592
▁Fällen	-9.65996
▁Schul	-9.66082
▁Go	-9.66263
lü	-9.66279
funktion	-9.66291
▁ausschließlich	-9.66299
▁Information	-9.66329
▁Rechnung	-9.66338
▁Licht	-9.6634
betrieb	-9.66401
▁GmbH	-9.66457
▁International	-9.6646
tische	-9.66469
▁Versuch	-9.66473
▁Fisch	-9.66504
▁ziehen	-9.66558
vel	-9.6657
sol	-9.66595
ient	-9.66602
zentrum	-9.66645
rechte	-9.66788
▁zunehmend	-9.66881
bildung	-9.66903
stück	-9.66927
12	-9.66987
mat	-9.67027
▁Server	-9.67039
▁Aufgaben	-9.67089
▁tra	-9.67127
Schlusselwortern	-9.67153
ST	-9.67189
kehr	-9.6721
legung	-9.67398
ju	-9.67431
stehende	-9.67548
▁Netzwerk	-9.67571
▁Kar	-9.67635
▁beide	-9.67642
hä	-9.67654
wesen	-9.67738
▁veröffentlicht	-9.67787
öl	-9.67854
▁mo	-9.67875
▁o	-9.67914
lie	-9.67943
staat	-9.67948
▁Nr	-9.67957
ile	-9.68016
rate	-9.68031
▁Hu	-9.68039
erei	-9.68061
sucht	-9.68175
▁gerecht	-9.68186
".	-9.6823
▁Völker	-9.68271
val	-9.68282
nach	-9.68322
▁hätten	-9.68327
laufen	-9.68354
ys	-9.68362
essen	-9.6842
▁gewählt	-9.68435
▁entsprechenden	-9.6844
sort	-9.68462
▁Monaten	-9.68569
treten	-9.68579
sbereich	-9.68638
▁Per	-9.68734
og	-9.68851
▁Kirche	-9.68855
ann	-9.68868
▁paar	-9.68897
▁Öl	-9.6898
▁Gesetz	-9.6899
▁Viele	-9.69021
▁Besucher	-9.69046
▁Telefon	-9.69053
▁gewesen	-9.69057
▁Bundes	-9.69058
▁by	-9.69132
reisen	-9.69175
▁23	-9.69232
р	-9.69328
▁Bas	-9.69333
▁November	-9.69348
▁anderem	-9.69362
▁Mer	-9.69375
▁Windows	-9.69379
▁Miss	-9.69477
▁verpflichtet	-9.69492
▁Verwaltung	-9.69519
wohn	-9.69579
ika	-9.69703
▁Erst	-9.69721
fragen	-9.6974
air	-9.69784
▁Atmosphäre	-9.69861
gar	-9.69874
asse	-9.69934
ib	-9.69946
▁Foto	-9.70007
▁nimmt	-9.70011
▁berücksichtigt	-9.70025
System	-9.70182
▁genannten	-9.70241
▁richtige	-9.70251
▁warum	-9.70266
ationen	-9.70277
▁Menge	-9.7033
nes	-9.70358
wasser	-9.7042
ement	-9.70455
▁begrüßen	-9.70463
▁breite	-9.70482
öhn	-9.70575
▁erfüllen	-9.70606
▁überhaupt	-9.70607
▁Reg	-9.70616
▁Körper	-9.70645
▁Bürgerinnen	-9.70651
▁gross	-9.70753
▁Aktion	-9.7082
▁erlaubt	-9.70853
▁i	-9.70934
▁Tradition	-9.70985
ftig	-9.71012
liste	-9.71014
park	-9.71072
▁Can	-9.71089
AS	-9.71123
zustellen	-9.71128
▁Vergangenheit	-9.71164
▁Partei	-9.71203
▁Fähigkeit	-9.71289
▁kleiner	-9.71292
▁Gut	-9.71317
▁not	-9.71404
▁Garten	-9.7148
▁schützen	-9.71488
▁zusätzlich	-9.71511
▁April	-9.71519
▁Bis	-9.71627
▁En	-9.71722
linie	-9.71732
ute	-9.71761
▁Gewinn	-9.71866
projekt	-9.71885
▁Praxis	-9.71926
▁fordern	-9.71958
▁Fahrzeug	-9.71971
▁Durchführung	-9.71974
zusetzen	-9.72074
pos	-9.72099
▁usw	-9.72152
▁Den	-9.72192
fern	-9.72252
gänge	-9.72336
▁Option	-9.72342
schl	-9.72365
▁Annahme	-9.72369
▁22	-9.72493
▁Terrorismus	-9.72501
▁aufzu	-9.7254
▁ging	-9.7255
war	-9.72555
ati	-9.72586
▁Freund	-9.72603
▁Menschenrechts	-9.72694
▁günstig	-9.72732
▁perfekt	-9.72739
AT	-9.72787
▁Risiko	-9.72799
▁Einrichtung	-9.72839
▁Fi	-9.72902
achtet	-9.72947
tage	-9.73048
▁gegenwärtig	-9.73084
▁benutzt	-9.73089
▁Lassen	-9.73151
▁60	-9.73246
▁wünschen	-9.73258
aktion	-9.73349
wart	-9.73363
▁jeweiligen	-9.73373
▁benötigt	-9.73395
▁folgen	-9.73421
▁genutzt	-9.73514
▁Schritte	-9.73601
▁zumindest	-9.73608
▁Erfahrungen	-9.73623
▁Vergleich	-9.7365
▁sämtliche	-9.73672
▁Zweitens	-9.73728
alität	-9.73729
▁Gesetze	-9.73741
▁falsch	-9.73749
▁zahlreichen	-9.73776
san	-9.73821
▁getroffen	-9.73843
▁darstellt	-9.73845
▁stimmen	-9.73863
fried	-9.73872
mark	-9.73882
▁We	-9.73917
▁Universität	-9.73929
bra	-9.73956
▁nationale	-9.73965
▁umfassende	-9.73984
bett	-9.73994
oder	-9.74021
▁Paris	-9.74063
sprogramm	-9.74071
▁spielt	-9.74072
ckt	-9.7409
▁trotz	-9.74124
▁Angelegenheit	-9.74184
▁Bre	-9.74235
seitig	-9.7425
▁wählen	-9.74274
red	-9.74301
▁Firmen	-9.74315
zahlung	-9.74394
▁außerhalb	-9.74459
▁stets	-9.74462
▁Abgeordnete	-9.74484
▁beginnen	-9.74503
▁Partnerschaft	-9.74535
nnen	-9.74665
fälle	-9.74665
▁Ve	-9.74675
▁zentral	-9.74713
▁betreffend	-9.74715
▁genug	-9.74752
▁Afrika	-9.74767
mission	-9.74786
▁Einige	-9.74807
▁Anti	-9.74807
▁Tur	-9.74809
gelöst	-9.74816
▁gesetzt	-9.74836
▁Märkte	-9.74864
▁End	-9.7495
uss	-9.74969
▁Waren	-9.74979
▁Männer	-9.74983
angebot	-9.75017
▁2003	-9.75076
▁Japan	-9.75114
▁Milliarden	-9.7512
▁entscheiden	-9.75233
▁Winter	-9.75244
stellt	-9.75245
▁Restaurants	-9.75286
ep	-9.7529
▁Ä	-9.75312
ative	-9.7532
qua	-9.75523
▁historischen	-9.75524
▁bald	-9.75618
dauer	-9.75709
▁Vo	-9.75733
wechsel	-9.75759
▁technische	-9.75785
gesetzt	-9.75787
▁heutigen	-9.75828
▁very	-9.7584
ty	-9.75858
▁Begriff	-9.75881
gegangen	-9.75889
kop	-9.75894
▁eingehen	-9.75919
▁zentrale	-9.75939
▁Mitteilung	-9.75962
tiert	-9.7597
▁anders	-9.75976
▁Bürgern	-9.75986
▁gewisse	-9.75991
▁Eigen	-9.76012
gg	-9.76039
▁Fernseh	-9.76066
pflicht	-9.76082
ori	-9.76097
▁Mitgliedstaat	-9.76142
glich	-9.76167
preise	-9.7617
▁Meter	-9.76223
▁zuständig	-9.76331
▁Bedürfnisse	-9.76334
▁it	-9.76338
▁Berichts	-9.7638
▁geändert	-9.76432
▁organisiert	-9.76454
▁Schwierigkeiten	-9.7649
▁Parteien	-9.76502
wahl	-9.76534
▁Dazu	-9.76596
zeichen	-9.76598
▁ernst	-9.76623
fassung	-9.76751
▁aktuelle	-9.76758
lit	-9.76767
▁Allerdings	-9.76783
▁Sitz	-9.76791
äl	-9.76809
▁verstärkt	-9.76816
▁from	-9.76882
av	-9.76888
▁Zeichen	-9.76938
führer	-9.77016
19	-9.7704
▁ausdrücklich	-9.77048
т	-9.77066
▁Schlüssel	-9.77103
▁Hi	-9.77118
▁Verteidigung	-9.77125
▁Tagen	-9.77186
lan	-9.77209
denken	-9.77262
leiten	-9.77368
▁erinnern	-9.77391
mie	-9.77399
▁Abend	-9.77417
gezogen	-9.77458
▁000	-9.77493
▁Dem	-9.77495
hy	-9.77512
▁entsprechende	-9.77613
roll	-9.7765
IP	-9.77852
▁Denn	-9.77874
▁mal	-9.77892
▁Sonder	-9.77946
kul	-9.77957
▁Minister	-9.77959
▁Obwohl	-9.78049
▁tätig	-9.7808
▁ideal	-9.78101
▁modernen	-9.78128
▁Gre	-9.78205
fu	-9.78226
▁Stand	-9.78233
▁Hinweis	-9.78265
▁Produktions	-9.78276
▁etc	-9.78303
bereit	-9.78314
▁zukünftig	-9.78393
gruppen	-9.78393
lon	-9.78451
▁2.	-9.78687
wendung	-9.78693
▁you	-9.78718
füg	-9.78769
itz	-9.7877
▁überzeugt	-9.78788
▁Dann	-9.7882
▁Einfluss	-9.78858
stadt	-9.78874
lieb	-9.7893
pri	-9.78981
▁folgenden	-9.78995
▁Angelegenheiten	-9.79011
▁entgegen	-9.79054
rus	-9.79076
▁privaten	-9.79082
see	-9.79107
OS	-9.79116
▁deutschen	-9.79235
▁übernehmen	-9.79259
▁Moment	-9.79268
vent	-9.7929
gesetz	-9.79291
▁Ausführung	-9.79369
▁Plan	-9.79378
▁streng	-9.79454
stoß	-9.79523
▁groß	-9.79582
▁technischen	-9.79585
▁Christ	-9.79623
▁eben	-9.7974
ual	-9.79775
▁Präsidenten	-9.79836
▁Bewertung	-9.79851
▁Bio	-9.79939
▁persönlichen	-9.79949
▁Nun	-9.7995
rö	-9.79991
*	-9.8001
▁Fin	-9.8002
▁For	-9.8003
SS	-9.80033
getragen	-9.80038
sichtig	-9.80099
▁regelmäßig	-9.80176
▁gr	-9.80177
▁endlich	-9.80262
hotel	-9.8031
band	-9.80334
▁Ist	-9.80371
▁Stimme	-9.80468
▁Weiter	-9.80489
station	-9.80507
▁jährlich	-9.80509
▁Start	-9.80567
▁Tor	-9.80634
▁Beratung	-9.80635
▁Osten	-9.80657
äre	-9.80732
anischen	-9.80758
verfahren	-9.80787
▁starke	-9.8083
▁Gipfel	-9.80893
▁Zustimmung	-9.80908
▁kaum	-9.80981
▁Stellen	-9.81008
▁illegal	-9.81011
RA	-9.81059
leid	-9.81063
sicher	-9.81063
line	-9.8107
▁Krankheit	-9.8108
▁gezeigt	-9.8108
leitung	-9.81083
▁vorher	-9.81102
▁gesehen	-9.81137
region	-9.81147
▁Des	-9.81174
▁klare	-9.81246
tain	-9.81277
ó	-9.81309
▁zudem	-9.81346
▁Erstens	-9.8139
ull	-9.81395
lern	-9.81479
▁Mess	-9.81561
▁Komm	-9.81568
Sterne	-9.81573
▁arbeitet	-9.81583
▁allgemeinen	-9.81596
komp	-9.81602
▁beteiligt	-9.81645
Q	-9.81672
▁Kal	-9.81676
▁bewusst	-9.81691
▁ihres	-9.81704
▁welches	-9.81716
chtig	-9.81741
baren	-9.8179
▁Analyse	-9.81818
▁neues	-9.81951
rich	-9.81973
van	-9.82014
▁angeboten	-9.82015
▁freundlich	-9.82037
▁Antrag	-9.82043
▁Irak	-9.82107
rech	-9.82183
▁unbedingt	-9.82217
▁optimal	-9.82259
würdig	-9.82334
statt	-9.82402
lau	-9.82413
▁are	-9.82434
bus	-9.82439
▁:	-9.82523
▁Medi	-9.82556
▁globale	-9.82562
▁Pf	-9.82582
▁unten	-9.82587
▁rein	-9.82623
▁Alter	-9.82623
lösung	-9.82645
▁Au	-9.82759
▁Voll	-9.8278
geber	-9.82782
▁Regel	-9.82805
▁erstellt	-9.8285
▁Österreich	-9.82913
▁Anerkennung	-9.8295
▁Management	-9.8299
▁erhöht	-9.83042
▁außer	-9.8311
lett	-9.83115
▁Motor	-9.83125
struktur	-9.83136
▁Anstrengungen	-9.83159
▁Größe	-9.83182
▁Installation	-9.83218
sprach	-9.83234
santrag	-9.83247
▁Geist	-9.83318
▁Komp	-9.8336
▁Mann	-9.83388
▁Ganz	-9.83421
▁wahrscheinlich	-9.83435
gra	-9.83459
act	-9.83463
ore	-9.83468
▁einheitliche	-9.83505
▁Künstler	-9.83512
ID	-9.83531
▁angenehm	-9.83536
kultur	-9.83541
▁Vorteile	-9.83556
▁Wann	-9.83584
▁Technik	-9.83629
▁pri	-9.83763
are	-9.83764
▁Idee	-9.83771
▁gefordert	-9.83775
▁Kauf	-9.83781
▁konkrete	-9.83798
typ	-9.83806
▁Dienste	-9.83865
▁Bri	-9.83894
lement	-9.8394
position	-9.83959
ruh	-9.83979
▁höher	-9.83993
▁erkennen	-9.84079
unk	-9.84118
zz	-9.84153
▁Fortschritt	-9.84192
▁Lang	-9.84291
▁Verkauf	-9.84333
vertrag	-9.84438
ski	-9.84451
▁Ober	-9.84486
▁enorm	-9.84491
▁wer	-9.84513
fin	-9.8455
▁Ausschuß	-9.84553
technologie	-9.84602
mut	-9.8462
cl	-9.84627
Aus	-9.84632
▁Hy	-9.84635
▁Har	-9.84651
▁Ku	-9.84663
dra	-9.84673
inter	-9.84685
5-	-9.84696
▁geleistet	-9.84709
▁Verpflichtungen	-9.84728
erstatterin	-9.84777
geleitet	-9.84781
iere	-9.84785
▁bilden	-9.84785
▁€	-9.84804
▁Einstellung	-9.84806
stat	-9.84813
▁beschlossen	-9.84889
schätz	-9.84893
ong	-9.84904
▁alte	-9.84912
▁rasch	-9.84938
ding	-9.84961
test	-9.85062
melde	-9.85062
▁Tour	-9.85118
▁erweitert	-9.85258
▁braucht	-9.85258
▁Feld	-9.85265
ühl	-9.85276
▁entspricht	-9.85294
▁bitten	-9.85328
▁Abschluss	-9.85374
ßt	-9.85403
▁Generation	-9.85416
▁Überwachung	-9.8551
▁Ferien	-9.85524
▁as	-9.85544
▁Kritik	-9.85582
▁à	-9.85585
▁entschieden	-9.85742
+	-9.85744
▁Mont	-9.85789
▁globalen	-9.85847
ili	-9.85864
▁Hause	-9.85865
rin	-9.85868
gericht	-9.85874
fällig	-9.85884
▁Arch	-9.85897
handlung	-9.85914
ehr	-9.85941
zeichnung	-9.85965
pel	-9.85985
▁Hersteller	-9.85998
chter	-9.85999
▁Inhalte	-9.86125
sprache	-9.86166
▁Karte	-9.86183
▁sagt	-9.86217
▁bed	-9.86237
▁Organisationen	-9.86259
dition	-9.86266
verkehrs	-9.86266
▁Haltung	-9.86331
▁positive	-9.86351
weisung	-9.8636
▁strategische	-9.86373
stoffe	-9.86385
▁intensiv	-9.86387
▁typisch	-9.86405
▁Charakter	-9.86439
▁80	-9.86462
▁Zweifel	-9.86495
▁Gen	-9.865
▁spezifische	-9.86532
zeichnet	-9.86555
▁Gespräch	-9.86615
zo	-9.86647
▁berücksichtigen	-9.86658
fest	-9.86679
rm	-9.86687
▁Aspekt	-9.86695
mä	-9.86712
▁finanzielle	-9.86712
▁Holz	-9.86737
▁Kurs	-9.86751
▁entstehen	-9.86813
tieren	-9.86839
ida	-9.86858
▁schöne	-9.86858
▁Kor	-9.86868
▁Herz	-9.869
mitteln	-9.86918
▁Site	-9.86996
fläche	-9.87007
asi	-9.87121
haltung	-9.87138
ox	-9.87139
wachsen	-9.87149
gruppe	-9.87162
▁Stellungnahme	-9.872
▁Botschaft	-9.87268
▁Boden	-9.87284
träger	-9.87338
▁mindestens	-9.87377
▁extrem	-9.8739
▁folgende	-9.87407
▁Aussicht	-9.87421
dy	-9.8745
▁Direkt	-9.87512
maßnahmen	-9.87527
▁Falle	-9.87606
▁Ausgaben	-9.87634
liegen	-9.87655
kunden	-9.87734
▁y	-9.87757
▁Bro	-9.87759
rad	-9.87773
▁nötig	-9.87819
Programm	-9.87852
▁speziell	-9.87871
▁Wander	-9.87903
behörde	-9.87936
▁Kriterien	-9.87954
▁Club	-9.87955
▁Agentur	-9.87967
eil	-9.88024
gearbeitet	-9.8804
▁Rad	-9.88049
▁Bewegung	-9.88067
▁nachdem	-9.88131
▁erfüllt	-9.8815
▁Villa	-9.88172
▁Zwischen	-9.88263
▁Monat	-9.8829
ros	-9.88354
▁Banken	-9.88571
▁Anspruch	-9.88812
▁Suche	-9.88836
▁angegeben	-9.88853
halb	-9.88856
▁Mus	-9.88879
how	-9.88994
▁Schluss	-9.8901
namen	-9.89012
▁Mor	-9.89045
▁Bal	-9.89097
ehn	-9.89104
▁)	-9.89218
▁ergreifen	-9.89273
tum	-9.89294
sagt	-9.89339
▁umgesetzt	-9.89383
▁danke	-9.89412
▁Roma	-9.89562
▁Gleich	-9.89573
▁hinweisen	-9.89581
▁Termin	-9.8962
macht	-9.89667
▁geschützt	-9.89681
licht	-9.89684
falls	-9.89686
▁Trans	-9.89689
grenzen	-9.8971
▁Schaden	-9.89711
▁hinzu	-9.89718
▁Hintergrund	-9.89733
▁Übersetzung	-9.89766
king	-9.89768
▁August	-9.89768
hnen	-9.89794
▁jegliche	-9.89808
▁gegründet	-9.89858
▁gleiche	-9.89954
IC	-9.89963
schul	-9.89964
way	-9.89974
▁Tro	-9.89981
▁Wei	-9.89995
lässig	-9.90035
▁Infrastruktur	-9.90044
29	-9.9005
▁akzeptieren	-9.90082
▁demokratischen	-9.9014
flug	-9.9021
▁angezeigt	-9.90221
▁möglicherweise	-9.9023
anlagen	-9.90321
▁sicherzustellen	-9.90334
▁Gas	-9.90335
rei	-9.90339
▁gesprochen	-9.90384
80	-9.90438
▁Engagement	-9.90511
bal	-9.9054
▁innovative	-9.90549
▁Griechenland	-9.90561
schicht	-9.90575
mus	-9.90618
31	-9.90655
45	-9.90688
▁Ac	-9.90689
▁Ost	-9.9069
▁Zudem	-9.90738
▁ho	-9.9074
▁Reformen	-9.90754
▁London	-9.90802
▁Tu	-9.90864
▁Schließlich	-9.90865
▁Gi	-9.90912
wahr	-9.90921
▁Objekt	-9.90941
▁Nutzen	-9.90954
▁angesprochen	-9.90954
▁mehreren	-9.90963
ott	-9.9097
▁Cor	-9.90976
▁anerkannt	-9.90992
▁2002	-9.91039
▁Sollte	-9.91081
cc	-9.91084
qualität	-9.91104
▁Zunächst	-9.91246
▁benutzen	-9.91315
lung	-9.91317
▁27	-9.91317
rag	-9.91318
räume	-9.91333
▁Ausnahme	-9.91338
▁euch	-9.91346
rahmen	-9.91356
▁Wahlen	-9.91438
▁glauben	-9.91443
weich	-9.91471
▁mag	-9.91474
▁Falls	-9.91478
▁Nutzer	-9.91505
▁derartige	-9.91506
▁Teilnehmer	-9.91584
Kon	-9.91585
▁Wege	-9.91605
messen	-9.91608
▁Zeitraum	-9.91628
bruch	-9.91691
▁militärische	-9.91692
▁Angriff	-9.91708
▁Mag	-9.91724
▁bestehenden	-9.91757
▁Wettbewerbs	-9.91832
▁komme	-9.91838
rom	-9.91881
wagen	-9.9197
▁negativ	-9.92025
▁90	-9.92029
gro	-9.92031
▁na	-9.92075
▁Landschaft	-9.92077
▁or	-9.9208
heben	-9.92115
▁Texte	-9.92143
▁persönlich	-9.92189
▁normal	-9.92332
▁App	-9.92422
zeiten	-9.92424
▁online	-9.92513
▁Material	-9.92608
▁Anpassung	-9.92618
▁2001	-9.92652
15	-9.92677
▁Terrasse	-9.92694
geht	-9.92695
▁el	-9.92697
▁Reaktion	-9.92713
▁lösen	-9.92746
▁Ereignisse	-9.92795
▁Amerika	-9.92807
▁Komfort	-9.92862
press	-9.92865
gründe	-9.92938
“,	-9.92961
▁seines	-9.92972
▁Kenntnis	-9.93001
▁bedeutende	-9.93006
▁Anteil	-9.93018
▁Regelung	-9.93068
▁Bemerkung	-9.93162
pon	-9.9319
▁Mio	-9.93225
Hotel	-9.93237
99	-9.93246
▁Sam	-9.9325
▁funktioniert	-9.93266
artig	-9.93272
▁Sprachen	-9.93275
▁zuletzt	-9.93303
wunder	-9.93308
Le	-9.93309
▁bezeichnet	-9.93313
▁Link	-9.93346
▁dis	-9.93412
▁allgemeine	-9.93432
rum	-9.93435
▁deutsche	-9.93441
▁gefährlich	-9.93447
▁Herstellung	-9.93513
griff	-9.93547
▁Mini	-9.93581
▁Gold	-9.93586
renz	-9.93605
▁prüfen	-9.93691
▁Homepage	-9.93706
geschäft	-9.93774
▁besonderen	-9.93814
entwicklung	-9.93848
▁Gründe	-9.93886
▁vermeiden	-9.93941
▁Forderung	-9.94076
▁Sonnen	-9.94173
▁Großbritannien	-9.9419
▁Titel	-9.9423
▁Kooperation	-9.94234
ps	-9.94236
▁Kind	-9.94262
▁nachhaltige	-9.94323
ffe	-9.94329
▁Mitte	-9.94343
▁Vorbereitung	-9.94361
schaffen	-9.94371
▁Stimm	-9.94384
▁herzlich	-9.94401
▁Monate	-9.94439
dia	-9.94448
▁finanziellen	-9.94455
▁Iran	-9.94519
▁Stein	-9.94524
hor	-9.94538
▁Leistung	-9.94599
modell	-9.9465
▁Unterkategorien	-9.94663
▁freuen	-9.94671
▁früh	-9.94715
▁Pflicht	-9.94735
ther	-9.94756
alisierung	-9.94811
ille	-9.94815
▁interne	-9.94816
▁pre	-9.94836
▁Tür	-9.94849
ppe	-9.9486
kräfte	-9.94898
fuhr	-9.94935
0.000	-9.94946
▁bequem	-9.95073
▁Wirkung	-9.95115
▁200	-9.95117
▁umfangreiche	-9.95231
win	-9.95268
▁Technologien	-9.95276
det	-9.95288
▁Klimawandel	-9.95302
▁vo	-9.95328
▁beziehen	-9.9537
reise	-9.95389
▁*	-9.95437
tic	-9.95439
▁Char	-9.95577
bindung	-9.95582
02	-9.95586
▁min	-9.95652
▁darunter	-9.95683
▁Kategorie	-9.95708
Ein	-9.95733
▁Aufbau	-9.95759
▁teilweise	-9.95759
bad	-9.95908
▁Museum	-9.95922
▁hochwertige	-9.96028
▁Col	-9.96063
▁Instrumente	-9.96136
▁Hoffnung	-9.96148
▁jederzeit	-9.96176
▁Vielfalt	-9.96188
▁ad	-9.96193
▁verfolgt	-9.96202
▁verändert	-9.96228
▁dank	-9.96275
▁hoffen	-9.96278
▁Band	-9.96282
▁Ausstellung	-9.96289
▁fe	-9.96315
▁Garantie	-9.96333
▁Super	-9.96343
richtlinie	-9.96371
ax	-9.96381
▁Pat	-9.96401
zugehen	-9.96408
▁fahren	-9.96499
schuldig	-9.96529
oper	-9.96529
▁offensichtlich	-9.96577
▁erhöhen	-9.96712
▁Ihres	-9.96717
▁stattfinden	-9.96726
▁Hafen	-9.96759
▁Autor	-9.96765
zogen	-9.96767
kur	-9.96776
▁erzielen	-9.9679
steigen	-9.96853
▁Multi	-9.96874
▁positiv	-9.96875
▁Kontroll	-9.96934
4-	-9.96938
▁Worte	-9.9696
ktor	-9.96965
▁Waffen	-9.96975
kurs	-9.96976
▁elektronische	-9.96986
gas	-9.96999
▁Tages	-9.97004
▁regionale	-9.97013
▁Februar	-9.97047
▁Les	-9.97067
▁sicherlich	-9.97097
▁junge	-9.97192
▁relativ	-9.9721
TE	-9.97258
▁einzigartige	-9.9729
▁einzelne	-9.97322
▁Veranstaltung	-9.97355
ré	-9.97368
60	-9.97373
▁Ruhe	-9.97405
cor	-9.97421
▁Cas	-9.97467
▁gern	-9.97501
11	-9.97523
▁Messe	-9.976
▁Gesetzgebung	-9.97656
▁demokratische	-9.97688
ologie	-9.97703
▁Straße	-9.97729
▁garantiert	-9.97738
▁CO	-9.97845
▁Grundsatz	-9.97871
▁Prüfung	-9.97897
▁gelangen	-9.97922
chi	-9.97932
paket	-9.97976
kom	-9.98011
tausend	-9.98086
▁Ausland	-9.98127
management	-9.98165
▁Log	-9.98168
▁höhere	-9.98168
▁entweder	-9.98173
▁Dollar	-9.98179
▁oben	-9.98262
▁lesen	-9.98263
standard	-9.9827
▁Kredit	-9.9828
▁Mu	-9.9828
▁betrachtet	-9.98323
▁1999	-9.98329
▁PC	-9.98385
▁private	-9.98386
sport	-9.98413
▁Kurz	-9.98522
▁jeweils	-9.98528
▁Faktor	-9.98569
▁elegant	-9.98583
▁näher	-9.98592
▁eingeführt	-9.98618
▁Best	-9.98626
▁Vereint	-9.98689
▁spezielle	-9.98715
▁Rand	-9.98735
▁gemütlich	-9.98802
▁Sc	-9.98818
▁Bra	-9.98868
ood	-9.9887
reif	-9.98949
▁Spezial	-9.98953
▁gewünscht	-9.98966
pekt	-9.99017
▁Innen	-9.99019
▁Richtlinien	-9.99029
sabkommen	-9.99057
▁par	-9.99072
▁Grenz	-9.99073
▁Europäer	-9.99077
mü	-9.99078
▁bestätigt	-9.99091
▁Einigung	-9.99122
ase	-9.99126
Kom	-9.99128
▁Indien	-9.99184
▁Systems	-9.99225
gew	-9.99229
low	-9.99239
ona	-9.99256
dro	-9.99258
star	-9.99351
▁Verwaltungs	-9.99371
▁Sh	-9.99386
steck	-9.99418
lat	-9.99468
▁Val	-9.99522
ativ	-9.99527
az	-9.99532
oc	-9.99544
rechts	-9.99573
information	-9.99645
bor	-9.99652
ieß	-9.99656
▁Abschließend	-9.99656
▁Friedens	-9.99695
material	-9.99698
▁empfehlen	-9.99712
▁angemessen	-9.99739
vid	-9.99742
▁übernachten	-9.99754
▁Verhalten	-9.99757
▁besuchen	-9.99799
dienste	-9.99802
▁Dateien	-9.99817
▁Tagung	-9.99842
▁kommenden	-9.99876
LA	-9.99887
▁Ur	-9.99893
▁stimme	-9.99893
fordern	-9.99927
wertung	-9.99991
▁Polen	-10
▁Einrichtungen	-10.0012
straße	-10.0016
▁3.	-10.002
▁voraus	-10.0023
freiheit	-10.0024
▁Bla	-10.0031
▁Kur	-10.0034
▁Kindern	-10.0035
▁Maß	-10.0035
05	-10.0037
▁freien	-10.0037
▁Sach	-10.004
▁Entwurf	-10.0041
ish	-10.0043
▁notwendigen	-10.0046
rank	-10.0051
▁Veränderungen	-10.0053
▁Funktionen	-10.0062
▁betonen	-10.0064
▁handeln	-10.0065
04	-10.0066
prinzip	-10.007
▁gekommen	-10.0082
▁persönliche	-10.0084
▁Presse	-10.0084
Qua	-10.0088
▁Heil	-10.0095
MA	-10.0097
▁CD	-10.0097
schluß	-10.0101
▁fand	-10.0104
▁darstellen	-10.0107
▁that	-10.011
▁Tal	-10.0116
▁Sinn	-10.0119
▁niedrig	-10.0123
hnt	-10.0125
▁lernen	-10.0128
▁ausgezeichnete	-10.0132
kauf	-10.0135
orientiert	-10.0136
▁Irland	-10.0139
▁rechts	-10.0142
▁Barcelona	-10.0143
leistung	-10.0145
▁Qualitäts	-10.0148
quelle	-10.0151
▁Sil	-10.0158
▁Camp	-10.016
▁Grün	-10.0164
rischen	-10.0167
▁umfasst	-10.0174
▁Business	-10.0175
▁Absicht	-10.0175
instrument	-10.0175
▁aufmerksam	-10.0175
▁Militär	-10.0178
▁stärken	-10.0181
▁Wohnung	-10.0183
▁informieren	-10.0191
▁dagegen	-10.0192
▁beliebt	-10.0195
eller	-10.0198
▁Zi	-10.0199
07	-10.0205
produktion	-10.0206
▁Pre	-10.0208
nummer	-10.0218
stab	-10.022
ada	-10.0227
karte	-10.0231
▁Maschinen	-10.0231
▁Leider	-10.0234
ani	-10.0235
▁Meeres	-10.0236
cial	-10.0237
▁Königreich	-10.0238
▁Übergang	-10.0239
▁welcher	-10.0241
scheid	-10.0242
rauch	-10.0247
▁Phase	-10.0248
▁+	-10.025
▁Beweis	-10.0251
▁Beschreibung	-10.0258
▁Mindest	-10.0259
▁Zivil	-10.0261
▁erfolgen	-10.0263
▁Fonds	-10.0264
▁erklären	-10.0265
zweck	-10.0266
ären	-10.0268
Sp	-10.0269
▁wären	-10.0271
▁Lizenz	-10.0275
▁Schweiz	-10.0276
gelassen	-10.0276
▁Jetzt	-10.028
für	-10.028
▁Initiativen	-10.0283
▁verloren	-10.0297
▁Besitz	-10.0298
anstalt	-10.0298
▁Absatz	-10.0298
▁gewährleistet	-10.0302
▁hervorragende	-10.0315
ath	-10.0316
text	-10.0318
▁Bestandteil	-10.0319
person	-10.0322
▁durchaus	-10.0324
▁einfache	-10.0324
vention	-10.0324
gegen	-10.0326
wenden	-10.0327
▁Jahrzehnt	-10.0329
▁hart	-10.0332
▁ernsthaft	-10.0336
span	-10.0338
▁Such	-10.0344
▁dienen	-10.035
▁Leistungen	-10.0351
▁Download	-10.0367
aktiv	-10.0379
▁Status	-10.0381
▁sauber	-10.0385
▁Teile	-10.0387
▁Wind	-10.0389
▁erleben	-10.0395
▁Kommunikation	-10.0395
US	-10.0396
▁Grundsätze	-10.0396
▁Welche	-10.0407
▁Gefühl	-10.0413
hren	-10.0415
geteilt	-10.0417
▁Red	-10.0422
▁Angaben	-10.0423
▁freue	-10.0424
▁mon	-10.0424
▁Büro	-10.0426
ple	-10.0426
▁TV	-10.0429
▁Suite	-10.0432
▁Verpflichtung	-10.0434
▁fragen	-10.0435
sozial	-10.0439
▁reich	-10.044
ident	-10.0442
roh	-10.0454
schuld	-10.0457
▁ideale	-10.0467
ions	-10.0469
▁Doppel	-10.0477
▁Warum	-10.048
▁zuvor	-10.0483
▁Vorstellung	-10.0484
▁ausgezeichnet	-10.0489
plätze	-10.0496
▁bi	-10.0498
▁trägt	-10.0499
cho	-10.0501
▁Ratsvorsitz	-10.0505
LE	-10.0508
gal	-10.0514
▁konzentrieren	-10.0516
zin	-10.0518
▁lokalen	-10.0526
▁verfolgen	-10.0528
▁Brüssel	-10.0529
politischen	-10.0529
▁Gri	-10.053
cia	-10.0532
änderung	-10.0542
systems	-10.0547
▁Hel	-10.0552
▁zufrieden	-10.0556
▁dir	-10.0557
fund	-10.0568
▁abgeschlossen	-10.0568
▁Systeme	-10.0569
▁erscheint	-10.0571
▁Lesung	-10.0572
▁sinnvoll	-10.0575
wirkung	-10.0577
▁Schrift	-10.0579
32	-10.0581
PS	-10.0587
▁Standort	-10.0588
▁höchste	-10.059
old	-10.0598
▁Produkten	-10.0605
ition	-10.061
▁Denk	-10.0611
▁Ukraine	-10.0616
▁laut	-10.0625
03	-10.0629
sorge	-10.0632
▁Prinzip	-10.0633
▁Beteiligung	-10.0634
▁gegenseitig	-10.0638
с	-10.0642
▁Dennoch	-10.0644
▁Arm	-10.0647
▁Rund	-10.0654
▁dennoch	-10.0656
▁König	-10.0656
drücke	-10.066
▁Weitere	-10.066
reib	-10.066
▁Einhaltung	-10.0661
füll	-10.0662
q	-10.0667
▁Prioritäten	-10.0668
akte	-10.0668
▁wunderschöne	-10.0671
▁übertragen	-10.0674
▁amerikanischen	-10.0676
▁Halb	-10.068
▁modern	-10.068
▁Politiker	-10.068
fort	-10.0681
▁laufen	-10.0683
▁Werkzeug	-10.0683
▁Klicken	-10.0687
▁Sehenswürdigkei	-10.0689
▁unternehmen	-10.0689
▁Schwerpunkt	-10.0695
▁Elemente	-10.0695
national	-10.0708
▁schön	-10.0709
▁au	-10.0711
▁Tisch	-10.0713
ehrt	-10.072
▁individuell	-10.0721
straf	-10.0724
▁Achtung	-10.0728
▁Gemeinde	-10.0729
grad	-10.073
13	-10.0737
▁klicken	-10.0751
▁Katastrophe	-10.0753
▁Wissenschaft	-10.0756
▁Amsterdam	-10.076
Ü	-10.0763
▁hält	-10.0767
▁Nachfolgend	-10.0769
präsent	-10.0772
▁möglichst	-10.0774
▁nennen	-10.0776
meter	-10.0781
fel	-10.0782
Li	-10.0787
ete	-10.0787
▁Buchung	-10.0787
▁Vielen	-10.079
Er	-10.0792
▁Rom	-10.0793
▁westlich	-10.0796
▁Speicher	-10.0798
▁Realität	-10.08
40	-10.0808
▁Sk	-10.0814
▁erstellen	-10.0815
▁verlassen	-10.0816
▁befürworte	-10.0816
▁21	-10.0817
hebung	-10.0825
hängen	-10.0827
gung	-10.0831
▁Umfang	-10.0835
▁funktionieren	-10.0835
▁Signal	-10.0837
▁Stärkung	-10.0839
▁Patienten	-10.0839
AM	-10.0839
▁stabil	-10.084
▁verursacht	-10.0842
▁Globalisierung	-10.0844
▁Forderungen	-10.0849
fähr	-10.0856
ausschuss	-10.0858
▁fordert	-10.0859
üß	-10.0862
ij	-10.0865
▁Argument	-10.0866
▁Stoff	-10.0866
▁Hauses	-10.087
▁diskutieren	-10.087
▁endgültig	-10.087
ET	-10.0871
IM	-10.0879
▁Arten	-10.0881
▁zahlen	-10.0883
läng	-10.0885
dre	-10.0892
Al	-10.0899
ziehung	-10.0902
▁humanitäre	-10.0904
▁Unterkunft	-10.0904
top	-10.0905
▁Agrar	-10.0914
''	-10.0916
▁II	-10.0919
▁Seine	-10.0919
▁legen	-10.0923
▁niemand	-10.0924
▁erhält	-10.093
▁digitale	-10.0933
kreis	-10.0934
uk	-10.0936
gebühr	-10.094
▁Export	-10.0941
▁Gleichzeitig	-10.0942
▁Jahrhunderts	-10.0942
▁Reich	-10.0943
▁Angesichts	-10.0945
▁begrenzt	-10.0946
Arbeitslosigkeit	-10.0947
miet	-10.0947
arten	-10.0949
nimmt	-10.0953
▁500	-10.0953
atik	-10.0954
▁Verträge	-10.0954
ise	-10.0956
TM	-10.0958
▁professionelle	-10.0959
▁anderes	-10.0964
▁70	-10.0975
75	-10.0977
▁Ideen	-10.0984
hören	-10.0985
rang	-10.0987
▁mittlere	-10.0989
von	-10.0991
by	-10.0992
organisation	-10.0992
schläge	-10.0993
möglichkeiten	-10.0995
▁Bett	-10.0998
▁geplant	-10.0999
reit	-10.1003
▁Wesen	-10.1004
▁Gott	-10.1005
▁Bestellung	-10.1007
▁Polizei	-10.1007
▁bedeuten	-10.1008
SP	-10.1008
▁Einheit	-10.1008
Ö	-10.1012
ces	-10.1013
▁Dorf	-10.1022
zone	-10.1023
▁meist	-10.1029
▁Zugriff	-10.103
▁Boot	-10.1037
▁Vielzahl	-10.1038
▁feststellen	-10.1039
häuser	-10.1043
▁York	-10.1049
▁Air	-10.1059
▁begann	-10.106
▁einiger	-10.1062
▁Gemeinsamen	-10.1064
▁schneller	-10.1065
räumen	-10.1066
▁geöffnet	-10.1071
▁Kompetenz	-10.1074
▁jemand	-10.1074
▁Strom	-10.1074
▁Lauf	-10.1075
DA	-10.1085
▁(1	-10.1091
▁profitieren	-10.1094
▁Handlung	-10.1095
bedingungen	-10.1095
wach	-10.1096
▁Verkehr	-10.1104
RI	-10.1105
▁Priorität	-10.1105
tat	-10.111
▁interessante	-10.1116
Geschäftsordnung	-10.1117
Innen	-10.1119
ara	-10.112
▁hergestellt	-10.112
▁überprüfen	-10.1133
▁Fol	-10.1135
▁historische	-10.1136
▁Par	-10.1138
aff	-10.1139
▁Name	-10.114
willig	-10.1141
▁Verlust	-10.1142
▁Heimat	-10.1155
ique	-10.1156
AC	-10.1161
▁Eigentum	-10.1173
▁Bedarf	-10.1175
▁kulturelle	-10.1178
züge	-10.1184
off	-10.1185
▁ausgewählt	-10.1189
sländern	-10.1191
▁Liebe	-10.1195
▁hingewiesen	-10.1197
▁links	-10.1206
IA	-10.1208
mos	-10.1209
▁wenigen	-10.1209
▁Formen	-10.1211
▁Flexibilität	-10.1212
▁hören	-10.1213
▁Effekt	-10.1217
meister	-10.1221
▁grundlegende	-10.1224
par	-10.1224
real	-10.1228
fra	-10.1229
Pla	-10.1229
▁Immobilien	-10.123
▁diskutiert	-10.1233
▁Gebieten	-10.1233
▁vernünftig	-10.1234
bie	-10.1236
ndung	-10.1237
▁Wünsche	-10.1241
ware	-10.1241
geladen	-10.1243
cre	-10.1243
▁Debian	-10.1244
▁halb	-10.1246
▁Studie	-10.1246
▁stand	-10.1247
▁kulturellen	-10.125
▁11.	-10.1251
minister	-10.1251
▁exp	-10.1253
▁Hin	-10.1254
▁betroffen	-10.1255
▁gewinnen	-10.1256
▁Spitze	-10.1257
▁Quelle	-10.1265
▁dritten	-10.1267
▁Stück	-10.1269
ont	-10.1269
▁Eis	-10.127
Datei	-10.1273
▁Niveau	-10.1274
▁miteinander	-10.128
wir	-10.1296
▁gesetzlich	-10.13
▁Drogen	-10.1305
▁Datenbank	-10.1309
verbindlich	-10.1315
▁Min	-10.1315
▁einsetzen	-10.1317
▁Vorteil	-10.1318
▁cha	-10.1319
oo	-10.132
gesch	-10.1322
energie	-10.1322
▁Dimension	-10.1323
▁Willen	-10.1324
yl	-10.1324
▁klein	-10.1325
zugeben	-10.1328
produkt	-10.1341
MS	-10.1343
weil	-10.1344
▁los	-10.1344
ata	-10.1345
▁Tod	-10.1347
komm	-10.1349
▁Standards	-10.1354
streben	-10.1362
▁komplexe	-10.1363
▁geschehen	-10.1364
sinn	-10.1365
hel	-10.137
lution	-10.1375
▁Tourismus	-10.1376
reform	-10.1381
▁allgemein	-10.1384
einheit	-10.1387
▁Freunde	-10.1388
▁Adresse	-10.1395
gut	-10.1396
hundert	-10.1397
hö	-10.1401
organ	-10.1409
mobil	-10.1411
▁br	-10.1414
▁finde	-10.1418
▁Wellness	-10.1423
▁Flugzeug	-10.1423
▁Star	-10.1426
▁betont	-10.1426
dacht	-10.1426
gerecht	-10.1428
politische	-10.1428
▁danach	-10.1429
▁schönen	-10.1429
▁unterstütze	-10.143
ira	-10.1431
Shop	-10.1431
▁Rest	-10.1435
pack	-10.1435
▁Gal	-10.1436
anlage	-10.1436
ält	-10.1438
zieht	-10.1438
mächtig	-10.144
▁Mutter	-10.1443
▁fair	-10.1448
▁beinhaltet	-10.145
ture	-10.1454
▁informiert	-10.1454
leih	-10.146
tätigkeit	-10.1461
▁bildet	-10.1467
▁Zuständigkeit	-10.1468
▁Regime	-10.1469
punkte	-10.147
н	-10.1473
▁IT	-10.1476
▁High	-10.1477
▁Diskriminierung	-10.1479
▁Rot	-10.148
prozess	-10.1482
▁überall	-10.1486
ausschusses	-10.1487
geordnet	-10.1488
▁entstanden	-10.1493
▁regionalen	-10.1493
▁Einkaufs	-10.1498
▁Marken	-10.1504
▁Koordinierung	-10.151
▁beginnt	-10.151
cy	-10.1516
70	-10.1516
tür	-10.1516
trans	-10.1518
▁komfortable	-10.152
▁gra	-10.152
▁manche	-10.1525
staaten	-10.1529
▁besitzt	-10.153
illa	-10.153
▁Sehr	-10.1531
fältig	-10.1533
let	-10.1545
ban	-10.1546
car	-10.1546
▁Hostel	-10.1547
▁Jeder	-10.1547
▁Justiz	-10.1555
well	-10.1556
▁Zentral	-10.1558
steller	-10.156
▁politischer	-10.1569
rand	-10.157
▁kritisch	-10.1573
svorschriften	-10.1577
▁keinerlei	-10.1577
rea	-10.1578
schnitt	-10.1578
▁Volks	-10.158
▁beschäftigt	-10.158
krieg	-10.1583
CO	-10.1583
▁Anlagen	-10.1583
UR	-10.1585
▁Überprüfung	-10.1586
rau	-10.1591
▁gestalten	-10.1593
mul	-10.1593
IV	-10.1594
hang	-10.1594
▁Gerichtshof	-10.1596
▁Last	-10.1597
EC	-10.1599
ologische	-10.1606
▁Kosovo	-10.1606
tiv	-10.1607
▁Serie	-10.1611
▁Einwanderung	-10.1613
▁Lager	-10.1613
▁28	-10.1613
▁vorliegenden	-10.1616
▁www	-10.1622
aria	-10.1631
▁dient	-10.1631
▁externe	-10.1632
▁Verständnis	-10.1635
▁Patent	-10.1636
▁Landwirte	-10.1639
▁vollkommen	-10.1639
▁fl	-10.1645
versorgung	-10.1645
▁Wohl	-10.165
ließ	-10.1654
▁französischen	-10.1654
▁Zahlung	-10.166
ED	-10.166
▁Jugend	-10.1662
▁erforderlichen	-10.1665
frist	-10.167
▁Treffen	-10.167
▁26	-10.1677
▁nützlich	-10.1678
▁Maße	-10.1679
▁Pan	-10.168
ook	-10.1688
decken	-10.1689
▁Ordnung	-10.1691
▁Kräfte	-10.1693
2-	-10.1696
▁Anlage	-10.1698
▁Kli	-10.1702
▁Altstadt	-10.1706
▁Farb	-10.1708
nahm	-10.1718
▁interessiert	-10.1721
▁Ze	-10.1735
ffer	-10.1741
▁eröffnet	-10.1744
▁Liefer	-10.1746
schiff	-10.1746
▁hauptsächlich	-10.1747
▁Einkommen	-10.1749
lager	-10.1752
▁Kopf	-10.1755
▁lokale	-10.1756
▁Grundrechte	-10.1756
▁Aktiv	-10.1762
▁Fri	-10.1763
▁herrliche	-10.1765
steht	-10.1765
wandel	-10.1771
▁Fenster	-10.1775
märkte	-10.1777
▁festgestellt	-10.1777
▁Mil	-10.1778
▁Liberalisierung	-10.1782
▁garantieren	-10.1788
▁ergeben	-10.1791
ley	-10.1793
▁Arbeiten	-10.181
▁denken	-10.1816
▁wichtigste	-10.1816
CE	-10.1818
▁Branche	-10.1822
▁Meiner	-10.1823
raten	-10.1825
▁pr	-10.1832
vorschlag	-10.1833
nov	-10.1837
▁Erde	-10.1845
produkte	-10.1852
▁Prä	-10.1855
▁vereinbart	-10.1858
breite	-10.1862
usch	-10.1863
pu	-10.1867
▁frisch	-10.1869
▁internationaler	-10.1877
▁WTO	-10.188
▁Eindruck	-10.1883
▁wachsende	-10.1884
cal	-10.1887
Rezeption	-10.1889
Das	-10.1891
▁überzeugen	-10.1896
▁ökologisch	-10.1897
zuführen	-10.1905
zwing	-10.1905
gelegt	-10.1909
▁entsprechen	-10.1913
▁betrachten	-10.1915
geliefert	-10.1918
▁solcher	-10.1918
▁verabschiedet	-10.1922
link	-10.1923
▁wesentliche	-10.1924
▁300	-10.1925
▁freie	-10.1928
▁weiterer	-10.1928
leistungen	-10.1931
▁Pass	-10.1931
▁richtigen	-10.1933
ali	-10.1934
▁pu	-10.1935
▁fallen	-10.1937
▁»	-10.1939
pul	-10.1943
▁Unabhängigkeit	-10.1944
figur	-10.1946
▁Berufs	-10.1946
klär	-10.1955
▁Betriebs	-10.1956
▁Anwendungen	-10.1959
▁Mü	-10.1961
▁akzeptiert	-10.1964
zy	-10.1969
▁Zustand	-10.197
format	-10.197
▁grundsätzlich	-10.1971
SA	-10.1973
FR	-10.1973
▁größeren	-10.1985
▁Wald	-10.1989
▁Gegensatz	-10.1995
ella	-10.1998
▁falls	-10.2
erfolg	-10.2001
▁Gebrauch	-10.2007
▁verehrte	-10.2009
▁erfordert	-10.2013
zähl	-10.2016
▁sogenannte	-10.2025
▁sprach	-10.2028
09	-10.203
▁les	-10.2031
ico	-10.2032
▁warten	-10.2042
▁Wachstums	-10.2049
▁Atom	-10.2052
▁üblich	-10.2056
▁teilnehmen	-10.2057
itter	-10.2058
▁Verhältnis	-10.2059
▁Stadtzentrum	-10.2065
▁Regelungen	-10.2066
▁gegenwärtigen	-10.2067
▁Risiken	-10.2068
regeln	-10.2081
▁Zentralbank	-10.2082
▁Verbrechen	-10.2086
NE	-10.2093
98	-10.2095
tive	-10.2097
▁Vertrieb	-10.2099
▁maximal	-10.2101
▁Karten	-10.2103
ital	-10.2107
gebildet	-10.2114
▁Ap	-10.2116
programme	-10.212
zel	-10.2122
PL	-10.2123
krank	-10.2123
▁Zahlungs	-10.2125
auto	-10.2127
▁ausgewogen	-10.2137
stör	-10.2137
stanz	-10.2141
transport	-10.2146
▁1998	-10.2151
größe	-10.2153
▁Montag	-10.2153
TA	-10.2157
18	-10.2162
billig	-10.2162
▁Studien	-10.2163
▁britischen	-10.2168
▁fertig	-10.2168
▁Ton	-10.2173
leucht	-10.2178
treffen	-10.2179
▁Sprach	-10.218
▁Übereinkommen	-10.2181
▁Westen	-10.2181
wirkt	-10.2182
web	-10.2191
haushalt	-10.2192
▁Gebiete	-10.2199
tem	-10.2201
▁Leistungs	-10.2204
▁General	-10.2205
▁Zug	-10.2208
▁Typ	-10.2214
▁Einwohner	-10.2218
▁jüngsten	-10.2219
günstig	-10.2226
bli	-10.2231
▁Booking	-10.2232
▁daraus	-10.2238
▁gelungen	-10.224
▁transparent	-10.2244
▁kürzlich	-10.2244
▁individuelle	-10.2244
▁legt	-10.2247
▁Gedanken	-10.2247
bro	-10.2251
tragen	-10.2255
▁Element	-10.2257
▁Dia	-10.226
atoren	-10.2262
suchen	-10.2267
▁Akt	-10.2271
▁Klimaanlage	-10.2272
wende	-10.2274
▁definiert	-10.228
08	-10.2283
▁Kamera	-10.2288
▁bo	-10.2292
▁angemessene	-10.2296
▁korrekt	-10.2298
gemeinschaftlich	-10.2301
▁eingereicht	-10.2309
not	-10.2309
gli	-10.2311
▁Investition	-10.2313
▁Ti	-10.2319
▁Portugal	-10.232
nah	-10.2329
▁Erhöhung	-10.2331
▁Kombination	-10.2336
yp	-10.2337
▁Erholung	-10.234
▁Fotos	-10.2342
▁Verletzung	-10.2345
▁beachten	-10.2348
17	-10.235
rische	-10.2351
▁ausländische	-10.2356
▁Kontinent	-10.2357
▁Nachdem	-10.2359
OL	-10.236
▁Vari	-10.2362
▁Cap	-10.2365
▁Formular	-10.2368
anda	-10.2369
ündig	-10.2371
mod	-10.2372
▁Arbeitsmarkt	-10.2374
▁Op	-10.2377
▁Englisch	-10.2403
▁Uni	-10.2404
▁musste	-10.2407
▁this	-10.2408
pre	-10.2409
sagen	-10.2412
stell	-10.2413
laub	-10.2415
▁Experten	-10.2415
fahrzeug	-10.2416
smöglichkeiten	-10.2418
▁Hälfte	-10.2421
▁verbundenen	-10.2424
▁21.	-10.2426
▁were	-10.2427
▁Papier	-10.2427
▁Gemeinsam	-10.2432
▁Tiere	-10.2434
▁sorgfältig	-10.2437
▁müsste	-10.2439
▁Beschluss	-10.244
kette	-10.2444
▁international	-10.2445
▁Worten	-10.2451
▁Gegenteil	-10.2453
dring	-10.2458
tätig	-10.246
▁Datenschutz	-10.2461
▁dritte	-10.2461
▁Erklärungen	-10.2461
▁gehalten	-10.2462
ulation	-10.2463
▁Planung	-10.2463
▁Ag	-10.2467
▁manchmal	-10.2467
▁wesentlichen	-10.2475
▁Ger	-10.2477
▁öffentlich	-10.2479
▁Haut	-10.248
▁einverstanden	-10.2483
▁geschieht	-10.2497
kar	-10.2498
getreten	-10.2499
▁Beihilfen	-10.2503
vol	-10.2507
▁stimmt	-10.2509
▁klassische	-10.251
durch	-10.2512
of	-10.2513
brechen	-10.2513
maß	-10.252
▁Ebenso	-10.2522
▁Hall	-10.2523
TV	-10.2526
▁exklusiv	-10.2526
istisch	-10.2527
▁Geräte	-10.2535
▁Streit	-10.2539
bit	-10.2541
Ch	-10.2542
wn	-10.2542
▁gewiss	-10.2545
grund	-10.2551
▁mittels	-10.2552
▁außerordentlich	-10.2556
olo	-10.2556
▁Empfehlungen	-10.2561
▁zugänglich	-10.2562
LI	-10.2564
kenntnis	-10.2564
▁Architektur	-10.2565
▁unternommen	-10.2567
europäische	-10.2573
▁zählen	-10.258
▁Alt	-10.2582
▁nationaler	-10.2585
▁Aktionen	-10.2587
Mo	-10.2587
äss	-10.2589
wort	-10.2591
▁sonst	-10.2593
▁kaufen	-10.2595
▁damals	-10.2595
▁Drei	-10.2598
▁Teilnahme	-10.2603
ober	-10.2608
▁Delegation	-10.2608
förderung	-10.2616
▁Zahlen	-10.2616
ball	-10.2618
▁spricht	-10.2618
▁bewegen	-10.2619
▁Hol	-10.2619
▁Dokumente	-10.2622
gebunden	-10.2623
gemein	-10.2624
▁sobald	-10.2626
▁höchst	-10.2631
▁Schreib	-10.2635
▁Ursache	-10.2636
▁ältere	-10.2637
pot	-10.2641
ular	-10.2642
fähigkeit	-10.2644
▁Laufe	-10.2645
▁übernommen	-10.2648
maschinen	-10.2649
schränk	-10.2649
▁World	-10.2663
▁Del	-10.2663
▁selten	-10.2668
uck	-10.2671
▁wodurch	-10.2672
▁installiert	-10.2672
▁Zoll	-10.268
gerät	-10.268
▁speziellen	-10.2683
▁Abschnitt	-10.2683
▁Nahrungsmittel	-10.2686
▁Fort	-10.2695
▁Definition	-10.2695
▁jungen	-10.2698
▁Minderheiten	-10.2702
rot	-10.2711
▁kostenfrei	-10.2712
▁Voraussetzungen	-10.2715
methode	-10.2715
sfonds	-10.2719
▁sage	-10.2719
..."	-10.2722
▁Glas	-10.2724
▁Überzeugung	-10.2724
▁Hauptstadt	-10.2725
▁Alternative	-10.2729
▁sur	-10.2729
▁Unterschied	-10.2731
partei	-10.2737
▁Bahnhof	-10.2738
film	-10.2745
▁Beim	-10.2751
▁abhängig	-10.2753
▁Asyl	-10.2765
▁Schulden	-10.2766
machen	-10.2774
bürger	-10.2775
▁Austausch	-10.2778
af	-10.2785
▁Links	-10.2787
▁gestaltet	-10.2789
▁treten	-10.2793
sbedingungen	-10.2794
▁Touristen	-10.2795
▁andererseits	-10.2796
wür	-10.2799
▁einzigen	-10.2801
▁This	-10.2808
▁Gegend	-10.2808
mitglied	-10.2808
▁Farben	-10.2809
▁Süden	-10.2814
▁anbieten	-10.2816
▁Modul	-10.2823
▁Hilfs	-10.2829
▁Mensch	-10.2832
▁Effizienz	-10.2834
üss	-10.2841
▁Fo	-10.2843
▁Wien	-10.2845
▁bu	-10.2851
▁sieben	-10.2853
setz	-10.2856
48	-10.2856
▁präsentiert	-10.2857
kontrolle	-10.2857
strahl	-10.2859
▁Ass	-10.2863
▁Schule	-10.2865
▁Niederlande	-10.2872
▁Cre	-10.2875
play	-10.288
smaßnahmen	-10.288
▁Freude	-10.2882
▁gutes	-10.2883
▁vorschlagen	-10.2892
holen	-10.2896
▁Nieder	-10.2898
▁have	-10.2902
fol	-10.2903
jährigen	-10.2905
▁Format	-10.291
forschung	-10.2922
▁zugleich	-10.2929
▁IN	-10.2945
▁Ak	-10.2945
▁Methode	-10.2946
▁Speise	-10.2946
▁Regional	-10.2947
▁Konzert	-10.2951
lor	-10.2954
öpfe	-10.2954
▁großes	-10.2956
▁Vom	-10.2956
▁politisch	-10.2956
jährige	-10.2957
▁wertvoll	-10.2963
verbrauch	-10.2965
karten	-10.2967
14	-10.2971
▁Linux	-10.2973
einrichtungen	-10.2974
lig	-10.2974
▁Trotz	-10.2975
organisationen	-10.2978
▁reagieren	-10.2983
ping	-10.2989
forderung	-10.2992
▁erscheinen	-10.2992
wässer	-10.2995
▁Bel	-10.2999
EM	-10.3001
▁Nachfrage	-10.3007
▁Za	-10.3008
wind	-10.3018
▁dich	-10.3018
▁betroffenen	-10.302
treiben	-10.3021
fällen	-10.3021
direkt	-10.3023
25	-10.3026
▁Kol	-10.3026
cio	-10.3032
DER	-10.3033
▁Krisen	-10.3051
freundliche	-10.3053
▁basiert	-10.3055
work	-10.3056
ebene	-10.3059
▁schnelle	-10.3062
▁Gewicht	-10.3064
▁traditionellen	-10.3064
▁grenzüberschrei	-10.3069
poli	-10.3072
▁Mittelmeer	-10.3077
kapital	-10.3086
▁Comp	-10.3088
▁Wahrheit	-10.3088
▁Pflanzen	-10.3092
▁Eltern	-10.3098
▁vorgeschlagenen	-10.3101
jenige	-10.3102
gesellschaftlich	-10.3102
pal	-10.3108
▁Geschäft	-10.3109
abel	-10.3111
▁fällt	-10.3111
ado	-10.3115
▁dauerhaft	-10.3115
▁dürfte	-10.3117
▁abgestimmt	-10.3119
36	-10.312
▁seitens	-10.3122
tzt	-10.3131
▁guter	-10.3131
▁Mitgliedern	-10.3139
▁Stern	-10.3142
▁Internationalen	-10.3142
ura	-10.3149
gebiete	-10.3149
▁Mitteln	-10.3153
▁Schau	-10.3153
AD	-10.3158
▁weg	-10.3158
▁gefördert	-10.3159
▁Unterschiede	-10.316
▁Aufgrund	-10.316
Veröffentlichung	-10.3161
pä	-10.3165
▁langen	-10.3165
PA	-10.3166
▁langsam	-10.3168
▁erhältlich	-10.3168
▁Gründung	-10.3174
▁Weiß	-10.3175
▁produziert	-10.318
opp	-10.318
▁Morgen	-10.3181
▁Ferienwohnung	-10.3181
▁Open	-10.3183
▁Studio	-10.3185
▁ließ	-10.3186
▁interessant	-10.3187
▁beschränkt	-10.3195
ical	-10.3197
Adresse	-10.32
begriff	-10.3205
65	-10.3207
book	-10.3214
▁Verbot	-10.3215
▁Betracht	-10.3218
La	-10.322
▁Fel	-10.3226
▁Methoden	-10.3227
▁Fitness	-10.3233
▁höchsten	-10.3234
▁Fan	-10.3236
geschlossen	-10.3239
▁willkommen	-10.3245
schloss	-10.3246
ffen	-10.326
▁Grand	-10.3267
block	-10.3268
▁Religion	-10.3274
▁Mac	-10.3277
▁renoviert	-10.3285
▁siehe	-10.3286
▁Fälle	-10.329
▁Haftung	-10.3293
▁angeht	-10.3297
▁Bedrohung	-10.3299
▁besch	-10.3299
▁ländlichen	-10.3302
▁leiden	-10.3302
▁attraktiv	-10.3306
▁Vater	-10.3307
▁1997	-10.3307
▁Prozesse	-10.3309
▁behandeln	-10.3311
▁Einklang	-10.3312
▁Appartement	-10.3314
▁Anliegen	-10.332
▁ausführlich	-10.3322
▁reicht	-10.3323
▁tut	-10.3326
▁berechtigt	-10.3328
▁Freizeit	-10.3332
▁diesbezüglich	-10.3333
▁Schweden	-10.3334
▁Code	-10.3336
▁Jugendliche	-10.334
▁sorgt	-10.3342
▁medizinische	-10.3344
niveau	-10.3353
▁begonnen	-10.3357
▁verlieren	-10.3357
▁Fluss	-10.3359
▁Cu	-10.3364
fisch	-10.3367
entwurf	-10.3371
▁para	-10.3371
▁vielmehr	-10.3374
▁reichen	-10.3375
▁Gleichgewicht	-10.3378
kommt	-10.3379
amerikanische	-10.3381
Rechtsvorschrift	-10.3381
ato	-10.3387
taten	-10.3388
▁Anbieter	-10.339
▁hervorragend	-10.3391
werfen	-10.3392
var	-10.3392
89	-10.3399
oli	-10.34
▁Kommunikations	-10.3402
▁Klasse	-10.3403
▁Agenda	-10.3404
▁Bucht	-10.3404
gemeinschaft	-10.3407
▁Umständen	-10.3409
west	-10.3413
▁Stunde	-10.3418
▁Kein	-10.3419
33	-10.3421
Ro	-10.3423
▁Original	-10.3427
gress	-10.343
▁Kaffee	-10.3431
▁sicherstellen	-10.3432
bat	-10.3433
▁Genau	-10.3442
▁DVD	-10.3447
▁bereitgestellt	-10.3452
▁nochmals	-10.3454
▁Rumänien	-10.3458
▁zustimmen	-10.3459
anische	-10.3461
▁betreffen	-10.3464
ham	-10.3466
Berücksichtigung	-10.3466
▁Update	-10.347
▁Eisenbahn	-10.347
▁Symbol	-10.347
▁kontextuell	-10.3472
▁Mein	-10.3473
▁Fischer	-10.3475
geschrieben	-10.3476
▁Erzeugnisse	-10.3476
schwarz	-10.3478
hat	-10.3478
▁führenden	-10.3479
▁My	-10.3488
▁breit	-10.3488
datei	-10.349
MO	-10.3491
ated	-10.3507
Bahn	-10.3512
ück	-10.3512
lic	-10.3514
▁ehemaligen	-10.3516
suche	-10.3519
pool	-10.3521
▁schließen	-10.3524
▁Voraussetzung	-10.3526
▁ri	-10.3527
IL	-10.3532
▁Inseln	-10.3533
code	-10.3533
▁Versorgung	-10.3535
▁Empfehlung	-10.3536
▁Kollege	-10.3537
▁konstruktiv	-10.3537
▁Blut	-10.354
▁staff	-10.3541
▁rec	-10.3542
wähl	-10.3546
06	-10.3548
▁Real	-10.355
situation	-10.3559
▁Angebote	-10.3565
▁geringer	-10.3566
▁türkische	-10.3567
deutsch	-10.357
teuer	-10.357
▁Theater	-10.3571
▁ergriffen	-10.3571
▁berühmten	-10.3572
▁Strukturfonds	-10.3574
▁umgeben	-10.3575
▁Ziffer	-10.3575
▁Glück	-10.3576
▁Veranstaltungen	-10.3577
▁beschrieben	-10.3583
austausch	-10.3587
96	-10.3589
▁wiederum	-10.359
97	-10.3591
▁Gästen	-10.3599
stätte	-10.3601
▁Bedenken	-10.3602
▁zuverlässig	-10.3603
▁Bildungs	-10.3603
dri	-10.3603
▁beliebig	-10.3605
▁Dort	-10.3606
▁landwirtschaft	-10.3607
▁City	-10.3608
▁eventuell	-10.3609
▁Kilometer	-10.3611
▁Verfügbarkeit	-10.3611
▁Nachrichten	-10.3613
▁Dadurch	-10.362
pat	-10.3626
wünsche	-10.363
▁Redner	-10.363
▁griechische	-10.363
▁vieler	-10.3635
▁Neue	-10.3636
▁Apartments	-10.3637
lam	-10.3639
▁flexible	-10.3642
geräte	-10.3644
▁Regulierung	-10.3644
▁bedarf	-10.3645
automat	-10.3645
▁genauso	-10.3646
▁derzeitigen	-10.3647
▁Mode	-10.3648
▁Massen	-10.3656
▁Grenze	-10.3656
▁Mat	-10.3656
▁erhielt	-10.3658
▁Mass	-10.366
▁35	-10.3661
▁Aussage	-10.3663
GE	-10.367
▁Ei	-10.3672
▁befassen	-10.3673
lanz	-10.3674
▁Verhandlungs	-10.3676
▁Perspektive	-10.3676
▁Mari	-10.3677
▁ziemlich	-10.3678
▁Schäden	-10.3679
▁Kunde	-10.368
▁entspannen	-10.368
64	-10.3681
▁Mikro	-10.3687
▁größer	-10.3691
à	-10.3692
▁Sanktionen	-10.3701
schritt	-10.3702
▁nahm	-10.3708
▁but	-10.371
▁vorgenommen	-10.3716
lektr	-10.3718
check	-10.3723
verbindung	-10.3732
34	-10.374
▁Zins	-10.3743
ita	-10.375
bü	-10.3751
führt	-10.3753
▁verlangt	-10.3756
▁grüne	-10.3761
▁Werbe	-10.3762
37	-10.3769
▁Vielleicht	-10.3777
▁Viel	-10.3779
▁Haushaltsplan	-10.3779
center	-10.3784
iziert	-10.3786
▁erneuerbare	-10.3793
38	-10.3794
▁südlich	-10.3795
▁menschliche	-10.3799
▁teilen	-10.3802
wal	-10.3805
▁Identität	-10.3806
▁Kranken	-10.3808
▁Übernachtung	-10.3812
wehr	-10.3814
ola	-10.3816
spezifisch	-10.3817
▁Badezimmer	-10.3828
regelung	-10.3831
▁Ph	-10.3834
▁wiederholt	-10.3834
ón	-10.3838
ierenden	-10.3841
▁amerikanische	-10.3848
▁dynamisch	-10.3848
▁Menü	-10.3852
▁Fläche	-10.3856
▁Institut	-10.3861
▁Handeln	-10.3864
▁Schlafzimmer	-10.3865
drückt	-10.3865
▁Eigenschaften	-10.3867
▁positiven	-10.3867
Pro	-10.3869
▁gespeichert	-10.3871
▁bestehende	-10.3875
dreh	-10.3876
kräftig	-10.3877
kunft	-10.3879
▁Mir	-10.3879
▁schafft	-10.3879
ifiziert	-10.3884
lock	-10.3885
▁Maßnahme	-10.3889
graf	-10.3894
▁Asien	-10.3895
▁Beiträge	-10.3896
▁lautet	-10.3896
dokument	-10.3898
▁verlangen	-10.3899
▁läuft	-10.3904
▁bemüht	-10.3908
▁trotzdem	-10.392
leute	-10.3921
östlich	-10.3924
luft	-10.3927
▁Erwachsene	-10.3932
verwaltung	-10.3932
▁Jung	-10.3935
VI	-10.3936
liegende	-10.3938
▁Küste	-10.3941
▁Verein	-10.3942
pla	-10.3942
▁entlang	-10.3942
gno	-10.3947
▁schlimm	-10.3951
▁Microsoft	-10.3953
ativen	-10.3959
▁zer	-10.396
▁traditionelle	-10.3962
rseits	-10.397
▁Tauch	-10.3971
▁qualifiziert	-10.3974
▁Dauer	-10.3985
abend	-10.3986
▁Geschäfte	-10.3989
regulier	-10.3994
▁zählt	-10.3995
▁Hände	-10.3996
▁herunter	-10.4
▁bezieht	-10.4
▁Allgemeinen	-10.4007
wald	-10.401
▁Gestaltung	-10.4011
ierbar	-10.4012
▁gestern	-10.4012
▁Lieferung	-10.4016
▁liefern	-10.4018
▁sonstige	-10.4023
▁Leitlinien	-10.4023
▁irische	-10.4026
▁van	-10.4029
version	-10.4031
liefer	-10.4031
▁Ausstattung	-10.4032
16	-10.4032
aufnahme	-10.4035
Vi	-10.4036
▁Vermittlung	-10.4039
▁Institution	-10.4039
▁britische	-10.404
▁anti	-10.4047
institutionellen	-10.4048
maschine	-10.4048
▁Kreditkarte	-10.4049
ME	-10.4051
▁Essen	-10.4052
▁Dafür	-10.4053
▁Kreis	-10.4056
dischen	-10.4057
design	-10.4057
▁spät	-10.406
▁Bahn	-10.4061
▁kompliziert	-10.4063
▁Tatsächlich	-10.4065
▁Pool	-10.4066
▁Top	-10.4072
▁Google	-10.4075
▁gewährt	-10.4086
▁hoher	-10.4087
▁Zusatz	-10.4091
▁besucht	-10.4091
95	-10.4094
49	-10.4097
schneid	-10.4097
skonferenz	-10.4106
▁verschieden	-10.4112
▁deiner	-10.4117
▁Sub	-10.4118
▁Wohlstand	-10.4121
▁konkreten	-10.4126
▁Sand	-10.4129
▁außergewöhnlich	-10.4132
▁Schwarz	-10.4132
▁Dom	-10.4134
▁Frist	-10.4138
24	-10.4138
back	-10.4139
▁Casino	-10.415
▁Forum	-10.4155
▁Ir	-10.4155
ney	-10.4157
Ab	-10.4162
▁sichern	-10.4163
sieht	-10.4166
▁erzeugt	-10.4169
▁Praktik	-10.4174
▁italienischen	-10.4176
▁senden	-10.4177
ierende	-10.4178
▁sub	-10.4183
▁Umweltschutz	-10.4183
▁Genehmigung	-10.4187
39	-10.4191
▁Provinz	-10.4191
schreib	-10.4192
lad	-10.4192
▁beträgt	-10.4202
hne	-10.4204
ökonom	-10.4206
Schlussfolgerung	-10.4208
viel	-10.4208
▁Dach	-10.4212
phase	-10.4214
▁Ferner	-10.4218
▁Gebühr	-10.4235
▁Güter	-10.4238
▁Kandidat	-10.4239
beauftragte	-10.424
▁Bill	-10.424
▁Erwartungen	-10.425
▁ausgerichtet	-10.4252
rühr	-10.4253
▁Wirklichkeit	-10.4255
IE	-10.4266
▁Führer	-10.4267
gewalt	-10.4268
▁mu	-10.4269
Beifall	-10.4271
55	-10.4275
▁Mark	-10.4281
▁Studenten	-10.4282
▁Temperatur	-10.4286
▁Flüchtlinge	-10.4293
▁inzwischen	-10.4301
▁staatliche	-10.4307
▁kurzem	-10.4316
85	-10.4318
▁Frankfurt	-10.4318
▁entschlossen	-10.4319
▁Grad	-10.4325
▁entdecken	-10.4329
lohn	-10.4331
▁außen	-10.4334
▁Afghanistan	-10.4338
▁gebaut	-10.4343
▁Tool	-10.435
▁Hinter	-10.4353
▁Strategien	-10.4353
▁Strecke	-10.4356
▁Mittelpunkt	-10.4362
IR	-10.4362
NA	-10.4363
▁Harmonisierung	-10.4363
▁besitzen	-10.4369
▁umfassenden	-10.4369
▁can	-10.437
▁Herkunft	-10.4371
▁Miet	-10.4378
▁wenden	-10.4382
▁Stellung	-10.4384
▁Umgang	-10.4385
▁irgendeine	-10.4385
▁Ohne	-10.4389
schieden	-10.439
▁geschrieben	-10.439
gna	-10.4398
▁Materialien	-10.4399
Tra	-10.4402
▁Festlegung	-10.4404
▁wunderbar	-10.4405
▁zweifellos	-10.442
▁abgelehnt	-10.4424
mail	-10.4429
68	-10.4429
▁Details	-10.4432
▁Digital	-10.4435
▁beraten	-10.4436
▁öffnen	-10.4441
▁hilft	-10.4445
▁Dusche	-10.4446
streit	-10.4447
▁good	-10.4455
▁1996	-10.4459
nehmer	-10.4461
▁niemals	-10.4463
▁gültig	-10.4465
stil	-10.4469
fahrer	-10.447
liberal	-10.4472
antwort	-10.4478
trat	-10.4479
terie	-10.4479
▁Nahen	-10.4484
zuhalten	-10.4495
ump	-10.4497
ähn	-10.4499
▁sofern	-10.4501
▁Fehl	-10.4505
▁''	-10.4509
▁grundlegenden	-10.4512
▁Para	-10.4513
▁Ausmaß	-10.4521
▁geprüft	-10.4533
CA	-10.4533
▁Ausgangspunkt	-10.4539
▁durchzuführen	-10.4539
neu	-10.4542
▁Mc	-10.4546
▁beträchtlich	-10.4548
▁schönsten	-10.4553
▁Oberfläche	-10.4553
▁München	-10.4554
▁Costa	-10.4558
▁dr	-10.4558
pläne	-10.4558
▁Feuer	-10.4563
▁Mangel	-10.4564
▁Schloss	-10.4568
shop	-10.4569
▁Agrarpolitik	-10.4575
Lo	-10.4581
▁einerseits	-10.4585
avi	-10.4593
▁gelegt	-10.4593
▁Ambiente	-10.4594
▁weshalb	-10.4598
▁Erinnerung	-10.46
▁religiöse	-10.4603
▁englische	-10.4608
▁zuerst	-10.461
CD	-10.4612
▁Sicherung	-10.4616
▁Kommentar	-10.4618
▁fühlen	-10.4618
▁Live	-10.462
▁Tief	-10.4623
▁Übereinstimmung	-10.4629
▁my	-10.4631
schrieb	-10.4631
▁Marketing	-10.4647
▁umzusetzen	-10.4648
▁Kann	-10.465
▁geehrte	-10.4655
▁amtierende	-10.4666
▁französische	-10.4666
kontroll	-10.4667
▁Blog	-10.467
▁verändern	-10.4673
ifizierung	-10.4678
▁Ol	-10.4692
▁Eingang	-10.4695
▁Bauern	-10.47
▁Kontext	-10.47
lot	-10.4704
cro	-10.4705
▁behindert	-10.4711
▁gerichtet	-10.4712
The	-10.4716
»	-10.4725
▁Küsten	-10.4726
ektion	-10.4732
phi	-10.4733
rop	-10.4735
körper	-10.4737
iff	-10.4738
▁German	-10.4738
ary	-10.4746
▁führende	-10.4746
ama	-10.4748
▁lebt	-10.4752
▁Fern	-10.4754
▁keiner	-10.4755
▁technologische	-10.4761
▁Center	-10.4761
▁fehlt	-10.4762
▁Schä	-10.4765
waffen	-10.4766
▁sichtbar	-10.4767
▁Wal	-10.4773
▁spanischen	-10.4773
▁Häuser	-10.4774
zukommen	-10.4774
lieferung	-10.478
▁neuesten	-10.4781
media	-10.4781
TO	-10.4782
▁erreichbar	-10.4787
▁Balkon	-10.4787
kret	-10.4788
▁Ben	-10.479
cur	-10.479
▁richten	-10.4791
▁Wähler	-10.4791
Wir	-10.4797
fonds	-10.4798
▁Andere	-10.48
▁reden	-10.4802
▁Getränk	-10.4803
ough	-10.4805
▁Front	-10.4806
▁Viertel	-10.481
▁Stärke	-10.4812
▁entdeckt	-10.4816
▁verhindert	-10.4823
zöge	-10.4825
▁Av	-10.4827
restaurant	-10.4827
▁Konsens	-10.4831
dium	-10.4833
▁Angst	-10.4834
▁Geschlecht	-10.4834
fragt	-10.4835
table	-10.4836
▁Stahl	-10.4843
▁heutige	-10.4844
EA	-10.4848
▁dieselbe	-10.4859
▁Normen	-10.4859
▁Ehre	-10.4861
▁Stock	-10.4861
▁Kapazität	-10.4863
▁anwesend	-10.4864
▁menschlichen	-10.4865
▁bekämpfen	-10.4877
▁verkauft	-10.4877
zubringen	-10.4881
▁gesunde	-10.4882
▁aufzunehmen	-10.4885
▁Beziehung	-10.4888
▁Sauna	-10.4888
▁Brenn	-10.4889
▁Ausgabe	-10.4891
▁mod	-10.4895
▁NATO	-10.4895
lassung	-10.4898
▁Vision	-10.4898
▁Event	-10.4899
▁Gerät	-10.4904
▁detailliert	-10.4904
▁Audio	-10.4907
gre	-10.4911
▁erinnert	-10.4913
PT	-10.4917
▁Bord	-10.4918
▁unterzeichnet	-10.4923
flo	-10.4923
▁Verantwortlich	-10.4927
▁Konsum	-10.4928
▁erlebt	-10.4928
23	-10.4928
▁Pol	-10.4929
▁verbreitet	-10.493
▁Schönheit	-10.4934
▁Reservierung	-10.4936
▁rot	-10.494
raub	-10.4946
▁Radio	-10.4951
▁Mobilität	-10.4952
▁starten	-10.4955
▁Deck	-10.4956
▁ausgeführt	-10.4958
▁ausgesprochen	-10.4959
▁Vorgehen	-10.4961
team	-10.4962
▁anstatt	-10.4966
▁erlauben	-10.4966
personal	-10.4967
Emissionen	-10.4969
▁Free	-10.497
strecke	-10.4972
▁anschließend	-10.4974
▁Besorgnis	-10.4986
▁Anfragen	-10.4987
gesehen	-10.4988
▁fein	-10.4988
▁Sein	-10.4989
▁trifft	-10.4992
▁unmöglich	-10.4993
onym	-10.4993
anzeige	-10.4994
DI	-10.4996
▁BIP	-10.4996
▁Marke	-10.4997
▁passiert	-10.4998
So	-10.5
▁Schatten	-10.5
▁Widerstand	-10.5007
tau	-10.5014
▁spezialisiert	-10.5014
▁Plenum	-10.5016
äum	-10.5017
▁Zusätzlich	-10.5023
▁verurteilt	-10.5023
▁ungefähr	-10.5026
▁Renn	-10.5028
▁Beschlüsse	-10.503
institutionelle	-10.5032
IG	-10.5034
▁gewonnen	-10.5041
▁Browser	-10.5042
86	-10.5048
col	-10.505
spiegel	-10.5051
▁riesigen	-10.5051
▁Burg	-10.5052
▁finanziert	-10.5053
▁begrüßt	-10.5057
▁verdient	-10.5057
HO	-10.5063
▁Früh	-10.5068
▁Hor	-10.5069
flu	-10.507
▁Aktien	-10.507
▁UNO	-10.507
▁Vermögen	-10.5071
▁reduziert	-10.5071
2)	-10.5073
▁geprägt	-10.5076
▁übernimmt	-10.5078
▁ausgeschlossen	-10.5078
▁Beruf	-10.5079
▁Kapitel	-10.5083
name	-10.5084
▁gratulieren	-10.5091
▁Geschmack	-10.5092
▁Glauben	-10.5097
▁Kongress	-10.5098
▁Opposition	-10.5102
▁Automobil	-10.5107
▁Verarbeitung	-10.5111
▁letzter	-10.5118
krise	-10.5121
▁Cal	-10.5122
▁Umfeld	-10.5124
▁Also	-10.5128
kra	-10.513
upp	-10.5131
bb	-10.5139
▁Milch	-10.5142
▁geboren	-10.5143
basierte	-10.5151
logisch	-10.5151
▁konzentriert	-10.5152
wünscht	-10.5152
▁uneingeschränkt	-10.5159
▁Pension	-10.5162
▁Schüler	-10.5164
▁Ban	-10.5167
▁angesehen	-10.5171
▁Elektro	-10.5173
europa	-10.5176
lehr	-10.5177
▁Bearbeitung	-10.5183
Projekt	-10.5185
▁sehe	-10.5187
▁ausgesetzt	-10.5187
▁aufgefordert	-10.519
▁Bay	-10.5191
▁soweit	-10.5192
▁Poli	-10.5194
view	-10.5198
ally	-10.5199
▁auftreten	-10.5203
▁Drittländern	-10.5203
▁buchen	-10.5204
▁fordere	-10.5206
▁Martin	-10.5208
▁Trend	-10.5208
▁zugunsten	-10.521
▁your	-10.5218
▁Beach	-10.5221
▁Fleisch	-10.5225
norm	-10.5232
uv	-10.5233
▁umfassend	-10.5233
▁verschiedener	-10.5234
▁massiv	-10.5234
▁Tele	-10.5234
▁hervorheben	-10.5238
gni	-10.5239
▁Verringerung	-10.5241
verletzung	-10.5248
88	-10.5251
▁bezug	-10.5254
▁Anreiz	-10.5255
▁Autobahn	-10.5256
Tech	-10.5257
▁annehmen	-10.5258
▁Urteil	-10.5258
▁Noch	-10.526
▁kostet	-10.5262
▁Dra	-10.527
44	-10.527
träglich	-10.5274
▁(19	-10.5275
Strategie	-10.5276
▁verstanden	-10.5284
▁Schuld	-10.5287
option	-10.5287
▁herrscht	-10.529
▁Kohle	-10.5292
▁unverzüglich	-10.5293
geld	-10.5294
▁beruht	-10.5295
dorf	-10.5296
▁Max	-10.5301
▁Gepäck	-10.5304
▁durchführen	-10.5306
temp	-10.5307
▁eigen	-10.531
▁Öko	-10.5311
▁Farbe	-10.5316
▁Zuge	-10.5318
▁bezahlen	-10.532
▁ehrgeizig	-10.5321
▁vorbereitet	-10.5328
▁qualitativ	-10.533
▁Zeitung	-10.5335
▁Plattform	-10.5337
▁bestand	-10.534
▁nieder	-10.534
▁Dein	-10.5341
▁kurzfristig	-10.5342
sländer	-10.5343
leb	-10.5347
spräsident	-10.5347
card	-10.5349
schlüssel	-10.535
meldung	-10.5353
▁bestätigen	-10.5354
▁Training	-10.5354
▁Vol	-10.5358
▁existieren	-10.5361
▁Fahrt	-10.5362
▁zivil	-10.5364
effekt	-10.5365
▁location	-10.5366
IF	-10.5366
viertel	-10.5369
▁Gang	-10.5371
▁bestimmen	-10.5373
▁Will	-10.5374
messe	-10.5377
▁Ursprung	-10.5378
▁Kroatien	-10.538
▁Station	-10.5391
verhältnis	-10.5398
bon	-10.5403
werbe	-10.5405
▁beglückwünschen	-10.5406
abkommen	-10.541
▁sodass	-10.5411
▁medi	-10.5416
▁kontinuierlich	-10.5421
▁John	-10.543
▁Konzern	-10.543
▁Bulgarien	-10.5433
▁Strände	-10.5435
urlaub	-10.5437
▁Prinzipien	-10.5441
▁chinesischen	-10.5448
fällt	-10.545
▁Arbeitsplatz	-10.5451
▁Festival	-10.5452
▁Sonne	-10.5453
▁verbringen	-10.5464
▁Pra	-10.5466
gekommen	-10.5467
urteil	-10.5467
SL	-10.5468
▁Prag	-10.5471
▁hängt	-10.5481
▁Peter	-10.5485
▁liefert	-10.5486
▁Geschwindigkeit	-10.5495
▁Drittens	-10.5497
▁nachhaltigen	-10.5516
landschaft	-10.5516
fahr	-10.5519
▁Enterprise	-10.5519
cel	-10.5526
▁schwedische	-10.5534
▁parlamentarisch	-10.5538
▁Entlastung	-10.5541
▁Hä	-10.5543
▁Tim	-10.5544
▁Wichtig	-10.5546
▁Alb	-10.5547
▁Poker	-10.5551
konzept	-10.5553
▁Erlebnis	-10.5558
▁Detail	-10.5561
▁KMU	-10.5563
▁weitgehend	-10.5565
▁Paul	-10.557
▁serviert	-10.557
▁Tausende	-10.5574
schreiten	-10.5575
▁verringern	-10.5577
ible	-10.5579
geschichte	-10.5585
läufe	-10.5587
▁150	-10.5603
▁angepasst	-10.5604
▁kämpfen	-10.5608
▁letztlich	-10.5609
▁Inflation	-10.5609
▁verleihen	-10.5609
▁berufliche	-10.561
regen	-10.561
▁konsequent	-10.5619
Di	-10.5619
▁Anzeige	-10.5627
▁gezwungen	-10.5628
▁Mut	-10.5629
ausschuß	-10.5631
ji	-10.5633
▁freiwillig	-10.5637
▁Zusammenhalt	-10.5644
▁innere	-10.5645
▁Intervention	-10.5647
▁Einbeziehung	-10.5653
lav	-10.5654
▁Mandat	-10.5655
42	-10.5658
▁staatlichen	-10.5661
ografische	-10.5669
▁Unternehmer	-10.567
▁Ansprüche	-10.5672
▁kontrolliert	-10.5675
▁Spannung	-10.5682
assi	-10.5686
▁Konvent	-10.5687
▁Hohen	-10.5687
▁aktuell	-10.5689
▁Werbung	-10.5692
▁konkret	-10.5692
utsch	-10.5694
▁Gesicht	-10.5695
lebt	-10.5699
▁Räume	-10.57
▁Erfüllung	-10.5702
phon	-10.5703
äumt	-10.5703
verhalten	-10.5704
dar	-10.5708
prüfung	-10.5727
▁Statistik	-10.5734
auch	-10.5737
institut	-10.5739
▁geboten	-10.5739
brenn	-10.5741
▁entsteht	-10.5743
▁eingegangen	-10.5743
fluss	-10.5747
▁Konto	-10.5755
▁ersetzt	-10.5762
▁Verbreitung	-10.5771
nehmbar	-10.5771
▁gespielt	-10.5771
erklärung	-10.5771
quote	-10.5773
▁Rechtsgrundlage	-10.5774
ih	-10.5776
90	-10.5781
anti	-10.5782
▁stolz	-10.5788
▁erleichtern	-10.5791
Euro	-10.5791
▁anspruchsvoll	-10.5793
ional	-10.5794
zentren	-10.5796
▁aufnehmen	-10.5796
▁geäußert	-10.5798
▁Pläne	-10.5798
▁Hochschul	-10.58
▁Ticket	-10.58
▁Besonders	-10.5818
put	-10.5826
▁Gewährleistung	-10.5833
flüge	-10.5836
▁Sammlung	-10.5838
–	-10.5841
terra	-10.5841
▁ferner	-10.5842
▁Spar	-10.5845
▁ergänzen	-10.5848
Service	-10.5854
▁chemische	-10.5855
▁Leitung	-10.5856
durchschnittlich	-10.5856
▁Wechsel	-10.5859
▁Zypern	-10.586
▁Hof	-10.5866
abhängig	-10.5868
büro	-10.5869
▁Emp	-10.5869
▁Letzte	-10.5874
Ä	-10.5877
▁generell	-10.5878
▁Anwender	-10.5885
▁Korruption	-10.5888
▁Ankunft	-10.5892
▁nahezu	-10.5894
▁welchem	-10.5899
▁passende	-10.5905
utter	-10.5906
AU	-10.5909
familie	-10.5909
qual	-10.5914
▁Außenpolitik	-10.5914
▁berühmte	-10.5919
▁enger	-10.593
▁Bush	-10.5931
▁solange	-10.5934
▁Sha	-10.5937
▁hinzufügen	-10.594
▁Ungarn	-10.594
▁vorbei	-10.5941
▁Sound	-10.5941
▁Deswegen	-10.5953
fremd	-10.5959
bund	-10.5963
▁bemühen	-10.5965
▁Mel	-10.5968
bewegung	-10.597
▁Aktionsplan	-10.5971
UNG	-10.5974
▁Ehe	-10.5977
▁Oper	-10.5987
▁Angel	-10.5988
▁beendet	-10.5994
▁1995	-10.5999
▁industrielle	-10.6001
light	-10.6003
▁Registrierung	-10.6006
läufig	-10.6009
förder	-10.6014
▁verteilt	-10.6023
▁Öffnung	-10.6029
▁Balkan	-10.603
tschaftswachstum	-10.603
char	-10.6033
▁Brand	-10.6034
▁palästinensisch	-10.6038
▁Luxus	-10.6039
than	-10.6042
▁page	-10.6045
▁Phil	-10.6058
füh	-10.6063
▁vorlegen	-10.6063
▁knapp	-10.6072
Vor	-10.6076
://	-10.6083
▁Operation	-10.6083
▁getrennt	-10.6092
wel	-10.6098
beziehungen	-10.6108
▁geistige	-10.6109
turm	-10.6112
tausch	-10.6112
bedingt	-10.6114
Par	-10.6119
▁doppelt	-10.6121
▁Revolution	-10.6123
kämpft	-10.6126
ía	-10.6133
▁Nu	-10.6134
▁Bibliothek	-10.6136
▁Grafik	-10.6139
▁sah	-10.6143
▁Unterhaltung	-10.6143
▁Schengen	-10.6155
▁Renten	-10.6159
▁russischen	-10.616
▁Hamburg	-10.6164
▁Van	-10.6166
▁Himmel	-10.6172
▁2020	-10.6179
▁Einschränkung	-10.6182
▁wann	-10.6187
Distribution	-10.6187
▁Insbesondere	-10.6192
iro	-10.6193
▁Schalt	-10.6195
termin	-10.6202
▁Wild	-10.6208
67	-10.6209
bekannt	-10.6213
reicht	-10.6214
elf	-10.6214
▁Subsidiarität	-10.6216
▁Anschluss	-10.6217
▁WLAN	-10.6222
▁Kopie	-10.6224
▁Nummer	-10.6224
Länder	-10.6227
fänge	-10.6231
▁behalten	-10.6232
▁Ruf	-10.6232
▁Bücher	-10.6236
CC	-10.624
▁österreichische	-10.6242
▁Weltkrieg	-10.6242
pra	-10.6243
▁Betrag	-10.6244
▁niedriger	-10.6245
▁Kabel	-10.6246
▁Brasilien	-10.6247
▁Anmerkung	-10.6247
▁bilaterale	-10.6249
▁Wandel	-10.6252
LO	-10.6255
▁Auge	-10.6272
▁ordnungsgemäß	-10.6273
DR	-10.6285
▁organisieren	-10.6286
▁installieren	-10.6286
sstrategie	-10.6287
▁errichtet	-10.6289
▁Defizit	-10.6294
geist	-10.6306
▁multi	-10.6309
▁verbinden	-10.6309
▁Respekt	-10.6309
▁wiederholen	-10.6315
▁Rohstoff	-10.6317
▁Rö	-10.6318
▁bezahlt	-10.6321
▁Volkswirtschaft	-10.6322
▁beschäftigen	-10.6325
SI	-10.6327
▁Solar	-10.6327
▁offenbar	-10.6328
▁Kreuz	-10.6333
▁alternative	-10.6338
▁Übertragung	-10.6341
▁einzigartig	-10.6341
▁Fax	-10.6342
▁reduzieren	-10.6343
▁hell	-10.6344
▁Wett	-10.6344
▁verstärken	-10.6346
▁Vorhaben	-10.6352
trifft	-10.6356
▁Tabak	-10.6358
▁Import	-10.6359
▁Komponenten	-10.6361
▁nunmehr	-10.6364
43	-10.6366
blau	-10.6368
▁ansprechen	-10.6369
For	-10.6371
gast	-10.6371
}}	-10.638
▁Gegenstand	-10.6385
fertig	-10.6396
ici	-10.6397
21	-10.64
▁brachte	-10.6403
wohl	-10.6404
47	-10.6404
▁Kap	-10.6405
▁Bereitstellung	-10.6406
branche	-10.6412
▁Wissenschaftler	-10.6415
▁Versand	-10.6421
▁verkaufen	-10.6429
▁Terror	-10.6437
gäste	-10.6437
▁ehemalige	-10.644
▁Photo	-10.6447
▁Akteure	-10.6449
TER	-10.6453
▁vorherige	-10.6453
▁Schweizer	-10.6455
▁Gleichstellung	-10.6457
▁1990	-10.6461
OP	-10.6468
Produkt	-10.6478
▁jener	-10.6478
ima	-10.6479
para	-10.648
gewinn	-10.6487
lust	-10.6495
ström	-10.6498
▁just	-10.6501
▁Group	-10.6502
▁gefährdet	-10.6504
▁zerstört	-10.651
▁Back	-10.6512
boot	-10.6515
vision	-10.6519
▁Power	-10.6522
▁Ya	-10.653
load	-10.6533
kampf	-10.6535
menge	-10.6537
▁vorstellen	-10.6538
▁Mrd	-10.6538
▁Ausflüge	-10.654
▁Förder	-10.6547
41	-10.6548
speicher	-10.6552
▁Kenn	-10.6556
▁Darstellung	-10.6557
▁Traum	-10.6565
▁ISO	-10.6566
▁Verpackung	-10.6574
▁Panorama	-10.6579
▁letztendlich	-10.6579
▁Tarif	-10.658
▁Befugnisse	-10.6582
46	-10.6584
▁Weil	-10.6586
leiter	-10.6586
▁Rechnungshof	-10.659
Zu	-10.659
▁aussprechen	-10.6591
▁eure	-10.6593
▁Mitgliedschaft	-10.66
füllt	-10.6601
greif	-10.6604
▁schlägt	-10.6609
▁Würde	-10.6615
▁Verlauf	-10.6619
bleiben	-10.6621
▁Zucker	-10.6627
51	-10.6629
graph	-10.6631
▁Steuerung	-10.6632
▁Laut	-10.6633
▁Il	-10.6633
2010	-10.6633
▁Textil	-10.6634
▁Metall	-10.6637
▁erschien	-10.6642
▁angewandt	-10.6644
▁Fußball	-10.6645
gängig	-10.6652
▁Schlacht	-10.6653
▁Kopenhagen	-10.6654
▁großzügig	-10.6655
▁angelegt	-10.6656
▁Anstieg	-10.6656
▁Automat	-10.6657
▁Wetter	-10.6659
▁Haar	-10.666
▁Brief	-10.666
▁zugrunde	-10.6673
▁Journalist	-10.6673
klasse	-10.6675
▁Vorlage	-10.6676
lip	-10.6679
othek	-10.668
66	-10.6681
35	-10.6691
▁rechtzeitig	-10.6701
Mitglied	-10.6708
▁Spaß	-10.6714
▁Nachricht	-10.6718
▁miss	-10.6719
▁dargestellt	-10.672
läuft	-10.6722
▁äußern	-10.6725
▁Tochter	-10.6733
▁beigetragen	-10.6733
▁Abhängigkeit	-10.6739
bewusst	-10.6739
▁Versammlung	-10.674
▁Charta	-10.6743
▁Parti	-10.6743
22	-10.6744
▁Eurozone	-10.6746
▁Bur	-10.6748
▁Sicher	-10.6761
▁Freitag	-10.6763
▁Pop	-10.6764
▁Metro	-10.6771
nähe	-10.6772
beschreibung	-10.6776
▁Ernährung	-10.6779
▁Support	-10.6779
▁Profil	-10.6782
▁Cam	-10.6783
▁Card	-10.6788
serie	-10.6791
klick	-10.6791
tüm	-10.6798
▁Know	-10.6802
periode	-10.681
▁Alpen	-10.6811
▁Seminar	-10.6812
▁empfohlen	-10.6815
▁Sozialdemokrat	-10.6817
▁Meister	-10.6818
▁Block	-10.6821
▁Maus	-10.6828
▁Bern	-10.683
bedarf	-10.6831
▁vermitteln	-10.6832
▁Empfang	-10.6835
▁Staates	-10.6837
▁stammen	-10.6843
72	-10.6845
gewicht	-10.6845
rechnung	-10.685
▁hinweg	-10.6851
▁inklusive	-10.6859
gehoben	-10.6859
▁Chr	-10.686
SCH	-10.6861
▁400	-10.6861
blich	-10.6862
▁Bestell	-10.6865
▁Stu	-10.6867
▁Armee	-10.6869
▁Satz	-10.687
▁Erwägung	-10.6873
▁empfangen	-10.6873
strategie	-10.6874
▁beteiligen	-10.6881
▁Erstellung	-10.6882
▁Satelliten	-10.6884
▁Bestimmung	-10.6888
▁Reduzierung	-10.689
▁PHP	-10.6892
▁mobile	-10.6895
▁überprüft	-10.6895
78	-10.6897
rupp	-10.6897
prüf	-10.6898
▁Parkplatz	-10.6902
▁italienische	-10.6903
▁genügend	-10.6903
▁Oder	-10.6904
▁Tabelle	-10.6915
▁eingehalten	-10.6919
▁http	-10.692
▁Pack	-10.6922
▁Dreh	-10.6922
▁auseinander	-10.6925
▁Glaubwürdigkeit	-10.6931
▁schwach	-10.6931
stitu	-10.6932
bio	-10.6935
ffel	-10.6938
▁Santa	-10.6943
▁bislang	-10.6944
▁Potenzial	-10.6948
hersteller	-10.6957
bezogene	-10.6959
▁realistisch	-10.696
56	-10.6966
▁mündliche	-10.697
gefühl	-10.6973
agentur	-10.6974
▁Wochenende	-10.6975
plo	-10.6984
▁fuer	-10.6988
76	-10.6992
▁beobachten	-10.6992
▁Medizin	-10.6996
▁Apartment	-10.6997
▁gekennzeichnet	-10.7001
▁Leid	-10.7003
regel	-10.7003
▁Konsequenzen	-10.7004
▁Fünf	-10.7006
▁nachdrücklich	-10.7012
▁Madrid	-10.7018
gegriffen	-10.7024
▁erkannt	-10.7026
wettbewerbsfähig	-10.7027
▁verboten	-10.703
▁Amerikaner	-10.7049
▁Beschränkung	-10.7063
▁vorrangig	-10.7063
zusammenarbeiten	-10.7066
ova	-10.7066
▁investieren	-10.7077
sendung	-10.7077
wächst	-10.7084
▁aktivieren	-10.7088
II	-10.7093
▁Entspannung	-10.7093
▁pour	-10.7095
▁Belgien	-10.7099
USS	-10.7102
▁separat	-10.7102
terrasse	-10.7102
▁Veränderung	-10.7109
kunde	-10.7109
▁physi	-10.7111
▁Börse	-10.7114
gibt	-10.7122
FA	-10.7127
ül	-10.7129
▁Anlass	-10.7134
▁anbelangt	-10.7136
▁verteidigen	-10.7136
▁existiert	-10.7136
▁Überlegungen	-10.7136
▁Willkommen	-10.7138
kapazität	-10.7139
▁sexuelle	-10.7139
▁Abfall	-10.714
sache	-10.7142
zellen	-10.7143
▁Finanzkrise	-10.7144
▁Donnerstag	-10.7147
▁verbindet	-10.7147
uel	-10.7148
▁Pap	-10.715
▁Käufer	-10.715
▁weist	-10.715
▁AKP	-10.715
EX	-10.7154
▁allzu	-10.7155
▁potenziell	-10.7159
grenze	-10.7161
▁moralisch	-10.7162
schieben	-10.7163
▁2011	-10.7166
▁gestattet	-10.7167
2000	-10.7174
▁Kra	-10.7174
Server	-10.7176
▁Summe	-10.7182
▁Darum	-10.7186
▁Email	-10.7193
charakter	-10.7193
▁Arzneimittel	-10.7193
▁Sohn	-10.7196
garten	-10.7206
▁polnische	-10.721
sieg	-10.7221
▁beantworten	-10.7222
ographische	-10.7225
▁Parameter	-10.7228
▁EADS	-10.723
▁Konsultation	-10.7233
round	-10.7236
▁israelische	-10.7239
weiß	-10.7242
zog	-10.7242
SV	-10.7245
pression	-10.7247
stig	-10.7249
▁Begleit	-10.7251
▁Wall	-10.7252
▁Wiederaufbau	-10.7256
▁Widerspruch	-10.7256
▁Schon	-10.7257
▁gezielt	-10.726
▁Hügel	-10.7261
▁Verteilung	-10.7266
▁Resort	-10.7267
▁Zeug	-10.7268
▁systematisch	-10.727
▁Pakistan	-10.7279
▁dauert	-10.7287
▁Kollegin	-10.7288
lect	-10.7289
▁Reinigung	-10.729
▁had	-10.7296
▁untersucht	-10.7301
▁inmitten	-10.7303
▁relevant	-10.7304
üll	-10.7313
hard	-10.7317
ländische	-10.7321
grenzt	-10.7323
zweifel	-10.7327
gemäß	-10.7329
▁Plätze	-10.7331
NO	-10.7334
lagerung	-10.7335
▁Belastung	-10.734
▁Augenblick	-10.7341
▁Pferd	-10.7344
71	-10.7347
▁betreiben	-10.7358
▁Klar	-10.7359
▁super	-10.7359
▁Übrigen	-10.7362
▁Gerechtigkeit	-10.7365
Daten	-10.7369
▁You	-10.7371
▁präzise	-10.7371
▁bewährt	-10.7374
schlüsse	-10.7376
amerika	-10.7378
▁blieb	-10.7379
greift	-10.7383
geschnitten	-10.7384
ohn	-10.7386
▁nett	-10.7389
▁Migration	-10.7391
▁Festplatte	-10.7392
▁Mängel	-10.7397
▁berichtet	-10.7398
▁Gerade	-10.7403
▁wohnen	-10.7409
dienstleistungen	-10.741
▁Sonntag	-10.7412
▁Bekannt	-10.7421
▁Beschwerde	-10.7426
▁erstmals	-10.7427
▁vorzulegen	-10.7431
übergreifend	-10.7432
▁behaupten	-10.7435
▁gelingt	-10.7436
kundig	-10.7438
▁Flüge	-10.744
▁Prüf	-10.7442
▁Verzögerung	-10.7444
▁EZB	-10.7444
schreibung	-10.7457
▁nördlich	-10.7459
▁Trotzdem	-10.746
▁Saison	-10.7467
▁Brücke	-10.7469
MI	-10.7469
▁vous	-10.747
▁betrieben	-10.7475
▁ethnische	-10.7479
▁konfrontiert	-10.7485
69	-10.7487
▁Allianz	-10.7488
▁ersetzen	-10.7493
▁fördert	-10.7493
▁unterscheiden	-10.7497
▁Kanada	-10.7506
▁kreativ	-10.7506
▁Länge	-10.7506
87	-10.7508
EU	-10.751
▁aufgebaut	-10.7512
▁Schlag	-10.7516
▁Planeten	-10.7518
▁steigende	-10.7519
▁Existenz	-10.7523
ador	-10.7524
77	-10.7526
▁Stamm	-10.7533
▁ländliche	-10.7533
▁Ablehnung	-10.7541
geschickt	-10.7541
52	-10.7542
losigkeit	-10.7542
▁bekommt	-10.7542
Seite	-10.7543
tory	-10.7544
79	-10.7545
schalten	-10.7549
▁Katalog	-10.755
grün	-10.7553
▁engagiert	-10.7553
▁Wählen	-10.7556
runde	-10.7557
kunst	-10.7559
▁Luxemburg	-10.7565
▁Maria	-10.757
▁breakfast	-10.7573
▁heran	-10.7573
▁Gottes	-10.7582
▁Strasse	-10.7582
▁Gehminuten	-10.7582
▁Unterkünfte	-10.7584
▁dahin	-10.7586
▁erwähnen	-10.7588
bekämpfung	-10.7593
rock	-10.7593
▁Game	-10.7595
▁vorgestellt	-10.7597
▁Handy	-10.7597
▁geraten	-10.7602
▁unterliegen	-10.7604
▁einbezogen	-10.7626
▁richtet	-10.7628
▁Rückkehr	-10.7632
▁begleitet	-10.7633
▁Vizepräsident	-10.7633
▁fehlende	-10.7636
▁könnt	-10.7637
Über	-10.764
▁versichern	-10.7642
▁hierbei	-10.7647
▁gründlich	-10.7651
geschlagen	-10.7653
züglich	-10.766
▁Nein	-10.7671
▁arabische	-10.7672
▁biologische	-10.7672
▁registriert	-10.7675
▁unterstreichen	-10.7678
▁hervorgehoben	-10.7678
▁Dol	-10.7684
konferenz	-10.7687
regierung	-10.7691
Inter	-10.7691
▁Vorausschau	-10.7693
▁Heizung	-10.7693
treue	-10.7695
beruf	-10.7696
Version	-10.7696
▁herum	-10.7699
wärts	-10.7705
möglich	-10.7707
▁deswegen	-10.7711
▁langjährige	-10.7713
▁solide	-10.7721
Vertrag	-10.7722
▁Premierminister	-10.7729
gelegen	-10.7738
▁Alltag	-10.7738
Bericht	-10.774
▁Massage	-10.7742
▁Schnell	-10.7743
▁Herbst	-10.7744
▁Feier	-10.7745
▁Seele	-10.7759
▁Bereitschaft	-10.7762
▁Wartung	-10.7764
▁Cro	-10.7765
zauber	-10.7768
max	-10.7772
▁kontaktieren	-10.7774
▁Wälder	-10.7774
chel	-10.7776
▁Regierungschefs	-10.7783
54	-10.7784
▁Sind	-10.7791
▁Stiftung	-10.7795
itar	-10.7796
Frühstücksbuffet	-10.7798
box	-10.7799
▁Freizügigkeit	-10.7801
▁erhoben	-10.7807
▁unzureichend	-10.7813
▁Umsatz	-10.7815
▁Stufe	-10.7818
AV	-10.7822
Ex	-10.7828
arisch	-10.7828
▁bisherigen	-10.7829
▁Baby	-10.783
küste	-10.7833
▁Hundert	-10.7835
software	-10.7838
[	-10.7838
▁Islam	-10.7844
ION	-10.7847
▁Michael	-10.7853
▁Gefängnis	-10.7856
▁stammt	-10.7856
▁dé	-10.7859
▁kombiniert	-10.7862
82	-10.7863
▁diverse	-10.7863
initiative	-10.7865
▁Geburt	-10.7868
▁anschließen	-10.7871
▁Genießen	-10.7871
▁Trag	-10.7872
▁Erwerb	-10.7874
▁abstimmen	-10.7875
▁Bildschirm	-10.7881
▁Nachbarschaft	-10.7889
▁scheinen	-10.7892
▁chinesische	-10.7892
▁japanische	-10.7896
▁Kriminalität	-10.7905
▁Todes	-10.7908
▁geregelt	-10.7911
gestaltung	-10.7914
▁angewendet	-10.7914
lenk	-10.7914
▁Passwort	-10.7914
▁luxuriöse	-10.7923
▁Entfernung	-10.7923
▁erfreut	-10.7923
▁Diplom	-10.7925
▁vorliegende	-10.7927
▁nord	-10.7933
▁ergibt	-10.7934
▁Abschaffung	-10.7934
▁momentan	-10.7938
▁kontrollieren	-10.7939
verantwortung	-10.7942
stabilität	-10.7942
TEN	-10.7943
▁Zone	-10.7946
▁Ideal	-10.7946
▁England	-10.7948
▁Hindernisse	-10.7954
▁which	-10.796
▁Großteil	-10.7962
▁still	-10.7963
bewußt	-10.7966
▁Fremdenverkehr	-10.7969
musik	-10.7972
▁technisch	-10.799
▁erteilt	-10.799
verständnis	-10.7991
Staaten	-10.7992
staatliche	-10.7992
reinigung	-10.7993
▁Verfasser	-10.7994
▁Vereinfachung	-10.7997
ermaßen	-10.8015
58	-10.8033
kro	-10.8033
▁dankbar	-10.8043
▁Pflege	-10.8043
59	-10.8051
▁Info	-10.8053
▁dramatisch	-10.8053
schütt	-10.8054
▁herunterladen	-10.8054
▁Nachhaltigkeit	-10.8056
▁verdienen	-10.8062
▁hingegen	-10.8064
▁personenbezogen	-10.8065
▁Obama	-10.8066
▁Eintritt	-10.807
57	-10.8071
73	-10.8072
▁aktualisiert	-10.8074
zusehen	-10.8076
▁Gegner	-10.8081
▁Hohe	-10.8082
Software	-10.8084
vorschriften	-10.8084
▁ergänzt	-10.8087
▁Qui	-10.8088
motor	-10.8095
▁Budget	-10.8096
▁Fertigung	-10.8099
▁festzulegen	-10.8101
▁Lobby	-10.8103
▁behoben	-10.8103
▁gefragt	-10.8103
geworfen	-10.8106
▁Show	-10.8107
▁Zell	-10.8107
▁Hardware	-10.8109
▁1994	-10.8109
▁House	-10.811
▁großartige	-10.811
ific	-10.8119
▁Abendessen	-10.812
▁Parkplätze	-10.812
▁Volksgesundheit	-10.8128
ergebnisse	-10.8129
▁gestärkt	-10.8131
▁anzuzeigen	-10.814
▁präsentieren	-10.814
▁Newsletter	-10.8149
▁gebeten	-10.8153
schuss	-10.8158
▁hilfreich	-10.8159
▁Verbrauch	-10.8161
pflege	-10.8162
▁Dokumentation	-10.8169
▁Oliven	-10.8178
▁Ausschüsse	-10.8183
▁läßt	-10.8184
▁Mach	-10.8184
▁angekündigt	-10.8187
▁Erhaltung	-10.8194
finanzierung	-10.8199
fenster	-10.8202
▁Schnee	-10.8203
front	-10.8205
▁Lohn	-10.8205
▁Ägypten	-10.8206
▁formuliert	-10.8206
▁Nov	-10.8206
▁gewähren	-10.8209
zufügen	-10.821
▁Fahrrad	-10.8215
▁Transaktion	-10.8223
▁Schlaf	-10.8224
▁beabsichtigt	-10.8225
www	-10.8225
▁zurückzuführen	-10.823
▁Motiv	-10.8233
▁beschränken	-10.8235
▁extra	-10.8235
▁produzieren	-10.8238
▁PDF	-10.8238
▁Wärme	-10.8241
▁befasst	-10.8248
Work	-10.8251
read	-10.8253
▁Konfiguration	-10.8254
▁Barroso	-10.8257
▁Höchst	-10.8263
▁eignet	-10.8263
▁Filter	-10.8269
▁froh	-10.8271
▁dans	-10.8278
trauen	-10.8281
▁Rü	-10.8286
81	-10.8287
▁Präsentation	-10.8288
platte	-10.8291
▁Java	-10.8292
Auf	-10.8293
▁legitim	-10.8298
erstattung	-10.83
▁ehrlich	-10.8301
Mitgliedstaaten	-10.8329
▁Beteiligten	-10.8333
▁verringert	-10.8336
▁Street	-10.834
lief	-10.8345
▁Karl	-10.8352
▁wonach	-10.8355
technische	-10.8359
▁Schulung	-10.8362
▁Fremd	-10.8365
▁Ausrüstung	-10.8371
▁Ratifizierung	-10.8372
behandlung	-10.8378
▁Album	-10.8387
rüstung	-10.8388
▁Straßburg	-10.8391
▁Rauch	-10.8393
▁besorgt	-10.8394
▁verletzt	-10.8397
ifikation	-10.8398
▁Media	-10.84
▁Plug	-10.8401
stärke	-10.8409
▁Investoren	-10.841
▁abschließend	-10.8417
▁geräumige	-10.8418
▁Betreiber	-10.842
▁erarbeitet	-10.843
▁Serbien	-10.8439
heil	-10.8439
▁reagiert	-10.8439
artikel	-10.8454
▁bewältigen	-10.8455
wanderung	-10.8456
▁Gewerkschaft	-10.8458
▁Mexiko	-10.8462
▁erfordern	-10.8462
schirm	-10.8462
▁Muster	-10.8464
bringung	-10.8472
28	-10.8472
▁nutzt	-10.8479
▁legal	-10.8482
zügig	-10.8487
▁mehrfach	-10.8498
Applikation	-10.8502
schaffung	-10.8505
LAN	-10.8506
▁Alkohol	-10.8507
▁normalerweise	-10.8509
ausgaben	-10.8517
sstaatlichkeit	-10.8523
▁Befehl	-10.8525
▁Mauer	-10.8527
▁clean	-10.853
▁verwende	-10.8534
ifizieren	-10.854
▁Kohäsion	-10.854
▁bedanken	-10.8546
▁plus	-10.8547
▁Produktivität	-10.8553
▁Tennis	-10.8554
zieh	-10.8558
▁Rechner	-10.8565
▁Formulierung	-10.8566
▁eingeschränkt	-10.8566
▁erweitern	-10.8566
▁koordiniert	-10.8569
▁Anmeldung	-10.8574
▁Innenstadt	-10.8574
▁mittlerweile	-10.8576
▁Erzeuger	-10.8577
▁speichern	-10.8582
▁Anreise	-10.8582
74	-10.8585
▁Benutzung	-10.8586
84	-10.8588
▁behauptet	-10.8589
▁vergleichbar	-10.8592
▁vereint	-10.8595
▁Nachteil	-10.8597
▁Komplex	-10.8599
▁Passagier	-10.8602
▁time	-10.8602
▁Modernisierung	-10.8605
▁Währungsunion	-10.8612
▁Transfer	-10.8614
▁unentgeltlich	-10.8615
▁Bezeichnung	-10.8619
faktor	-10.8622
gefertigt	-10.8624
haupt	-10.8627
▁beruhen	-10.8628
▁Protest	-10.8632
▁Internetseite	-10.8636
▁Datum	-10.8636
▁hoffentlich	-10.8644
▁Palästinenser	-10.8645
▁Geschenk	-10.8645
▁bedroht	-10.8651
▁überwinden	-10.8659
Schnittstelle	-10.8664
suite	-10.8664
kühl	-10.8664
▁Bestätigung	-10.8668
▁Fang	-10.8676
▁Johann	-10.8681
83	-10.8686
▁Betreuung	-10.8688
▁hierfür	-10.8693
gebäude	-10.8698
▁Betrug	-10.8703
▁Flor	-10.8703
versammlung	-10.8716
▁Dich	-10.872
▁laufenden	-10.872
▁Finnland	-10.8724
▁stattfindet	-10.8734
▁Publikum	-10.8744
ING	-10.8744
▁Phänomen	-10.8757
▁Lateinamerika	-10.8761
▁Museen	-10.8763
▁Konstruktion	-10.8767
▁Belarus	-10.8767
▁Möbel	-10.8767
▁antworten	-10.8771
republik	-10.8771
▁derzeitige	-10.878
source	-10.8781
Wirtschaftskrise	-10.8782
▁hast	-10.8784
26	-10.8787
▁Referenz	-10.8787
▁begründet	-10.8788
▁stay	-10.8792
höhe	-10.8797
▁Qual	-10.8797
▁älteste	-10.8798
verarbeitung	-10.8798
53	-10.8801
▁Lib	-10.8802
▁bauen	-10.8802
▁Poly	-10.8803
▁Feind	-10.8806
▁Route	-10.8816
▁tolle	-10.8821
▁Kaiser	-10.8821
2009	-10.8826
▁Petition	-10.8831
▁niederländische	-10.8841
Prozess	-10.8846
63	-10.8856
▁Global	-10.8857
bia	-10.8862
▁sichergestellt	-10.8864
▁spanische	-10.887
▁Ausblick	-10.8874
▁modernste	-10.8888
▁stilvoll	-10.8888
▁Arbeitgeber	-10.8889
▁Außenminister	-10.889
62	-10.8898
▁gedacht	-10.8899
▁Überblick	-10.8903
Install	-10.8905
gramm	-10.8908
aktivitäten	-10.8916
▁bewegt	-10.8917
▁Fuss	-10.8918
▁berechnet	-10.8919
▁selben	-10.8919
strom	-10.8923
▁Revision	-10.8925
fordert	-10.8936
▁Einwanderer	-10.8936
▁Beseitigung	-10.8942
▁Somit	-10.8947
ffnet	-10.8947
▁Song	-10.8948
erzeugnisse	-10.8954
▁Senkung	-10.8963
▁Persönlichkeit	-10.8963
▁Unterricht	-10.8965
▁Impuls	-10.8967
vertreter	-10.8973
▁portugiesische	-10.8976
Energieeffizienz	-10.8977
▁Jean	-10.898
▁Samstag	-10.8983
▁Drittel	-10.8989
▁russische	-10.8993
▁Händler	-10.8994
▁Übernahme	-10.8999
▁gewaltige	-10.9002
studie	-10.9004
verkauf	-10.901
▁selber	-10.9011
▁modified	-10.9014
▁Immer	-10.9019
▁erzeugen	-10.9023
▁angeblich	-10.9027
schüsse	-10.9028
▁süd	-10.9032
▁Mädchen	-10.9035
gehört	-10.9041
▁gleichermaßen	-10.9043
61	-10.9049
Fluggesellschaft	-10.9066
▁untersuchen	-10.9069
▁Osteuropa	-10.9077
transfer	-10.9081
▁Todesstrafe	-10.9083
▁Bühne	-10.9086
fertigung	-10.9096
▁spreche	-10.9098
▁Genf	-10.9104
wände	-10.9106
▁senken	-10.9108
▁geschätzt	-10.9111
kamera	-10.9112
geschwindigkeit	-10.9124
▁Richter	-10.9125
museum	-10.9127
ст	-10.9129
▁Pilot	-10.913
▁kompetent	-10.9138
▁gesichert	-10.9142
▁Café	-10.9145
leib	-10.9151
▁Flash	-10.9152
▁Andererseits	-10.9152
▁Ergänzung	-10.9155
leiste	-10.916
▁Visa	-10.9165
▁Hauptbahnhof	-10.9169
▁anzubieten	-10.9169
▁Tonnen	-10.9171
▁avec	-10.9173
▁Reserve	-10.9178
▁beeindruckende	-10.918
▁hielt	-10.918
Finde	-10.9184
▁offer	-10.9188
▁Emissions	-10.9188
▁ermutigen	-10.919
▁Allgemein	-10.919
▁einmalige	-10.9191
operation	-10.9194
▁Robert	-10.9202
▁Human	-10.9204
▁aufbauen	-10.9211
▁Schicksal	-10.9211
▁Bewusstsein	-10.9214
Bereich	-10.9216
▁mangelnde	-10.9229
▁Betriebssystem	-10.9231
städte	-10.9232
▁denjenigen	-10.9233
▁gepflegt	-10.9239
drängt	-10.9246
▁Vorgehensweise	-10.9247
▁radikal	-10.9249
anforderungen	-10.925
zulegen	-10.926
▁erstklassige	-10.927
verlust	-10.9275
▁Doppelzimmer	-10.9276
▁vereinbar	-10.9281
▁Französisch	-10.9281
schmerz	-10.9282
▁Finanzielle	-10.9292
▁PPE	-10.9295
zweig	-10.9302
▁Putin	-10.9306
▁Auseinandersetz	-10.9314
▁Bereits	-10.9323
▁gewöhnlich	-10.9334
▁örtliche	-10.9334
▁exzellente	-10.9337
▁beinhalten	-10.9342
händler	-10.9344
▁Vorbehalt	-10.9345
▁Mechanismen	-10.9348
modul	-10.9349
heilig	-10.9353
▁demokratisch	-10.9355
▁steigern	-10.9362
EIN	-10.9365
istik	-10.9366
▁gelangt	-10.9367
▁schätzen	-10.9368
▁Rock	-10.9374
kredit	-10.9376
Stunden	-10.9378
▁virtuelle	-10.938
▁freut	-10.938
gefügt	-10.9384
▁Norm	-10.9392
▁Telekommunikat	-10.9398
▁Extrem	-10.9401
▁Saint	-10.9402
▁Frühjahr	-10.9417
▁Umweltfragen	-10.9419
katastrophe	-10.9426
▁ungarische	-10.9431
▁Zauber	-10.9433
▁Beurteilung	-10.9433
verhältnisse	-10.9435
▁Eröffnung	-10.9437
▁künstlerische	-10.9449
▁kümmern	-10.9455
getriebe	-10.9456
▁erworben	-10.9458
Spiel	-10.9461
▁Nachmittag	-10.9462
▁enthalt	-10.9462
▁Abteilung	-10.9465
▁Ablauf	-10.9467
▁festzustellen	-10.9468
▁Tschechische	-10.9472
▁unnötig	-10.9472
▁Beachtung	-10.9473
▁III	-10.9475
▁Tru	-10.9477
▁egal	-10.9487
▁Mehrwertsteuer	-10.9491
▁vertrauen	-10.9496
reihe	-10.9499
▁Verwirklichung	-10.9505
▁strikt	-10.9505
asiatische	-10.9511
schön	-10.9512
fälsch	-10.9512
▁bevorzugt	-10.9512
ject	-10.9515
▁beeinflussen	-10.9516
▁Truppen	-10.9516
▁bloß	-10.9519
▁gründet	-10.9522
▁Wirksamkeit	-10.9526
▁Fassung	-10.9526
schreck	-10.9531
27	-10.9537
▁Dänemark	-10.9544
▁Jack	-10.9544
▁Anhörung	-10.9545
92	-10.9547
▁Füll	-10.9548
▁Errichtung	-10.9564
„	-10.9568
▁Theorie	-10.9569
▁Souveränität	-10.957
Kohäsionspolitik	-10.9577
oire	-10.9583
güter	-10.9586
▁Ungleichheit	-10.9591
▁juristische	-10.9591
▁intelligente	-10.9595
▁aktiviert	-10.9599
▁IWF	-10.9602
▁Verkehrsmittel	-10.9607
Sicherheitsrat	-10.9613
▁Sobald	-10.962
▁glaubt	-10.9624
▁realer	-10.9624
▁1992	-10.9625
▁oberste	-10.963
formular	-10.9635
▁gewidmet	-10.9635
▁Sym	-10.965
hafen	-10.965
town	-10.9655
▁vertraut	-10.9664
▁Konvention	-10.9667
▁Hans	-10.9673
5%	-10.9674
▁Zuverlässigkeit	-10.9682
▁Wolf	-10.9684
▁Vorrang	-10.969
▁Kunststoff	-10.9691
▁bedauerlich	-10.9693
▁arr	-10.9694
▁Minute	-10.9695
/2	-10.9698
Gruppe	-10.9699
▁DIE	-10.9704
▁Ostsee	-10.971
▁Wohnzimmer	-10.9711
▁oftmals	-10.9712
▁User	-10.9714
▁Kennzeichnung	-10.9716
▁Venedig	-10.9719
analyse	-10.9719
▁Mitentscheidung	-10.973
▁realisiert	-10.9734
▁schwerwiegend	-10.9737
▁ausüben	-10.9737
▁soeben	-10.9745
zutreten	-10.9746
mauer	-10.9751
▁Präsenz	-10.9752
▁Zeile	-10.9752
▁einstimmig	-10.9753
▁Ausarbeitung	-10.9756
▁wechseln	-10.9758
▁anzuwenden	-10.9758
▁finanzieren	-10.976
smitglieder	-10.9764
▁reichhaltig	-10.9767
▁schade	-10.9769
▁jedenfalls	-10.9775
▁Georgien	-10.9789
▁Berechnung	-10.9789
▁diplomatische	-10.9796
house	-10.9799
▁Resultat	-10.98
▁Konzentration	-10.9807
ographie	-10.981
▁Bewohner	-10.9812
▁Luftfahrt	-10.9817
▁Durchsetzung	-10.9822
▁müßte	-10.9823
litz	-10.983
opfer	-10.9831
▁vermittelt	-10.9831
▁glücklich	-10.9836
▁Spezialitäten	-10.9837
▁Auflösung	-10.9843
ressourcen	-10.9852
▁Hunger	-10.9874
flüssig	-10.9875
▁Urheberrecht	-10.9882
▁festlegen	-10.9883
kleidung	-10.9886
besser	-10.9886
▁Airport	-10.9889
KOM	-10.989
▁Äußerung	-10.9893
board	-10.9895
▁übermittelt	-10.9904
▁Philosophie	-10.9907
▁gesammelt	-10.9915
▁natur	-10.9918
geschoss	-10.9918
▁Empfänger	-10.9919
▁nice	-10.9919
▁nachhaltig	-10.9936
▁basierend	-10.9939
▁zeitlich	-10.9944
▁objektiv	-10.995
▁längst	-10.995
▁Lieferanten	-10.9966
▁Durchschnitt	-10.9968
▁JavaScript	-10.9968
▁Labor	-10.997
▁beantwortet	-10.9972
kammer	-10.9973
nachfolgend	-10.998
datum	-10.9982
▁unglaublich	-10.9983
werbung	-10.9986
▁great	-10.9987
▁Vertretung	-10.9991
inisterpräsident	-10.9991
svorschläge	-10.9994
gesundheit	-10.9994
▁einzelstaatlich	-10.9998
komplex	-11.0001
Benutzer	-11.0005
▁Ufer	-11.0014
2008	-11.0016
motiv	-11.0018
▁Taxi	-11.0021
▁plötzlich	-11.0025
▁dargelegt	-11.0027
▁Zwar	-11.0028
▁grundlegend	-11.003
▁Lokal	-11.0031
{	-11.0032
▁Dringlichkeit	-11.0032
▁Key	-11.0032
▁Steigerung	-11.004
▁Referendum	-11.0047
▁Ausweitung	-11.0051
lässt	-11.0053
▁Differenz	-11.0066
▁Jedoch	-11.007
▁Besonderheit	-11.0074
▁sammeln	-11.0085
illo	-11.0086
▁Dynamik	-11.0089
▁Zerstörung	-11.0093
stellbar	-11.0095
▁Konkurrenz	-11.0097
▁entfernen	-11.0097
▁helpful	-11.0101
▁Gewiss	-11.0101
künfte	-11.0102
▁Flughäfen	-11.0104
▁kennt	-11.0109
▁Florenz	-11.0116
Internetzugang	-11.0116
▁Galerie	-11.0117
▁beseitigen	-11.0117
▁Müll	-11.0119
▁leistet	-11.0119
▁befürchte	-11.012
klima	-11.012
käufe	-11.0123
Strahl	-11.0123
▁belgische	-11.0124
▁Schaf	-11.0124
▁Kenntnisse	-11.0125
▁fortgesetzt	-11.0126
▁Weiterentwickl	-11.0126
▁Kuba	-11.0128
▁Übersicht	-11.0128
▁Wunder	-11.0136
▁überwachen	-11.0144
kirche	-11.0145
▁Säule	-11.015
▁malerische	-11.0158
▁bewerten	-11.0161
▁aufzubauen	-11.0162
▁hinzugefügt	-11.0162
▁Tau	-11.0168
▁unterbreitet	-11.017
▁Palette	-11.0171
santräge	-11.0173
▁gebraucht	-11.0173
▁Siedlung	-11.0193
▁Syrien	-11.0196
▁Qualifikation	-11.0197
▁Zulassung	-11.0198
Technologie	-11.0199
▁Tendenz	-11.0201
saison	-11.0202
▁riesige	-11.0203
▁Krebs	-11.0204
zeile	-11.0206
Lösung	-11.0207
▁multilaterale	-11.0212
▁geblieben	-11.0219
▁Köln	-11.022
▁Substanz	-11.0224
▁Lounge	-11.0224
▁Vordergrund	-11.0227
spitz	-11.0227
▁Südafrika	-11.0236
▁Schlusselwort	-11.0236
▁Steuerzahler	-11.0239
gültig	-11.0243
▁Volkspartei	-11.0251
▁Rettung	-11.0255
finanz	-11.0261
▁sitzen	-11.0262
▁Gefangene	-11.0267
▁Anbetracht	-11.0278
▁ändert	-11.0281
Umstrukturierung	-11.0282
▁Demokraten	-11.0285
▁ECU	-11.0286
▁Mechanismus	-11.0293
▁David	-11.0298
▁like	-11.0298
93	-11.0299
▁Zürich	-11.0301
▁definieren	-11.0301
▁Verhältnisse	-11.0307
▁views	-11.0311
▁Feststellung	-11.0311
▁Behinderung	-11.0312
▁Nizza	-11.0312
▁Bonus	-11.0314
▁Minderheit	-11.0321
▁Arbeitskräfte	-11.0325
▁linken	-11.0327
▁Rahmenprogramm	-11.033
möglichkeit	-11.033
install	-11.033
Annehmlichkeiten	-11.0332
▁Chef	-11.0333
▁Arbeitsgruppe	-11.0337
▁Bilanz	-11.0338
▁Konjunktur	-11.034
basis	-11.0341
▁Australien	-11.0344
drängen	-11.0344
▁verarbeitet	-11.0348
währung	-11.035
▁verstehe	-11.0355
▁geniessen	-11.0355
▁solch	-11.0357
profil	-11.0357
▁Safe	-11.0358
▁grammatisch	-11.0359
▁umfassen	-11.0361
▁Vereinigte	-11.0364
▁keineswegs	-11.0375
▁1993	-11.0379
▁endet	-11.0385
▁schließt	-11.0393
▁verpflichten	-11.0394
▁dauern	-11.0397
▁Normal	-11.0404
▁Vereinigung	-11.0409
▁entdeckst	-11.041
▁Danach	-11.041
▁Besondere	-11.0418
▁Unsicherheit	-11.0424
▁NICHT	-11.043
▁Listings	-11.0438
▁Spaziergang	-11.0442
▁Dublin	-11.045
▁Sekunden	-11.0451
▁herzustellen	-11.0454
▁Mischung	-11.0458
▁irgendwelche	-11.0462
▁hinzufugen	-11.047
▁veröffentlichen	-11.0478
dichte	-11.0478
ministerium	-11.0488
▁schrecklich	-11.0492
▁gegebenenfalls	-11.0493
flotte	-11.0502
▁Menschheit	-11.0507
elphrase	-11.0509
anbieter	-11.0513
▁aufgezahlt	-11.0517
dämm	-11.0518
..."...	-11.052
▁Klaus	-11.0521
Format	-11.0526
siehe	-11.0528
▁Ereignis	-11.053
anspruch	-11.053
hänge	-11.0536
▁Reparatur	-11.0545
Abkommen	-11.0546
▁schrittweise	-11.0546
▁George	-11.0547
▁überrascht	-11.0549
▁Verfolgung	-11.0553
▁Nehmen	-11.0553
▁Kürze	-11.0556
▁Airbus	-11.0562
▁anerkennen	-11.0569
Entschlossenheit	-11.0573
Richtlinie	-11.0575
▁Sowohl	-11.0578
▁Szene	-11.0582
▁Feder	-11.0588
kampagne	-11.0589
▁ablehnen	-11.0589
▁Check	-11.059
▁Island	-11.059
▁Bürokratie	-11.0597
▁strukturelle	-11.0598
▁zwölf	-11.0605
▁Können	-11.0605
▁2.0	-11.0607
▁Visum	-11.061
▁stattgefunden	-11.0613
▁Etikett	-11.0617
▁problemlos	-11.0629
▁Finanzmärkte	-11.063
tradition	-11.0631
Paket	-11.0641
▁Kyoto	-11.0641
▁friendly	-11.0641
▁Reisende	-11.0642
messung	-11.0644
▁legislative	-11.0645
▁Prozeß	-11.0645
▁Extra	-11.0647
wettbewerb	-11.0648
▁zustande	-11.065
afrikanische	-11.0652
▁lädt	-11.0657
▁Weiterbildung	-11.0659
▁Gibt	-11.0661
▁Nutz	-11.0664
▁Erreichung	-11.0686
▁gestatten	-11.069
▁Salzburg	-11.0702
▁Aktualisierung	-11.0706
strasse	-11.0708
kriterien	-11.071
▁parallel	-11.0714
▁erleichtert	-11.0726
club	-11.0733
▁Flotte	-11.0734
▁Begründung	-11.0734
ergebnis	-11.0741
▁bewahren	-11.0743
▁erfasst	-11.0744
▁Gemüse	-11.075
▁Einschätzung	-11.0751
▁only	-11.0754
▁bestmöglich	-11.0759
▁begeistert	-11.0763
▁Abenteuer	-11.0763
▁Soldaten	-11.0778
▁öffnet	-11.0779
▁atemberaubend	-11.0783
▁verurteilen	-11.0784
▁lebendig	-11.0786
▁Schwäche	-11.0787
umweltfreundlich	-11.0787
▁Rotary	-11.0788
tauchen	-11.0788
wachstum	-11.0789
raucherzimmer	-11.0791
▁vereinfacht	-11.0795
▁Skype	-11.0803
sstandards	-11.0807
▁Wiederherstell	-11.0817
▁Alternativ	-11.0819
▁übrig	-11.082
▁startet	-11.082
▁beibehalten	-11.082
Team	-11.0821
▁erwerben	-11.0824
▁Versprechen	-11.0825
Modus	-11.0825
▁Gross	-11.0835
▁gerechtfertigt	-11.0853
▁gestartet	-11.0877
▁Nahrung	-11.0881
▁widmen	-11.0882
▁Domain	-11.0882
▁Slowakei	-11.0898
2002	-11.0901
▁verursachen	-11.0902
▁überwiegend	-11.0914
▁hört	-11.0919
doppel	-11.0919
▁Karriere	-11.0919
▁erstreckt	-11.0923
disziplin	-11.0931
▁Klarheit	-11.0947
▁Insgesamt	-11.0948
Jahr	-11.0958
▁islamische	-11.0973
▁auswählen	-11.0974
▁Wahrscheinlich	-11.0977
▁maßgeblich	-11.0981
▁investiert	-11.0985
signal	-11.0992
klausel	-11.0994
94	-11.0998
▁könne	-11.1006
Funktion	-11.1009
▁sensible	-11.101
▁tschechische	-11.101
▁begleiten	-11.1014
Point	-11.1019
▁ethisch	-11.102
▁Beobachter	-11.1027
▁unzählige	-11.1031
▁Schuh	-11.1037
▁Gewähr	-11.1037
▁Spiegel	-11.1048
▁genehmigt	-11.1056
▁Bosnien	-11.1056
▁Adria	-11.1063
▁anzupassen	-11.1065
▁Meilen	-11.1066
▁bedienen	-11.1074
▁Anders	-11.1074
▁anhaltende	-11.1083
▁mittelalterlich	-11.109
▁Behörde	-11.1095
▁Wichtigkeit	-11.1097
▁Entdeckung	-11.1098
schlaf	-11.1099
▁Spektrum	-11.1107
▁Häfen	-11.1117
▁Korrektur	-11.1119
▁Erkenntnisse	-11.1119
▁Prävention	-11.1129
▁Spanisch	-11.113
▁Professor	-11.1136
▁Dörfer	-11.114
entscheidung	-11.1141
▁bedeutsam	-11.1149
▁Verkäufer	-11.1149
▁Lärm	-11.1154
ception	-11.1158
▁Plaza	-11.1168
Source	-11.1173
▁Missbrauch	-11.1174
▁etabliert	-11.1174
▁respektieren	-11.1174
▁sportlich	-11.1179
▁Black	-11.1181
▁Grünbuch	-11.1181
▁Wechselkurs	-11.1181
2003	-11.1181
▁Wahrung	-11.1183
ación	-11.1184
▁Fotografie	-11.1188
gipfel	-11.1196
▁erkennt	-11.1198
▁verankert	-11.12
▁begegnen	-11.1204
▁Michel	-11.1215
▁Erzeugung	-11.1217
▁Erscheinung	-11.1217
▁Dampf	-11.1222
▁entspannt	-11.123
▁erörtert	-11.123
▁lenken	-11.1232
▁Logistik	-11.1239
▁Wurzel	-11.1247
▁Liberalen	-11.1251
beispiel	-11.1252
▁dänische	-11.1256
teilnehmer	-11.126
▁konzipiert	-11.1264
▁Mehrwert	-11.1267
▁bewertet	-11.1269
▁Einnahmen	-11.1269
▁Rubrik	-11.1272
▁genetisch	-11.1274
Skript	-11.1277
▁inhaltlich	-11.1279
▁Rußland	-11.129
bücher	-11.1296
vermögen	-11.1298
oberfläche	-11.1317
bilanz	-11.1319
▁centre	-11.132
▁euro	-11.1323
▁ordentlich	-11.1324
hancengleichheit	-11.1324
▁finanziell	-11.1325
▁fantastische	-11.1328
▁MySQL	-11.1328
▁Funktionalität	-11.1329
▁fortsetzen	-11.1333
bünd	-11.1334
▁Statut	-11.1337
objekt	-11.1345
▁Berater	-11.1347
▁Eigentümer	-11.135
▁Offenheit	-11.135
▁Arbeitslosen	-11.135
▁Weiterhin	-11.1351
▁verabschieden	-11.1354
▁vermutlich	-11.1354
но	-11.1361
▁Tragödie	-11.1363
▁benachteiligt	-11.1363
temperatur	-11.1363
wid	-11.1366
point	-11.1368
▁Million	-11.1371
2006	-11.1372
▁Inkrafttreten	-11.1376
▁Mittwoch	-11.138
▁unterbrochen	-11.138
▁Einzelheiten	-11.1381
▁derselben	-11.1381
▁überwacht	-11.1386
▁vorliegt	-11.1393
▁GNU	-11.1402
▁Ministerrat	-11.1404
▁Liege	-11.1405
▁Vorredner	-11.1415
stunden	-11.1415
mechanismen	-11.1419
▁herausragende	-11.1424
▁Erarbeitung	-11.1432
▁bemerkenswert	-11.1437
▁Mittelmeerraum	-11.1462
schuh	-11.1462
▁benannt	-11.1463
gerechnet	-11.1467
stift	-11.1472
▁Zahn	-11.1472
▁Marokko	-11.1476
▁romantische	-11.1476
▁territoriale	-11.1485
▁stärksten	-11.1489
wuchs	-11.149
▁integrieren	-11.1498
▁herrschen	-11.1498
▁bearbeitet	-11.1507
▁spannend	-11.1511
▁Gaza	-11.1517
Gipfel	-11.152
▁Moskau	-11.152
▁verwaltet	-11.1524
▁Entschädigung	-11.1525
Zertifikat	-11.1528
▁beeinflusst	-11.1529
▁Verlängerung	-11.1533
▁Royal	-11.1542
▁Studium	-11.1547
berichterstatter	-11.1554
▁Fertig	-11.1554
▁Rezession	-11.1555
▁flexibel	-11.1555
gebrochen	-11.1564
ianische	-11.1567
▁permanent	-11.1568
Dienst	-11.1571
▁steigt	-11.1582
▁Gegenstände	-11.1586
▁appelliere	-11.159
Politik	-11.1592
▁Ausgrenzung	-11.1595
▁Kürzung	-11.1595
на	-11.1597
▁verzichten	-11.1599
160;	-11.1599
▁Ausbeutung	-11.1604
▁Anwesenheit	-11.1604
▁Thomas	-11.1604
▁Gesichtspunkt	-11.1604
mechanismus	-11.1608
▁zugestimmt	-11.1608
▁anpassen	-11.1608
größte	-11.161
▁Terroristen	-11.162
▁Orientierung	-11.1621
▁römische	-11.163
risiko	-11.163
▁europaweit	-11.1635
▁zugute	-11.1636
▁iranische	-11.164
▁walk	-11.164
▁kritisiert	-11.1644
▁drastisch	-11.1644
▁Blumen	-11.1644
▁12.00	-11.1647
gesteuert	-11.1649
Dollar	-11.1651
papier	-11.1662
besuch	-11.1664
▁afrikanischen	-11.1664
▁einheimische	-11.1664
▁begangen	-11.167
▁Publikation	-11.167
ausstattung	-11.1679
vereinbarung	-11.1681
▁Arzt	-11.1685
▁empfängt	-11.1688
▁Hostelsclub	-11.1688
▁Zusage	-11.1703
▁Konvergenz	-11.1706
▁unerlässlich	-11.1711
▁Tibet	-11.1711
▁vergangen	-11.1712
▁eröffnen	-11.1715
christliche	-11.1724
▁gehabt	-11.1742
▁familiär	-11.1746
▁Privatsphäre	-11.1747
▁Flüchtlings	-11.1751
therapie	-11.1752
▁Nationalpark	-11.1754
▁Performance	-11.176
▁vermieden	-11.1765
▁verliehen	-11.1769
▁Ordner	-11.1774
flüsse	-11.1784
▁genießt	-11.1787
▁Ingenieur	-11.1792
▁would	-11.1801
▁Schwimm	-11.1801
▁wild	-11.1803
▁place	-11.1809
▁beinahe	-11.1811
▁Schauspieler	-11.1815
praktik	-11.1819
▁sterben	-11.182
▁Verabschiedung	-11.1823
▁eingeräumt	-11.1832
▁Blue	-11.1833
kinder	-11.1835
▁Party	-11.1835
▁Literatur	-11.1841
neutral	-11.1845
▁optisch	-11.1856
Ebene	-11.1859
▁Ärzte	-11.186
▁Workshop	-11.1864
▁Washington	-11.1869
▁obligatorisch	-11.1869
▁zwanzig	-11.1869
▁bürgerliche	-11.1879
▁Fakten	-11.1884
▁körperlich	-11.1888
▁dasselbe	-11.1888
▁Interview	-11.1888
▁städtische	-11.1896
▁gravierend	-11.1901
ни	-11.1903
▁Fortsetzung	-11.1903
▁Gipfeltreffen	-11.1907
▁Mitgliedsländer	-11.191
kämpfe	-11.1912
▁Beobachtung	-11.1927
okrati	-11.1928
▁Gelände	-11.1929
verschmutzung	-11.1933
▁France	-11.1937
plattform	-11.1951
▁Kanal	-11.1955
▁passt	-11.1965
▁Gentoo	-11.1969
▁excellent	-11.1978
▁Optimierung	-11.1992
▁minimal	-11.1997
▁Störung	-11.1997
jpg	-11.2002
gestalt	-11.2005
▁bemerkt	-11.2013
▁Demonstration	-11.2015
ambi	-11.2017
bringt	-11.204
ichtraucherzonen	-11.2048
▁Möglich	-11.205
▁Rhein	-11.2058
▁markiert	-11.2064
▁fühlt	-11.2067
Entwicklung	-11.2068
▁Legislativ	-11.2071
▁passieren	-11.2076
▁Inhaber	-11.2076
▁heutzutage	-11.208
▁Maastricht	-11.2085
▁beschleunigen	-11.2085
▁Forscher	-11.2085
▁Fundament	-11.2089
Expert	-11.2093
▁Mobiltelefon	-11.2099
▁other	-11.2126
▁bekräftigt	-11.2137
▁gebilligt	-11.2146
▁Tempo	-11.2146
▁Genuss	-11.2149
▁Mallorca	-11.215
revolution	-11.2152
▁comfortable	-11.2155
▁Drittstaaten	-11.2162
▁überarbeitet	-11.2165
geschaltet	-11.2169
▁gehandelt	-11.217
▁erläutert	-11.2174
▁Express	-11.2174
▁unterscheidet	-11.2188
▁Budapest	-11.2192
▁ungewöhnlich	-11.2192
▁tragisch	-11.2197
▁löschen	-11.2197
▁Anhänger	-11.2211
▁auswärtige	-11.2216
trächtig	-11.2229
€	-11.223
▁Kreatur	-11.2235
ière	-11.224
▁respektiert	-11.2258
konsum	-11.2261
▁traditionell	-11.2274
▁University	-11.2277
erzeugung	-11.2278
kompetenz	-11.2282
▁Monopol	-11.2282
▁Taiwan	-11.2287
▁Kloster	-11.2301
▁beschließen	-11.2305
▁Bewerber	-11.2306
▁teure	-11.2307
▁renommierte	-11.2315
▁beschreibt	-11.2325
▁empfiehlt	-11.233
▁Angehörige	-11.2339
feindlich	-11.2352
gedruckt	-11.2355
▁gelingen	-11.2361
▁Kämpfe	-11.2368
▁Ermittlung	-11.2373
▁bekam	-11.2374
▁künstlich	-11.2377
▁Besatzung	-11.2383
Regierung	-11.239
▁spektakulär	-11.2406
treibung	-11.2417
wendig	-11.2418
▁Figur	-11.2421
▁vorübergehend	-11.243
style	-11.2434
Bürger	-11.2439
▁{{	-11.2464
▁allmählich	-11.2469
Generalsekretär	-11.2474
▁Wertpapier	-11.248
heirat	-11.2491
▁getötet	-11.2493
demokratische	-11.2496
▁Aluminium	-11.2503
▁Hektar	-11.2507
▁eigenständig	-11.2514
▁Stabilisierung	-11.2522
▁komfortabel	-11.2532
▁administrative	-11.2541
▁stattdessen	-11.2546
▁Swiss	-11.2551
▁gewinnt	-11.2554
▁glaubwürdig	-11.2556
▁verwirklichen	-11.2556
▁ausgedehnt	-11.2556
Artikel	-11.2563
▁gefährden	-11.2581
▁Desktop	-11.2585
video	-11.2588
▁kohärent	-11.259
▁reibungslos	-11.259
▁leistungsfähig	-11.259
▁Ankündigung	-11.2595
lizenz	-11.2596
▁gelernt	-11.2596
Serie	-11.2596
bearbeitung	-11.2606
bräu	-11.2609
praxis	-11.261
▁Litauen	-11.2615
▁nutzbar	-11.2616
szusammenarbeit	-11.2618
▁verknüpft	-11.262
▁ärmsten	-11.262
▁Territorium	-11.2625
▁Navigation	-11.2629
▁bürokratisch	-11.2629
▁kollektive	-11.2629
effizient	-11.2631
▁Indikator	-11.2634
▁vorbehalten	-11.2635
}	-11.2639
ansprüche	-11.2659
▁gekauft	-11.266
▁Produzenten	-11.2669
▁insofern	-11.2669
▁optimiert	-11.2679
▁original	-11.2679
▁jemals	-11.2684
▁kompakt	-11.2685
▁Lücke	-11.27
sammlung	-11.2707
▁ratifiziert	-11.2718
▁Rassismus	-11.2728
▁Unterdrückung	-11.2743
▁unterwegs	-11.2755
Raum	-11.2759
▁Kreativität	-11.2763
▁spätestens	-11.2763
▁finnische	-11.2768
▁inakzeptabel	-11.2773
ibili	-11.2774
▁Entstehung	-11.2788
▁beizutragen	-11.2788
▁Präsidium	-11.2793
▁Therapie	-11.2793
gespräch	-11.2793
▁angestrebt	-11.2798
▁Lieblings	-11.2808
▁Schnitt	-11.2809
▁Erkrankung	-11.2813
▁Reichtum	-11.2825
▁Zwangs	-11.2833
▁stetig	-11.2834
▁statistische	-11.2836
▁Herberge	-11.284
Fischereipolitik	-11.2847
transatlantische	-11.2848
siedlung	-11.2848
▁Rahmenbedingung	-11.2851
▁Jugoslawien	-11.2853
▁nukleare	-11.2853
▁kostengünstig	-11.2853
▁Gärten	-11.2853
▁leitet	-11.2874
▁terroristische	-11.2878
sequenz	-11.2879
▁Schwimmbad	-11.2884
▁Bewältigung	-11.2888
profession	-11.2897
▁spiegelt	-11.2897
▁unterbreiten	-11.2899
▁schenken	-11.2899
▁folglich	-11.2903
▁umgekehrt	-11.2918
stuhl	-11.2919
▁Innerhalb	-11.2923
▁Wörter	-11.2923
erlebnis	-11.2929
▁Fokus	-11.2939
▁European	-11.2939
brücke	-11.2943
▁Universal	-11.2954
▁vorbereiten	-11.296
▁Vulkan	-11.2964
▁kommunistische	-11.2964
▁Etwa	-11.2964
▁Freuen	-11.2969
▁Südtirol	-11.2974
▁Palästina	-11.2984
▁Swimmingpool	-11.2984
▁eindrucksvoll	-11.2984
▁Schmerz	-11.2984
spezial	-11.2986
▁ignoriert	-11.2989
Institut	-11.299
▁Treibhausgas	-11.2995
▁versteckt	-11.2997
kreuz	-11.3005
▁Scheitern	-11.3005
▁Kommando	-11.301
▁Behauptung	-11.302
▁bedauere	-11.3026
▁stützen	-11.303
▁Adobe	-11.3046
nbsp	-11.3047
▁Erfordernisse	-11.3056
▁Motto	-11.3056
▁Slowenien	-11.3061
▁geschafft	-11.3066
▁entworfen	-11.3081
▁herkömmliche	-11.3087
bevölkerung	-11.3091
aufgaben	-11.3094
▁rechtfertigen	-11.3107
sprung	-11.3108
firmen	-11.3111
▁Breakfast	-11.3112
▁droht	-11.3113
▁Index	-11.3123
▁Alexander	-11.3128
▁theoretisch	-11.3128
▁Register	-11.3133
präsidenten	-11.3133
▁Verbündete	-11.3138
übertragung	-11.315
▁Angestellte	-11.3162
▁Magazin	-11.3164
vorsitzende	-11.3166
▁mutig	-11.3167
schäden	-11.317
▁Vergnügen	-11.3174
▁Palace	-11.3174
▁Foundation	-11.318
▁verwalten	-11.318
▁Niederlassung	-11.318
▁zeitgenössische	-11.3185
▁interessieren	-11.3206
▁erzählt	-11.3212
▁Überarbeitung	-11.3221
▁Vermarktung	-11.3227
▁Fabrik	-11.3242
5.000	-11.3244
▁Koordination	-11.3263
▁enttäuscht	-11.3268
▁Pharma	-11.3268
▁Bananen	-11.3269
▁Züge	-11.3271
▁Bezirk	-11.3273
senkung	-11.3276
▁erörtern	-11.3279
▁resultieren	-11.3284
▁Meldung	-11.329
▁Surf	-11.329
▁Mineral	-11.3291
▁aktualisieren	-11.3294
Demokratisierung	-11.3305
▁geschmackvoll	-11.3305
▁musikalische	-11.3305
▁Ähnlich	-11.3305
▁Boutique	-11.331
Administration	-11.3321
▁ernannt	-11.3321
▁Leidenschaft	-11.3321
▁multinationale	-11.3322
▁Zivilisation	-11.3326
▁Puerto	-11.3326
empfindlich	-11.3327
missbrauch	-11.3331
▁Vorgaben	-11.3332
erfahrung	-11.3335
world	-11.3339
▁erläutern	-11.3342
▁gebucht	-11.3354
▁schützt	-11.3358
verantwortlich	-11.3359
▁Reife	-11.3362
▁Getreide	-11.3363
▁Subventionen	-11.3368
▁studiert	-11.3368
▁Libanon	-11.3379
▁beurteilen	-11.3385
▁erinnere	-11.3389
stürzt	-11.3389
wahrscheinlich	-11.3392
Modell	-11.3392
▁erkennbar	-11.3395
widrig	-11.3404
▁Implementierung	-11.3405
▁Attraktionen	-11.3411
▁Experiment	-11.3411
▁Frucht	-11.3411
stream	-11.3424
▁realisieren	-11.3427
▁Stornierung	-11.3432
▁Zufriedenheit	-11.3437
▁beschleunigt	-11.3437
Commerce	-11.3437
▁jeweilige	-11.3443
▁Mazedonien	-11.3448
▁Zubehör	-11.3448
▁sanft	-11.3448
adresse	-11.3455
▁Außer	-11.3458
▁HTML	-11.3458
▁materiell	-11.3458
▁Früchte	-11.3459
▁Piazza	-11.3464
▁every	-11.3469
▁Geheimnis	-11.3474
beginn	-11.3478
▁Betroffenen	-11.348
▁Argentinien	-11.3485
▁Entspannen	-11.349
▁unberührt	-11.3496
▁Zustellbett	-11.3501
▁erstaunlich	-11.3507
▁Stockholm	-11.3507
▁located	-11.3512
▁Atlantik	-11.3517
▁Verstärkung	-11.3517
▁1,5	-11.3519
▁Disziplin	-11.3523
▁Einladung	-11.3523
infrastruktur	-11.3528
▁interaktive	-11.353
▁vereinfachen	-11.3533
▁Content	-11.3534
▁high	-11.3536
▁Pfeiler	-11.3539
marquis	-11.3539
▁vertraulich	-11.3544
▁begab	-11.3553
▁gewann	-11.3555
▁bedauern	-11.3556
▁Zertifizierung	-11.356
▁Diktatur	-11.3587
▁irakische	-11.3587
▁Elektronik	-11.3598
dimension	-11.3609
▁aufrichtig	-11.3613
▁befindliche	-11.3621
protokoll	-11.3636
▁Interpretation	-11.3636
▁unverzichtbar	-11.3641
▁Aufklärung	-11.3647
defizit	-11.3651
▁klimatisiert	-11.3658
förmig	-11.3663
▁Kompromiß	-11.3669
▁Stuttgart	-11.368
▁problematisch	-11.368
▁Assoziierung	-11.3696
▁Investment	-11.3696
▁Kleidung	-11.3696
▁ansonsten	-11.3702
▁Stabilitätspakt	-11.3707
▁Rechenschaft	-11.3707
fleisch	-11.3727
▁Vorgänger	-11.3729
▁zurückkehren	-11.3729
Bild	-11.3738
Design	-11.3744
potenzial	-11.3756
▁Devisen	-11.3756
▁analysieren	-11.3767
▁entscheidet	-11.3778
▁trocken	-11.3779
▁vorteilhaft	-11.3784
Gestatten	-11.3791
▁zitiere	-11.3794
▁({{	-11.3795
▁faszinierende	-11.38
▁could	-11.3806
▁Gestalt	-11.3807
▁gesondert	-11.3811
▁Cocktail	-11.3817
▁produktiv	-11.3818
script	-11.3822
▁elektro	-11.3825
schöpfung	-11.3833
▁gratis	-11.3834
▁Wahrnehmung	-11.3845
▁jünger	-11.3845
▁BMW	-11.3856
▁Mobile	-11.3857
▁jüdische	-11.3861
▁abzielt	-11.3863
▁verwöhnen	-11.3872
▁Echtzeit	-11.3872
public	-11.3883
▁Albanien	-11.3883
▁Bäume	-11.3885
▁keinesfalls	-11.389
▁Ernennung	-11.3895
▁Hotelsafe	-11.3895
▁Thermal	-11.39
Preis	-11.3903
Gesundheitswesen	-11.3912
Partner	-11.3913
beratung	-11.3914
unterschied	-11.3916
▁Vietnam	-11.3922
▁beeinträchtigt	-11.3922
▁Niemand	-11.3922
▁Sowjetunion	-11.3928
▁fließen	-11.3929
Haushalt	-11.3936
▁starb	-11.3939
▁brutal	-11.3939
▁Kathedrale	-11.3945
▁Übung	-11.3945
▁registrieren	-11.395
▁erholsame	-11.395
▁Simbabwe	-11.3956
▁Quartal	-11.3967
▁verbracht	-11.3967
manager	-11.3978
▁Unionsbürger	-11.3985
▁Shuttle	-11.399
Protokoll	-11.3999
▁iPhone	-11.4001
▁scharf	-11.4002
▁Libyen	-11.4007
▁beantragt	-11.4018
volumen	-11.4018
aufenthalt	-11.4019
▁verfasst	-11.4021
▁dunkle	-11.4024
▁Kohärenz	-11.4035
▁Rezept	-11.4035
▁Network	-11.4035
▁analysiert	-11.404
EWG	-11.4041
▁informelle	-11.4042
▁strafrechtlich	-11.4052
▁Gemäß	-11.4056
▁Wohlbefinden	-11.4057
gelände	-11.4071
▁Sensor	-11.4072
▁small	-11.408
▁nennt	-11.4087
Engine	-11.4092
▁Bedingung	-11.4096
▁Weihnachts	-11.4097
▁universell	-11.4097
feuer	-11.4101
▁Brüder	-11.4115
▁Tempel	-11.412
▁getestet	-11.412
▁Gültigkeit	-11.4131
▁Ungleichgewicht	-11.4131
▁ausgeübt	-11.4131
▁verlängert	-11.4131
▁gesundheitliche	-11.4137
▁Nuklear	-11.4149
▁Quadrat	-11.416
▁Trennung	-11.4166
field	-11.4166
▁Frequenz	-11.4171
▁Thailand	-11.4171
▁Whirlpool	-11.4171
sphäre	-11.4175
▁harmonisch	-11.4177
szeitraum	-11.4182
▁Behinderte	-11.4189
▁populär	-11.4194
konflikt	-11.42
▁trennen	-11.4201
▁verschärft	-11.4212
▁verheerend	-11.4212
▁Erfindung	-11.4212
▁denselben	-11.4229
▁horizontal	-11.4235
▁untergraben	-11.424
Standard	-11.4243
▁Schlußfolgerung	-11.4246
▁Geburtstag	-11.4246
▁Rindfleisch	-11.4252
▁Ozean	-11.4264
▁köstliche	-11.4265
▁zerstören	-11.4269
▁Übersetzer	-11.4269
▁beseitigt	-11.427
computer	-11.427
▁Gummi	-11.4272
▁Sorgfalt	-11.4275
▁wöchentlich	-11.4275
▁traurig	-11.4275
antwortungsvolle	-11.4278
Taste	-11.4295
telefon	-11.4297
▁Erdbeben	-11.4304
medizin	-11.4307
▁hübsch	-11.431
angehörige	-11.4315
▁Norwegen	-11.4321
▁Käse	-11.434
▁Corporate	-11.4351
▁einzurichten	-11.4351
▁Anleger	-11.4351
▁Spalte	-11.4352
nachweis	-11.4377
▁Träger	-11.438
▁veranstaltet	-11.438
Interface	-11.438
▁einzubeziehen	-11.4392
krebs	-11.4392
▁Beendigung	-11.4403
▁jahrelang	-11.4409
▁beobachtet	-11.4409
▁historisch	-11.4415
▁sonnig	-11.4418
▁Verweis	-11.4419
Karte	-11.4426
▁Fragestunde	-11.4426
▁Hongkong	-11.4427
▁Etappe	-11.4433
mütig	-11.4443
▁Verstöße	-11.445
vielfalt	-11.4456
▁Legitimität	-11.4462
▁auszuüben	-11.4468
härte	-11.4469
▁Governance	-11.4486
pflanzen	-11.4486
▁befand	-11.4486
dauerlicherweise	-11.4492
▁akzeptabel	-11.4492
▁gäbe	-11.4492
▁Stattdessen	-11.4497
▁Netto	-11.4498
▁Nachfolger	-11.4512
▁Indonesien	-11.4515
verbände	-11.4521
▁Jugendherberge	-11.4533
▁Höhle	-11.4533
▁Louis	-11.4539
▁Zuschauer	-11.4545
fänglich	-11.4551
▁Annäherung	-11.4551
▁unterliegt	-11.4551
▁Buffet	-11.4557
▁Millennium	-11.4563
▁verwirklicht	-11.4563
▁müsse	-11.4565
sammenzuarbeiten	-11.457
Gleichbehandlung	-11.4587
▁Münz	-11.4591
▁Parallel	-11.4593
aufrechterhalten	-11.4593
öffentlich	-11.4605
▁strukturiert	-11.4615
▁Einfluß	-11.4617
▁Kabine	-11.4627
▁größtmögliche	-11.4629
▁Energieversorg	-11.4639
▁Batterie	-11.4641
▁Befreiung	-11.4641
▁Wikitravel	-11.4653
▁Zahlreiche	-11.4659
▁weibliche	-11.4659
▁Richard	-11.4665
▁verleiht	-11.4665
▁Tunesien	-11.4671
▁korrigieren	-11.4671
▁access	-11.4677
spruch	-11.4679
▁LateRooms	-11.4683
▁Sortiment	-11.4683
▁Single	-11.4684
▁Leucht	-11.4685
▁Demokratisch	-11.4689
▁Kanäle	-11.4689
▁erfreulich	-11.4695
▁Nordkorea	-11.4701
▁Befürchtung	-11.4719
▁definitiv	-11.4719
▁Nichtregierungs	-11.4725
▁EVP	-11.4731
Klasse	-11.4732
▁Release	-11.4737
▁ueber	-11.4745
▁Premium	-11.4749
▁gelöscht	-11.4749
▁Autonomie	-11.4753
▁versprochen	-11.4755
▁Abwicklung	-11.4761
Zimmer	-11.4762
▁widmet	-11.4767
institutionen	-11.4768
struct	-11.4771
▁Security	-11.4774
▁geholfen	-11.4774
Christdemokraten	-11.478
▁ignorieren	-11.4786
▁Schottland	-11.4786
▁verschoben	-11.4786
garantie	-11.4788
philosoph	-11.4792
gesandt	-11.4806
build	-11.4808
▁Überraschung	-11.481
bäume	-11.481
▁Erneuerung	-11.4822
▁Darlehen	-11.4828
▁anbietet	-11.4835
▁Copyright	-11.4841
wärme	-11.4852
▁gescheitert	-11.4853
▁Reihenfolge	-11.4865
▁berühmt	-11.4871
▁Evaluierung	-11.4871
Infektion	-11.4874
▁verliert	-11.4878
▁ideologisch	-11.4879
zünd	-11.4884
belastung	-11.4886
▁Vermeidung	-11.4896
▁verschwinden	-11.4896
schmutz	-11.4896
afrika	-11.4899
▁zwangsläufig	-11.4902
▁Friedrich	-11.4902
konzern	-11.4904
föderal	-11.4908
▁genügt	-11.4908
▁koordinieren	-11.4908
wirksam	-11.4909
▁UNESCO	-11.4927
Script	-11.4933
▁zutiefst	-11.4939
▁geklärt	-11.4939
▁zertifiziert	-11.4952
▁unterstreicht	-11.4952
▁Segment	-11.4952
synchron	-11.4964
▁besticht	-11.4964
völker	-11.4968
▁Aufsichtsrat	-11.497
▁Grundfreiheiten	-11.497
▁Treiber	-11.4977
▁worauf	-11.4977
▁profitiert	-11.4983
▁Joseph	-11.4995
▁namentlich	-11.5008
▁Animation	-11.5008
plikation	-11.5019
▁größtenteils	-11.5033
konstruktion	-11.5039
▁motiviert	-11.5046
berechtigt	-11.5049
verzeichnis	-11.5051
▁Rabatt	-11.5058
Gastfreundschaft	-11.507
▁einschlägige	-11.507
▁Wüste	-11.5073
▁Jagd	-11.509
▁preiswert	-11.5091
Auto	-11.5099
investitionen	-11.5101
▁feiern	-11.5102
▁sozusagen	-11.5108
▁fundamental	-11.512
▁ausgeglichen	-11.512
▁betreut	-11.5127
▁traumhaft	-11.5133
▁photo	-11.5139
überwachung	-11.514
zusammen	-11.5144
▁bedeutendsten	-11.5145
▁spürbar	-11.5158
▁Alpha	-11.5159
▁äußert	-11.5183
▁Begrenzung	-11.519
▁School	-11.519
▁Toleranz	-11.5202
▁äußere	-11.5202
▁umstritten	-11.5209
▁White	-11.5209
▁wusste	-11.5211
▁Psycho	-11.5212
▁Rekord	-11.5222
